{
  "version": "1.0",
  "truncation": {
    "direction": "Right",
    "max_length": 48,
    "strategy": "LongestFirst",
    "stride": 0
  },
  "padding": {
    "strategy": {
      "Fixed": 48
    },
    "direction": "Right",
    "pad_to_multiple_of": null,
    "pad_id": 0,
    "pad_type_id": 0,
    "pad_token": "[PAD]"
  },
  "added_tokens": [
    {
      "id": 0,
      "content": "[PAD]",
      "single_word": false,
      "lstrip": false,
      "rstrip": false,
      "normalized": false,
      "special": true
    },
    {
      "id": 1,
      "content": "[UNK]",
      "single_word": false,
      "lstrip": false,
      "rstrip": false,
      "normalized": false,
      "special": true
    },
    {
      "id": 2,
      "content": "[CLS]",
      "single_word": false,
      "lstrip": false,
      "rstrip": false,
      "normalized": false,
      "special": true
    },
    {
      "id": 3,
      "content": "[SEP]",
      "single_word": false,
      "lstrip": false,
      "rstrip": false,
      "normalized": false,
      "special": true
    },
    {
      "id": 4,
      "content": "[MASK]",
      "single_word": false,
      "lstrip": false,
      "rstrip": false,
      "normalized": false,
      "special": true
    }
  ],
  "normalizer": {
    "type": "BertNormalizer",
    "clean_text": true,
    "handle_chinese_chars": true,
    "strip_accents": false,
    "lowercase": true
  },
  "pre_tokenizer": {
    "type": "BertPreTokenizer"
  },
  "post_processor": {
    "type": "TemplateProcessing",
    "single": [
      {
        "SpecialToken": {
          "id": "[CLS]",
          "type_id": 0
        }
      },
      {
        "Sequence": {
          "id": "A",
          "type_id": 0
        }
      },
      {
        "SpecialToken": {
          "id": "[SEP]",
          "type_id": 0
        }
      }
    ],
    "pair": [
      {
        "SpecialToken": {
          "id": "[CLS]",
          "type_id": 0
        }
      },
      {
        "Sequence": {
          "id": "A",
          "type_id": 0
        }
      },
      {
        "SpecialToken": {
          "id": "[SEP]",
          "type_id": 0
        }
      },
      {
        "Sequence": {
          "id": "B",
          "type_id": 1
        }
      },
      {
        "SpecialToken": {
          "id": "[SEP]",
          "type_id": 1
        }
      }
    ],
    "special_tokens": {
      "[CLS]": {
        "id": "[CLS]",
        "ids": [
          2
        ],
        "tokens": [
          "[CLS]"
        ]
      },
      "[SEP]": {
        "id": "[SEP]",
        "ids": [
          3
        ],
        "tokens": [
          "[SEP]"
        ]
      }
    }
  },
  "decoder": {
    "type": "WordPiece",
    "prefix": "##",
    "cleanup": true
  },
  "model": {
    "type": "WordPiece",
    "unk_token": "[UNK]",
    "continuing_subword_prefix": "##",
    "max_input_chars_per_word": 100,
    "vocab": {
      "[PAD]": 0,
      "[UNK]": 1,
      "[CLS]": 2,
      "[SEP]": 3,
      "[MASK]": 4,
      "##er": 5,
      "##en": 6,
      "d": 7,
      "s": 8,
      "##et": 9,
      "a": 10,
      "f": 11,
      "m": 12,
      "o": 13,
      "h": 14,
      "##in": 15,
      "##or": 16,
      "##an": 17,
      "##ti": 18,
      "##ed": 19,
      "v": 20,
      "##el": 21,
      "b": 22,
      "i": 23,
      "k": 24,
      "##ig": 25,
      "p": 26,
      "##ar": 27,
      "og": 28,
      "##es": 29,
      "for": 30,
      "##de": 31,
      "l": 32,
      "er": 33,
      "g": 34,
      "ti": 35,
      "##st": 36,
      "##ing": 37,
      "en": 38,
      "at": 39,
      "##al": 40,
      "n": 41,
      "##re": 42,
      "t": 43,
      "##om": 44,
      "til": 45,
      "det": 46,
      "af": 47,
      "##ke": 48,
      "##eg": 49,
      "##le": 50,
      "##ag": 51,
      "u": 52,
      "##on": 53,
      "vi": 54,
      "j": 55,
      "##ter": 56,
      "##der": 57,
      "på": 58,
      "der": 59,
      "##ne": 60,
      "med": 61,
      "##te": 62,
      "##is": 63,
      "##ver": 64,
      "##un": 65,
      "##ra": 66,
      "##ør": 67,
      "##ler": 68,
      "de": 69,
      "st": 70,
      "##sk": 71,
      "sk": 72,
      "##ol": 73,
      "##kke": 74,
      "den": 75,
      "##den": 76,
      "r": 77,
      "hv": 78,
      "##se": 79,
      "##lig": 80,
      "##il": 81,
      "jeg": 82,
      "##ær": 83,
      "##am": 84,
      "##år": 85,
      "du": 86,
      "har": 87,
      "in": 88,
      "ikke": 89,
      "##ge": 90,
      "##dt": 91,
      "##ning": 92,
      "som": 93,
      "##at": 94,
      "##og": 95,
      "om": 96,
      "ud": 97,
      "kan": 98,
      "##ve": 99,
      "et": 100,
      "##ik": 101,
      "e": 102,
      "##and": 103,
      "an": 104,
      "-": 105,
      "så": 106,
      "op": 107,
      "al": 108,
      "##ede": 109,
      "##ad": 110,
      "##it": 111,
      "##ere": 112,
      "##æn": 113,
      "##ro": 114,
      "men": 115,
      "##ej": 116,
      "##ende": 117,
      "##ru": 118,
      "##hed": 119,
      "el": 120,
      "##as": 121,
      "##ur": 122,
      "##æl": 123,
      "var": 124,
      "man": 125,
      "c": 126,
      "1": 127,
      "##tion": 128,
      "##ri": 129,
      "##ser": 130,
      "bl": 131,
      "##del": 132,
      "##ul": 133,
      "##sen": 134,
      "##av": 135,
      "##for": 136,
      "vil": 137,
      "##ste": 138,
      "##ger": 139,
      "sam": 140,
      "hvor": 141,
      "##ker": 142,
      "sp": 143,
      "##ds": 144,
      "fra": 145,
      "##ræ": 146,
      "##mer": 147,
      "2": 148,
      "kom": 149,
      "##ek": 150,
      "eller": 151,
      "##ab": 152,
      "##em": 153,
      "##ige": 154,
      "skal": 155,
      "ved": 156,
      "##ent": 157,
      "##fter": 158,
      "væ": 159,
      "over": 160,
      "##od": 161,
      "##us": 162,
      "##id": 163,
      "ind": 164,
      "han": 165,
      "##ang": 166,
      "un": 167,
      "##me": 168,
      "##ens": 169,
      "##est": 170,
      "##det": 171,
      "##else": 172,
      "##age": 173,
      "må": 174,
      "##øj": 175,
      "sig": 176,
      "min": 177,
      "##erne": 178,
      "##ok": 179,
      "re": 180,
      "kun": 181,
      "nog": 182,
      "hel": 183,
      "##ak": 184,
      "##så": 185,
      "##ske": 186,
      "##øb": 187,
      "##lev": 188,
      "her": 189,
      "##bej": 190,
      "efter": 191,
      "##ort": 192,
      "se": 193,
      "##lige": 194,
      "##pp": 195,
      "ar": 196,
      "##iv": 197,
      "være": 198,
      "##ov": 199,
      "##tig": 200,
      "også": 201,
      "##iver": 202,
      "##yn": 203,
      "##hol": 204,
      "##til": 205,
      "##ud": 206,
      "##yg": 207,
      "##ks": 208,
      "(": 209,
      "##ling": 210,
      "##ist": 211,
      "##ft": 212,
      "##ation": 213,
      "kon": 214,
      "pro": 215,
      "##dre": 216,
      "år": 217,
      "##æg": 218,
      "##men": 219,
      "kl": 220,
      "sel": 221,
      "##øn": 222,
      "ny": 223,
      "dig": 224,
      "hj": 225,
      "##eget": 226,
      "##ot": 227,
      "bru": 228,
      "blev": 229,
      "##sp": 230,
      "##elig": 231,
      "bes": 232,
      "hvis": 233,
      "dan": 234,
      "##yr": 235,
      "##dan": 236,
      "##gen": 237,
      "##kt": 238,
      "##æt": 239,
      "##ave": 240,
      "##ut": 241,
      "din": 242,
      "##øl": 243,
      "##und": 244,
      "be": 245,
      "##lem": 246,
      "fin": 247,
      "go": 248,
      "vær": 249,
      "selv": 250,
      "##ale": 251,
      "##um": 252,
      "\"": 253,
      "under": 254,
      "gen": 255,
      "før": 256,
      "##ligt": 257,
      "meget": 258,
      "mig": 259,
      "##ive": 260,
      "##..": 261,
      "##dr": 262,
      "##vær": 263,
      "##op": 264,
      "få": 265,
      "##ir": 266,
      "##let": 267,
      "hvad": 268,
      "alle": 269,
      "##end": 270,
      "pr": 271,
      "##isk": 272,
      "når": 273,
      "##tet": 274,
      "##rem": 275,
      "##ic": 276,
      "##os": 277,
      "##ff": 278,
      "##øg": 279,
      "sm": 280,
      "hav": 281,
      "##art": 282,
      "##ken": 283,
      "20": 284,
      "arbej": 285,
      "fl": 286,
      "nu": 287,
      "3": 288,
      "si": 289,
      "##ød": 290,
      "##var": 291,
      "end": 292,
      "li": 293,
      "##vis": 294,
      "##øre": 295,
      "pl": 296,
      "##yl": 297,
      "da": 298,
      "tr": 299,
      "##ager": 300,
      "##igt": 301,
      "bar": 302,
      "hun": 303,
      "gr": 304,
      "##eder": 305,
      "##ket": 306,
      "##ret": 307,
      "##elt": 308,
      "##nes": 309,
      "per": 310,
      "mere": 311,
      "stor": 312,
      "br": 313,
      "vor": 314,
      "kv": 315,
      "##sm": 316,
      "dag": 317,
      "##ie": 318,
      "mange": 319,
      "læ": 320,
      "##ene": 321,
      "##ber": 322,
      "mu": 323,
      "sl": 324,
      "##yk": 325,
      "##sl": 326,
      "##...": 327,
      "##skab": 328,
      "bet": 329,
      "##ion": 330,
      "noget": 331,
      "frem": 332,
      "##este": 333,
      "mo": 334,
      "##tid": 335,
      "##nem": 336,
      "##ingen": 337,
      "##itet": 338,
      "vores": 339,
      "bil": 340,
      "##ner": 341,
      "havde": 342,
      "dem": 343,
      "bliver": 344,
      "##ass": 345,
      "w": 346,
      "vir": 347,
      "##uk": 348,
      "##ninger": 349,
      "kunne": 350,
      "##lighed": 351,
      "##ant": 352,
      "have": 353,
      "tilb": 354,
      "godt": 355,
      "##di": 356,
      "##æng": 357,
      "denne": 358,
      "##iske": 359,
      "##ark": 360,
      "køb": 361,
      "##per": 362,
      "##tiv": 363,
      "##elser": 364,
      "##net": 365,
      "##be": 366,
      "##els": 367,
      "##ring": 368,
      "bed": 369,
      "##yt": 370,
      "fr": 371,
      "alt": 372,
      "##ys": 373,
      "ø": 374,
      "##elsen": 375,
      "##son": 376,
      "##ten": 377,
      "hol": 378,
      "komm": 379,
      "tid": 380,
      "##alg": 381,
      "##lere": 382,
      "bør": 383,
      "dette": 384,
      "to": 385,
      "##jer": 386,
      "lig": 387,
      "jo": 388,
      "##ac": 389,
      "os": 390,
      "##kl": 391,
      "høj": 392,
      "##mp": 393,
      "andre": 394,
      "##rå": 395,
      "sin": 396,
      "##igtig": 397,
      "##ast": 398,
      "brug": 399,
      "udv": 400,
      "##yder": 401,
      "or": 402,
      "kr": 403,
      "##hold": 404,
      "##dag": 405,
      "##00": 406,
      "##ven": 407,
      "##tik": 408,
      "deres": 409,
      "beg": 410,
      "##ap": 411,
      "##ade": 412,
      "##tisk": 413,
      "forsk": 414,
      "4": 415,
      "##ord": 416,
      "uden": 417,
      "ret": 418,
      "##ån": 419,
      "##eret": 420,
      "sex": 421,
      "##ci": 422,
      "lige": 423,
      "helt": 424,
      "##agt": 425,
      "fort": 426,
      "##alt": 427,
      "##arbej": 428,
      "reg": 429,
      "##gang": 430,
      "##delse": 431,
      "##led": 432,
      "lidt": 433,
      "sammen": 434,
      "par": 435,
      "del": 436,
      "##ater": 437,
      "forb": 438,
      "##ningen": 439,
      "god": 440,
      "hver": 441,
      "5": 442,
      "sik": 443,
      "##ch": 444,
      "ser": 445,
      "##im": 446,
      "##des": 447,
      "##eb": 448,
      "##læg": 449,
      "ra": 450,
      "##ier": 451,
      "hjem": 452,
      "nogle": 453,
      "gra": 454,
      "får": 455,
      "sid": 456,
      "beh": 457,
      "##ss": 458,
      "##dig": 459,
      "bare": 460,
      "##inger": 461,
      "gl": 462,
      "##ster": 463,
      "le": 464,
      "ch": 465,
      "kont": 466,
      "mel": 467,
      "##sker": 468,
      "mod": 469,
      "vej": 470,
      "##før": 471,
      "næ": 472,
      "gennem": 473,
      "hele": 474,
      "##pl": 475,
      "gør": 476,
      "##ce": 477,
      "været": 478,
      "201": 479,
      "##land": 480,
      "træ": 481,
      "form": 482,
      "ven": 483,
      "forskel": 484,
      "##ien": 485,
      "fors": 486,
      "sy": 487,
      "ad": 488,
      "##ksom": 489,
      "føl": 490,
      "kvin": 491,
      "kommer": 492,
      "person": 493,
      "##aler": 494,
      "ned": 495,
      "##ess": 496,
      "flere": 497,
      "blive": 498,
      "##ange": 499,
      "##ille": 500,
      "##aget": 501,
      "igen": 502,
      "##riv": 503,
      "sen": 504,
      "##avn": 505,
      "samt": 506,
      "th": 507,
      "##åde": 508,
      "##ål": 509,
      "##øde": 510,
      "##org": 511,
      "skul": 512,
      "hvordan": 513,
      "nat": 514,
      "ham": 515,
      "hen": 516,
      "inter": 517,
      "hjæl": 518,
      "##les": 519,
      "##åb": 520,
      "nye": 521,
      "inden": 522,
      "lang": 523,
      "##af": 524,
      "derfor": 525,
      "##ine": 526,
      "gang": 527,
      "ma": 528,
      "ek": 529,
      "##ind": 530,
      "eg": 531,
      "##tem": 532,
      "##ug": 533,
      "mellem": 534,
      "##dende": 535,
      "##ænd": 536,
      "##mel": 537,
      "hvil": 538,
      "ville": 539,
      "##ekt": 540,
      "##dere": 541,
      "##sten": 542,
      "##pe": 543,
      "stør": 544,
      "##elle": 545,
      "sø": 546,
      "ans": 547,
      "gøre": 548,
      "gå": 549,
      "dr": 550,
      "far": 551,
      "skulle": 552,
      "første": 553,
      "ak": 554,
      "ty": 555,
      "##ub": 556,
      "##ma": 557,
      "##andt": 558,
      "både": 559,
      "##ksomhed": 560,
      "6": 561,
      "##ans": 562,
      "dis": 563,
      "går": 564,
      "land": 565,
      "øn": 566,
      "liv": 567,
      "store": 568,
      "##ob": 569,
      "##æk": 570,
      "##mark": 571,
      "##ide": 572,
      "##nings": 573,
      "besk": 574,
      "19": 575,
      "prod": 576,
      "##øm": 577,
      "##vej": 578,
      "##vet": 579,
      "mass": 580,
      "##edet": 581,
      "børn": 582,
      "##kom": 583,
      "ver": 584,
      "##ult": 585,
      "##ost": 586,
      "mulighed": 587,
      "dit": 588,
      "hos": 589,
      "syn": 590,
      "##øs": 591,
      "##over": 592,
      "##tes": 593,
      "##dk": 594,
      "vel": 595,
      "##gør": 596,
      "##pr": 597,
      "des": 598,
      "forskellige": 599,
      "præ": 600,
      "mor": 601,
      "##red": 602,
      "di": 603,
      "udvik": 604,
      "##føl": 605,
      "##oli": 606,
      "##min": 607,
      "andet": 608,
      "##tal": 609,
      "##sæt": 610,
      "sn": 611,
      "so": 612,
      "net": 613,
      "nok": 614,
      "sag": 615,
      "##get": 616,
      "anden": 617,
      "sikker": 618,
      "fol": 619,
      "siden": 620,
      "tilbage": 621,
      "##io": 622,
      "grund": 623,
      "dog": 624,
      "spil": 625,
      "##met": 626,
      "##kelig": 627,
      "dat": 628,
      "giver": 629,
      "##aver": 630,
      "altid": 631,
      "##elses": 632,
      "finde": 633,
      "samme": 634,
      "fik": 635,
      "##orn": 636,
      "##sb": 637,
      "##kon": 638,
      "hans": 639,
      "##cer": 640,
      "##ånd": 641,
      "##hus": 642,
      "mennes": 643,
      "ev": 644,
      "massage": 645,
      "res": 646,
      "##ati": 647,
      "su": 648,
      "##tere": 649,
      "##anden": 650,
      "on": 651,
      "##au": 652,
      "##ørg": 653,
      "tæn": 654,
      "##fte": 655,
      "##ppe": 656,
      "sv": 657,
      "ingen": 658,
      "natur": 659,
      "rigtig": 660,
      "vand": 661,
      "bag": 662,
      "ly": 663,
      "by": 664,
      "mand": 665,
      "7": 666,
      "##tige": 667,
      "stil": 668,
      "byg": 669,
      "##fl": 670,
      "nem": 671,
      "##).": 672,
      "##enter": 673,
      "dansk": 674,
      "##ald": 675,
      "##giv": 676,
      "væl": 677,
      "pen": 678,
      "##ets": 679,
      "disse": 680,
      "fun": 681,
      "lille": 682,
      "##ister": 683,
      "blevet": 684,
      "arbejds": 685,
      "##andling": 686,
      "##len": 687,
      "##derne": 688,
      "virksomhed": 689,
      "måske": 690,
      "løb": 691,
      "fordi": 692,
      "omk": 693,
      "##endes": 694,
      "kommun": 695,
      "tilf": 696,
      "##lede": 697,
      "dine": 698,
      "sådan": 699,
      "##gende": 700,
      "##je": 701,
      "##ads": 702,
      "##amp": 703,
      "##jen": 704,
      "gerne": 705,
      "danske": 706,
      "##dann": 707,
      "##ings": 708,
      "##akt": 709,
      "##bl": 710,
      "##tiske": 711,
      "##form": 712,
      "8": 713,
      "siger": 714,
      "arbejde": 715,
      "##ære": 716,
      "##alitet": 717,
      "komme": 718,
      "opl": 719,
      "jer": 720,
      "tage": 721,
      "mil": 722,
      "skab": 723,
      "##unkt": 724,
      "##gi": 725,
      "verden": 726,
      "##asse": 727,
      "åb": 728,
      "##nu": 729,
      "##uld": 730,
      "##iger": 731,
      "bedste": 732,
      "es": 733,
      "##mes": 734,
      "##havn": 735,
      "inds": 736,
      "##kel": 737,
      "##under": 738,
      "danmark": 739,
      "##ef": 740,
      "sæt": 741,
      "10": 742,
      "lav": 743,
      "sidste": 744,
      "##ører": 745,
      "hov": 746,
      "sit": 747,
      "nogen": 748,
      "pris": 749,
      "tra": 750,
      "##som": 751,
      "hus": 752,
      "skri": 753,
      "##olog": 754,
      "ting": 755,
      "##ram": 756,
      "##rop": 757,
      "##hver": 758,
      "gode": 759,
      "##asser": 760,
      "side": 761,
      "sær": 762,
      "vin": 763,
      "##ligere": 764,
      "gam": 765,
      "##vi": 766,
      "y": 767,
      "hur": 768,
      "##amil": 769,
      "mar": 770,
      ".": 771,
      "rå": 772,
      "##ktion": 773,
      "plan": 774,
      "##atte": 775,
      "##stå": 776,
      "nær": 777,
      "##rer": 778,
      "vide": 779,
      "gj": 780,
      "områ": 781,
      "klar": 782,
      "##ader": 783,
      "##med": 784,
      "str": 785,
      "##istor": 786,
      "fil": 787,
      "best": 788,
      "gener": 789,
      "måde": 790,
      "##dom": 791,
      "##rug": 792,
      "##tis": 793,
      "valg": 794,
      "is": 795,
      "prø": 796,
      "kvinder": 797,
      "##uds": 798,
      "##pper": 799,
      "##bet": 800,
      "lov": 801,
      "inde": 802,
      "##ust": 803,
      "##ræk": 804,
      "forhold": 805,
      "vigtig": 806,
      "kra": 807,
      "200": 808,
      "##tte": 809,
      "hand": 810,
      "fast": 811,
      "##eks": 812,
      "eks": 813,
      "ja": 814,
      "kn": 815,
      "øj": 816,
      "sj": 817,
      "##heder": 818,
      "##gr": 819,
      "omkring": 820,
      "led": 821,
      "##tigt": 822,
      "poli": 823,
      "bor": 824,
      "tro": 825,
      "lever": 826,
      "mit": 827,
      "##aft": 828,
      "##æv": 829,
      "æn": 830,
      "##ard": 831,
      "##ole": 832,
      "stad": 833,
      "spørg": 834,
      "prob": 835,
      "tv": 836,
      "hal": 837,
      "9": 838,
      "##fat": 839,
      "##borg": 840,
      "##ationer": 841,
      "bruge": 842,
      "lok": 843,
      "begyn": 844,
      "lu": 845,
      "læng": 846,
      "mål": 847,
      "spe": 848,
      "##sel": 849,
      "##eligt": 850,
      "##old": 851,
      "give": 852,
      "##heden": 853,
      "##gå": 854,
      "mest": 855,
      "hende": 856,
      "porn": 857,
      "ønsker": 858,
      "##yd": 859,
      "fortæl": 860,
      "##ppen": 861,
      "tre": 862,
      "##ække": 863,
      "##rol": 864,
      "tek": 865,
      "nor": 866,
      "##ow": 867,
      "##tilling": 868,
      "famil": 869,
      "##ia": 870,
      "aller": 871,
      "##br": 872,
      "bruger": 873,
      "fø": 874,
      "##jek": 875,
      "##ay": 876,
      "fri": 877,
      "##enhavn": 878,
      "##far": 879,
      "te": 880,
      "sted": 881,
      "hånd": 882,
      "tager": 883,
      "bek": 884,
      "virkelig": 885,
      "##styr": 886,
      "bedre": 887,
      "off": 888,
      "##ester": 889,
      "##delig": 890,
      "rej": 891,
      "speci": 892,
      "stadig": 893,
      "mån": 894,
      "ber": 895,
      "##ledes": 896,
      "københavn": 897,
      "##pro": 898,
      "eu": 899,
      "spørgsm": 900,
      "kort": 901,
      "ken": 902,
      "hoved": 903,
      "##esk": 904,
      "ro": 905,
      "bo": 906,
      "##iner": 907,
      "##ev": 908,
      "mennesker": 909,
      "##mær": 910,
      ",": 911,
      "##ældre": 912,
      "lær": 913,
      "im": 914,
      "##all": 915,
      "tur": 916,
      "vis": 917,
      "##stra": 918,
      "hjælp": 919,
      "mindre": 920,
      "mine": 921,
      "aldr": 922,
      "hvilket": 923,
      "met": 924,
      "histor": 925,
      "gratis": 926,
      "bol": 927,
      "hår": 928,
      "ben": 929,
      "##reg": 930,
      "endnu": 931,
      "aldrig": 932,
      "##ai": 933,
      "væk": 934,
      "medlem": 935,
      "blandt": 936,
      "red": 937,
      "##løb": 938,
      "##iser": 939,
      "##of": 940,
      "delt": 941,
      "kal": 942,
      "fæl": 943,
      "mænd": 944,
      "##inde": 945,
      "'": 946,
      "finder": 947,
      "sol": 948,
      "udvikling": 949,
      "##undt": 950,
      "uds": 951,
      "##leder": 952,
      "let": 953,
      "ligger": 954,
      "18": 955,
      "##stru": 956,
      "lej": 957,
      "svar": 958,
      "##ande": 959,
      "produk": 960,
      "mens": 961,
      "##arbejde": 962,
      "##idt": 963,
      "kræ": 964,
      "fået": 965,
      "muligt": 966,
      "##lerne": 967,
      "##sh": 968,
      "##anske": 969,
      "folk": 970,
      "##uden": 971,
      "##søg": 972,
      "##are": 973,
      "##vir": 974,
      "uddann": 975,
      "hvorfor": 976,
      "##ges": 977,
      "står": 978,
      "tror": 979,
      "##),": 980,
      "kar": 981,
      "##up": 982,
      "##går": 983,
      "am": 984,
      "opg": 985,
      "nyt": 986,
      "##cent": 987,
      "bog": 988,
      "##antas": 989,
      "##vend": 990,
      "bi": 991,
      "først": 992,
      "forbin": 993,
      "##sn": 994,
      "gange": 995,
      "nød": 996,
      "gæl": 997,
      "##øger": 998,
      "fantas": 999,
      "##bil": 1000,
      "set": 1001,
      "1.": 1002,
      "##vel": 1003,
      "mad": 1004,
      "små": 1005,
      "##hj": 1006,
      "ændr": 1007,
      "##sti": 1008,
      "styr": 1009,
      "##sted": 1010,
      "oplev": 1011,
      "##yld": 1012,
      "egen": 1013,
      "ord": 1014,
      "fær": 1015,
      "række": 1016,
      "sige": 1017,
      "##byg": 1018,
      "##iet": 1019,
      "##ces": 1020,
      "##ærk": 1021,
      "##by": 1022,
      "spørgsmål": 1023,
      "##kte": 1024,
      "samtid": 1025,
      "esc": 1026,
      "##terne": 1027,
      "hold": 1028,
      "##line": 1029,
      "##oner": 1030,
      "modt": 1031,
      "kvalitet": 1032,
      "##øv": 1033,
      "##bo": 1034,
      "ski": 1035,
      "##æss": 1036,
      "fak": 1037,
      "ofte": 1038,
      "soci": 1039,
      "komp": 1040,
      "##stem": 1041,
      "unge": 1042,
      "kor": 1043,
      "mind": 1044,
      "hot": 1045,
      "##li": 1046,
      "ide": 1047,
      "ej": 1048,
      "års": 1049,
      "##tede": 1050,
      "##tivitet": 1051,
      "gik": 1052,
      "ekse": 1053,
      "kær": 1054,
      "mark": 1055,
      "##elige": 1056,
      "escort": 1057,
      "##heds": 1058,
      "sæ": 1059,
      "læg": 1060,
      "po": 1061,
      "bestem": 1062,
      "##mere": 1063,
      "produ": 1064,
      "fælles": 1065,
      "##ænge": 1066,
      "##ank": 1067,
      "##lag": 1068,
      "dage": 1069,
      "##teret": 1070,
      "##holder": 1071,
      "##dsp": 1072,
      "##utter": 1073,
      "15": 1074,
      "synes": 1075,
      "dej": 1076,
      "bev": 1077,
      "##gt": 1078,
      "eksemp": 1079,
      "længere": 1080,
      "##la": 1081,
      "12": 1082,
      "##vic": 1083,
      "mus": 1084,
      "##rak": 1085,
      "##set": 1086,
      "vok": 1087,
      "hendes": 1088,
      "stort": 1089,
      "lave": 1090,
      "større": 1091,
      "##hæng": 1092,
      "##ytte": 1093,
      "##dens": 1094,
      "kø": 1095,
      "udt": 1096,
      "kri": 1097,
      "##nen": 1098,
      "dire": 1099,
      "fal": 1100,
      "sh": 1101,
      "##000": 1102,
      "ren": 1103,
      "søn": 1104,
      "allerede": 1105,
      "rel": 1106,
      "svær": 1107,
      "##rift": 1108,
      "##ren": 1109,
      "lad": 1110,
      "findes": 1111,
      "forbindelse": 1112,
      "0": 1113,
      "sund": 1114,
      "tak": 1115,
      "langt": 1116,
      "##par": 1117,
      "##agen": 1118,
      "##syn": 1119,
      "tog": 1120,
      "nord": 1121,
      "##stand": 1122,
      "rig": 1123,
      "##konom": 1124,
      "ca": 1125,
      "tidligere": 1126,
      "sagde": 1127,
      "faktisk": 1128,
      "mang": 1129,
      "##kker": 1130,
      "##fer": 1131,
      "##\".": 1132,
      "online": 1133,
      "spr": 1134,
      "##rik": 1135,
      "tag": 1136,
      "##ryk": 1137,
      "rest": 1138,
      "##teg": 1139,
      "##ck": 1140,
      "dyr": 1141,
      "penge": 1142,
      "bu": 1143,
      "udvalg": 1144,
      "start": 1145,
      "##entlig": 1146,
      "##ise": 1147,
      "oplys": 1148,
      "ram": 1149,
      "dy": 1150,
      "und": 1151,
      "gru": 1152,
      "fag": 1153,
      "samtidig": 1154,
      "behandling": 1155,
      "##ateri": 1156,
      "##cep": 1157,
      "holde": 1158,
      "ko": 1159,
      "##iden": 1160,
      "tilfæl": 1161,
      "##sent": 1162,
      "forh": 1163,
      "fi": 1164,
      "##gelig": 1165,
      "rundt": 1166,
      "altså": 1167,
      "søger": 1168,
      "lo": 1169,
      "ener": 1170,
      "næste": 1171,
      "sommer": 1172,
      "prof": 1173,
      "em": 1174,
      "##olen": 1175,
      "sine": 1176,
      "kol": 1177,
      "bel": 1178,
      "##ue": 1179,
      "##aff": 1180,
      "##tag": 1181,
      "gamle": 1182,
      "##bef": 1183,
      "øv": 1184,
      "hjælpe": 1185,
      "giv": 1186,
      "org": 1187,
      "##delige": 1188,
      "##områ": 1189,
      "betyder": 1190,
      "hurtigt": 1191,
      "smu": 1192,
      "stand": 1193,
      "mø": 1194,
      "fok": 1195,
      "eff": 1196,
      "tel": 1197,
      "sc": 1198,
      "##ykke": 1199,
      "##orde": 1200,
      "lin": 1201,
      "piger": 1202,
      "tal": 1203,
      "##eller": 1204,
      "tale": 1205,
      "videre": 1206,
      "æg": 1207,
      "fuld": 1208,
      "##yst": 1209,
      "##fik": 1210,
      "kør": 1211,
      "##tive": 1212,
      "##ogram": 1213,
      "result": 1214,
      "råd": 1215,
      "##kede": 1216,
      "##tu": 1217,
      "##jø": 1218,
      "tæt": 1219,
      "mid": 1220,
      "##undet": 1221,
      "stra": 1222,
      "løs": 1223,
      "##ejl": 1224,
      "tab": 1225,
      "ekstra": 1226,
      "erhver": 1227,
      "##>>": 1228,
      "##telse": 1229,
      "afsl": 1230,
      "nej": 1231,
      "hjemmes": 1232,
      "mær": 1233,
      "##esse": 1234,
      "leg": 1235,
      "plads": 1236,
      "hvem": 1237,
      "medarbej": 1238,
      "fordel": 1239,
      "priv": 1240,
      "viser": 1241,
      "##ts": 1242,
      "forv": 1243,
      "konk": 1244,
      "##ræn": 1245,
      "##fra": 1246,
      "##kes": 1247,
      "eng": 1248,
      "hu": 1249,
      "således": 1250,
      "hør": 1251,
      "##une": 1252,
      "##tioner": 1253,
      "kur": 1254,
      "kir": 1255,
      "læs": 1256,
      "stedet": 1257,
      "morgen": 1258,
      "##alis": 1259,
      "...": 1260,
      "behov": 1261,
      "##urder": 1262,
      "##aa": 1263,
      "kvinde": 1264,
      "stat": 1265,
      "hin": 1266,
      "##tivt": 1267,
      "tiden": 1268,
      "##eter": 1269,
      "købe": 1270,
      "ab": 1271,
      "kæ": 1272,
      "##delser": 1273,
      "sand": 1274,
      "##sion": 1275,
      "slag": 1276,
      "besl": 1277,
      "##revet": 1278,
      "hvert": 1279,
      "tekn": 1280,
      "##ultur": 1281,
      "aft": 1282,
      "x": 1283,
      "kontakt": 1284,
      "jul": 1285,
      "nødvend": 1286,
      "##ont": 1287,
      "vigtigt": 1288,
      "web": 1289,
      "haft": 1290,
      "##ym": 1291,
      "##ført": 1292,
      "##rig": 1293,
      "foret": 1294,
      "grøn": 1295,
      "enkel": 1296,
      "2.": 1297,
      "næsten": 1298,
      "anbef": 1299,
      "økonom": 1300,
      "##sat": 1301,
      "fer": 1302,
      "glæ": 1303,
      "vælge": 1304,
      "billeder": 1305,
      "viden": 1306,
      "yder": 1307,
      "film": 1308,
      "##øren": 1309,
      "tem": 1310,
      "##iveau": 1311,
      "##brug": 1312,
      "##mar": 1313,
      "##ummer": 1314,
      "##aling": 1315,
      "##alet": 1316,
      "enk": 1317,
      "arbejder": 1318,
      "flot": 1319,
      "##tim": 1320,
      "##ationen": 1321,
      "sto": 1322,
      "##skaber": 1323,
      "##ansk": 1324,
      ":": 1325,
      "erhverv": 1326,
      "##anis": 1327,
      "##po": 1328,
      "inv": 1329,
      "teg": 1330,
      "##lik": 1331,
      "nemlig": 1332,
      "##lever": 1333,
      "thai": 1334,
      "super": 1335,
      "blot": 1336,
      "##ip": 1337,
      "##nede": 1338,
      "erfar": 1339,
      "/": 1340,
      "lå": 1341,
      "stø": 1342,
      "ter": 1343,
      "undersøg": 1344,
      "##lemer": 1345,
      "##fordr": 1346,
      "##\",": 1347,
      "11": 1348,
      "##uelle": 1349,
      "liges": 1350,
      "##efter": 1351,
      "gu": 1352,
      "aften": 1353,
      "##ration": 1354,
      "##ders": 1355,
      "halv": 1356,
      "problem": 1357,
      "eksempel": 1358,
      "##endte": 1359,
      "##rev": 1360,
      "desig": 1361,
      "z": 1362,
      "besøg": 1363,
      "us": 1364,
      "ann": 1365,
      "video": 1366,
      "kat": 1367,
      "igennem": 1368,
      "##yde": 1369,
      "sikkert": 1370,
      "spæn": 1371,
      "%": 1372,
      "ele": 1373,
      "indt": 1374,
      "##mid": 1375,
      "##lad": 1376,
      "syg": 1377,
      "##iller": 1378,
      "taget": 1379,
      "kommune": 1380,
      "servic": 1381,
      "##ikker": 1382,
      "laver": 1383,
      "##edes": 1384,
      "##jekt": 1385,
      "rol": 1386,
      "beslut": 1387,
      "timer": 1388,
      "##fyl": 1389,
      "14": 1390,
      "sker": 1391,
      "ring": 1392,
      "##deligt": 1393,
      "##øse": 1394,
      "fokus": 1395,
      "30": 1396,
      "vid": 1397,
      "##endom": 1398,
      "fjer": 1399,
      "##ider": 1400,
      "##ate": 1401,
      "##fær": 1402,
      "ol": 1403,
      "bolig": 1404,
      "lavet": 1405,
      "##ator": 1406,
      "fleste": 1407,
      "selvføl": 1408,
      "kig": 1409,
      "ris": 1410,
      "ul": 1411,
      "mindst": 1412,
      "skøn": 1413,
      "mener": 1414,
      "nå": 1415,
      "##snit": 1416,
      "antal": 1417,
      "musik": 1418,
      "##slag": 1419,
      "ude": 1420,
      "##rag": 1421,
      "##alen": 1422,
      "norm": 1423,
      "##one": 1424,
      "##terer": 1425,
      "star": 1426,
      "porno": 1427,
      "især": 1428,
      "gjorde": 1429,
      "lys": 1430,
      "##dte": 1431,
      "barn": 1432,
      "læse": 1433,
      "forstå": 1434,
      "##sam": 1435,
      "##osi": 1436,
      "ansvar": 1437,
      "tan": 1438,
      "kamp": 1439,
      "##plan": 1440,
      "##uder": 1441,
      "undervis": 1442,
      "job": 1443,
      "enkelte": 1444,
      "##efon": 1445,
      "ho": 1446,
      "stk": 1447,
      "kap": 1448,
      "##tek": 1449,
      "pri": 1450,
      "##ask": 1451,
      "gjort": 1452,
      "selvfølgelig": 1453,
      "hotel": 1454,
      "##rum": 1455,
      "16": 1456,
      "funktion": 1457,
      "stem": 1458,
      "begge": 1459,
      "skabe": 1460,
      "##atur": 1461,
      "event": 1462,
      "##udv": 1463,
      "ban": 1464,
      "udb": 1465,
      "elsker": 1466,
      "##unde": 1467,
      "hinanden": 1468,
      "senere": 1469,
      "oplysninger": 1470,
      "mon": 1471,
      "17": 1472,
      "ung": 1473,
      ">>": 1474,
      "aut": 1475,
      "##præ": 1476,
      "##ga": 1477,
      "bud": 1478,
      "##værk": 1479,
      "hjer": 1480,
      "##ligvis": 1481,
      "enkelt": 1482,
      "##dighed": 1483,
      "dom": 1484,
      "no": 1485,
      "ok": 1486,
      "ellers": 1487,
      "rum": 1488,
      "co": 1489,
      "##skabet": 1490,
      "com": 1491,
      "sat": 1492,
      "samarbejde": 1493,
      "##sf": 1494,
      "##vn": 1495,
      "dæk": 1496,
      "ful": 1497,
      "nr": 1498,
      "##akke": 1499,
      "via": 1500,
      "aktivitet": 1501,
      "længe": 1502,
      "værdi": 1503,
      "selvom": 1504,
      "ut": 1505,
      "##unden": 1506,
      "luft": 1507,
      "##kende": 1508,
      "##amer": 1509,
      "krav": 1510,
      "##mo": 1511,
      "##læ": 1512,
      "##rede": 1513,
      "##20": 1514,
      "##beh": 1515,
      "the": 1516,
      "##ance": 1517,
      "##bi": 1518,
      "ps": 1519,
      "##tel": 1520,
      "politi": 1521,
      "##tille": 1522,
      "netop": 1523,
      "##vand": 1524,
      "kultur": 1525,
      "stå": 1526,
      "##øver": 1527,
      "##entet": 1528,
      "##stre": 1529,
      "##rin": 1530,
      "materi": 1531,
      "##atter": 1532,
      "forl": 1533,
      "vurder": 1534,
      "anven": 1535,
      "svært": 1536,
      "kunst": 1537,
      "tilbud": 1538,
      "##ved": 1539,
      "hyg": 1540,
      "gar": 1541,
      "##<<": 1542,
      "største": 1543,
      "vist": 1544,
      "##sdag": 1545,
      "bestyr": 1546,
      "fantastisk": 1547,
      "bruges": 1548,
      "##ledning": 1549,
      "##-1": 1550,
      "##ogra": 1551,
      "##ylland": 1552,
      "##ikke": 1553,
      "##giver": 1554,
      "anal": 1555,
      "fly": 1556,
      "jan": 1557,
      "projek": 1558,
      "##ession": 1559,
      "cent": 1560,
      "herunder": 1561,
      "##ich": 1562,
      "##orden": 1563,
      "##bar": 1564,
      "pige": 1565,
      "##ben": 1566,
      "nø": 1567,
      "almin": 1568,
      "##ffer": 1569,
      "indtil": 1570,
      "inform": 1571,
      "sikre": 1572,
      "midt": 1573,
      "cyk": 1574,
      "ne": 1575,
      "##ct": 1576,
      "virksomheder": 1577,
      "##deren": 1578,
      "##vor": 1579,
      "måned": 1580,
      "13": 1581,
      "navn": 1582,
      "##akter": 1583,
      "eneste": 1584,
      "##året": 1585,
      "familie": 1586,
      "skole": 1587,
      "tør": 1588,
      "holder": 1589,
      "##gru": 1590,
      "tilfælde": 1591,
      "møde": 1592,
      "gælder": 1593,
      "##øge": 1594,
      "ju": 1595,
      "##uer": 1596,
      "##cen": 1597,
      "anv": 1598,
      "##ris": 1599,
      "problemer": 1600,
      "25": 1601,
      "sagt": 1602,
      "##ps": 1603,
      "##int": 1604,
      "##van": 1605,
      "##menter": 1606,
      "direkte": 1607,
      "hvilke": 1608,
      "##edt": 1609,
      "perio": 1610,
      "heller": 1611,
      "opmær": 1612,
      "hjemme": 1613,
      "kender": 1614,
      "##uler": 1615,
      "##delsen": 1616,
      "fem": 1617,
      "adgang": 1618,
      "sæl": 1619,
      "følge": 1620,
      "sjæl": 1621,
      "##if": 1622,
      "europ": 1623,
      "perf": 1624,
      "##står": 1625,
      "##aden": 1626,
      "syd": 1627,
      "elever": 1628,
      "afgør": 1629,
      "##ori": 1630,
      "fred": 1631,
      "100": 1632,
      "effek": 1633,
      "ejendom": 1634,
      "ske": 1635,
      "dår": 1636,
      "desuden": 1637,
      "fortæller": 1638,
      "øvr": 1639,
      "##kken": 1640,
      "##træ": 1641,
      "vind": 1642,
      "passer": 1643,
      "plac": 1644,
      "foren": 1645,
      "##ure": 1646,
      "##ift": 1647,
      "app": 1648,
      "##ron": 1649,
      "mis": 1650,
      "hæn": 1651,
      "ældre": 1652,
      "##vid": 1653,
      "bas": 1654,
      "slut": 1655,
      "højt": 1656,
      "hens": 1657,
      "##ry": 1658,
      "##esser": 1659,
      "løbet": 1660,
      "ni": 1661,
      "fire": 1662,
      "grad": 1663,
      "opret": 1664,
      "lyst": 1665,
      "fot": 1666,
      "lækker": 1667,
      "prak": 1668,
      "tru": 1669,
      "3.": 1670,
      "##klar": 1671,
      "##our": 1672,
      "##skud": 1673,
      "dermed": 1674,
      "spændende": 1675,
      "omfat": 1676,
      "brugt": 1677,
      "##ann": 1678,
      "ligesom": 1679,
      "dok": 1680,
      "##ytter": 1681,
      "uge": 1682,
      "##oler": 1683,
      "##orer": 1684,
      "##ack": 1685,
      "steder": 1686,
      "arbejdet": 1687,
      "slet": 1688,
      "fys": 1689,
      "##sy": 1690,
      "##sfor": 1691,
      "personer": 1692,
      "produkter": 1693,
      "telefon": 1694,
      "sætte": 1695,
      "klub": 1696,
      "størr": 1697,
      "regn": 1698,
      "##fol": 1699,
      "måneder": 1700,
      "##reb": 1701,
      "##leje": 1702,
      "##ital": 1703,
      "##føre": 1704,
      "##holde": 1705,
      "##aur": 1706,
      "##sens": 1707,
      "leder": 1708,
      "##kning": 1709,
      "##dspunkt": 1710,
      "psyk": 1711,
      "samf": 1712,
      "##øst": 1713,
      "masse": 1714,
      "ang": 1715,
      "model": 1716,
      "måtte": 1717,
      "fores": 1718,
      "##ykker": 1719,
      "medlemmer": 1720,
      "##grund": 1721,
      "jeres": 1722,
      "##stitu": 1723,
      "##vin": 1724,
      "minutter": 1725,
      "fac": 1726,
      "udgang": 1727,
      "##com": 1728,
      "##ill": 1729,
      "pati": 1730,
      "fod": 1731,
      "dagen": 1732,
      "dren": 1733,
      "##.000": 1734,
      "rejse": 1735,
      "fald": 1736,
      "velkom": 1737,
      "##lej": 1738,
      "##ses": 1739,
      "følgende": 1740,
      "forældre": 1741,
      "risik": 1742,
      "##rør": 1743,
      "##ko": 1744,
      "##rej": 1745,
      "fyr": 1746,
      "indsat": 1747,
      "##fin": 1748,
      "##anter": 1749,
      "insp": 1750,
      "##åd": 1751,
      "##æst": 1752,
      "salg": 1753,
      "##gene": 1754,
      "handler": 1755,
      "posi": 1756,
      "børne": 1757,
      "kontrol": 1758,
      "bro": 1759,
      "ac": 1760,
      "##leg": 1761,
      "##elserne": 1762,
      "sti": 1763,
      "##ioner": 1764,
      "opn": 1765,
      "##itter": 1766,
      "##hen": 1767,
      "tilbyder": 1768,
      "pik": 1769,
      "fejl": 1770,
      "opd": 1771,
      "produkt": 1772,
      "alene": 1773,
      "byen": 1774,
      "##skri": 1775,
      "##her": 1776,
      "program": 1777,
      "fyl": 1778,
      "##ativ": 1779,
      "varme": 1780,
      "##ban": 1781,
      "##gæl": 1782,
      "hed": 1783,
      "##lagt": 1784,
      "fis": 1785,
      "kro": 1786,
      "køre": 1787,
      "intern": 1788,
      "hvilken": 1789,
      "##anset": 1790,
      "gav": 1791,
      "seks": 1792,
      "50": 1793,
      "jun": 1794,
      "##plad": 1795,
      "projekt": 1796,
      "bur": 1797,
      "##tionen": 1798,
      "##spunkt": 1799,
      "udfordr": 1800,
      "maj": 1801,
      "muligheder": 1802,
      "##lo": 1803,
      "##ite": 1804,
      "fx": 1805,
      "##res": 1806,
      "billed": 1807,
      "miljø": 1808,
      "ses": 1809,
      "pass": 1810,
      "##da": 1811,
      "bem": 1812,
      "hurtig": 1813,
      "dele": 1814,
      "##jerg": 1815,
      "dating": 1816,
      "område": 1817,
      "prøve": 1818,
      "tøj": 1819,
      "##ina": 1820,
      "##jeg": 1821,
      "##tra": 1822,
      "##dene": 1823,
      "kil": 1824,
      "luk": 1825,
      "annon": 1826,
      "hjemmeside": 1827,
      "området": 1828,
      "indeholder": 1829,
      "skrive": 1830,
      "varm": 1831,
      "##værende": 1832,
      "##ograf": 1833,
      "##ib": 1834,
      "sygdom": 1835,
      "##fri": 1836,
      "##ppet": 1837,
      "imp": 1838,
      "syge": 1839,
      "##ligevel": 1840,
      "##ikring": 1841,
      "1,": 1842,
      "##bru": 1843,
      "energi": 1844,
      "borger": 1845,
      "rigtige": 1846,
      "lade": 1847,
      "bedst": 1848,
      "alligevel": 1849,
      "hå": 1850,
      "##kort": 1851,
      "fandt": 1852,
      "forsøg": 1853,
      "##marks": 1854,
      "kommet": 1855,
      "##række": 1856,
      "offent": 1857,
      "arr": 1858,
      "uanset": 1859,
      "##køb": 1860,
      "sor": 1861,
      "##ivers": 1862,
      "##yster": 1863,
      "##use": 1864,
      "##holdet": 1865,
      "gud": 1866,
      "sket": 1867,
      "ene": 1868,
      "##skil": 1869,
      "##ph": 1870,
      "krop": 1871,
      "skær": 1872,
      "##aske": 1873,
      "mag": 1874,
      "vest": 1875,
      "høre": 1876,
      "pop": 1877,
      "lejlighed": 1878,
      "##uter": 1879,
      "intet": 1880,
      "##tering": 1881,
      "##melse": 1882,
      "##to": 1883,
      "##serne": 1884,
      "##deling": 1885,
      "##følge": 1886,
      "lokal": 1887,
      "livet": 1888,
      "mot": 1889,
      "aar": 1890,
      "derefter": 1891,
      "stille": 1892,
      "opfyl": 1893,
      "##tiver": 1894,
      "oven": 1895,
      "skyl": 1896,
      "disk": 1897,
      "nemt": 1898,
      "fa": 1899,
      "##spro": 1900,
      "##stæn": 1901,
      "lokale": 1902,
      "uger": 1903,
      "##aven": 1904,
      "køkken": 1905,
      "resultat": 1906,
      "mart": 1907,
      "sjov": 1908,
      "samlet": 1909,
      "ganske": 1910,
      "fundet": 1911,
      "vejen": 1912,
      "##ful": 1913,
      "masser": 1914,
      "læge": 1915,
      "løn": 1916,
      "gul": 1917,
      "tran": 1918,
      "organis": 1919,
      "##tiden": 1920,
      "car": 1921,
      "situ": 1922,
      "græ": 1923,
      "##oder": 1924,
      "##du": 1925,
      "##løs": 1926,
      "kæmp": 1927,
      "service": 1928,
      "nøg": 1929,
      "billig": 1930,
      "tjen": 1931,
      "søg": 1932,
      "forvent": 1933,
      "skov": 1934,
      "tidspunkt": 1935,
      "##arbejdet": 1936,
      "##he": 1937,
      "##mand": 1938,
      "##holds": 1939,
      "##ologi": 1940,
      "##ht": 1941,
      "##eten": 1942,
      "historie": 1943,
      "mat": 1944,
      "nettet": 1945,
      "##irk": 1946,
      "##pport": 1947,
      "##blik": 1948,
      "##ftig": 1949,
      "nav": 1950,
      "enten": 1951,
      "##duk": 1952,
      "præc": 1953,
      "##ante": 1954,
      "mød": 1955,
      "ob": 1956,
      "danmarks": 1957,
      "##akker": 1958,
      "##ævn": 1959,
      "##fil": 1960,
      "##sek": 1961,
      "##pen": 1962,
      "kræver": 1963,
      "##yttet": 1964,
      "ejer": 1965,
      "ander": 1966,
      "design": 1967,
      "sprog": 1968,
      "lev": 1969,
      "venner": 1970,
      "bal": 1971,
      "indenfor": 1972,
      "##ktur": 1973,
      "vol": 1974,
      "dø": 1975,
      "##cept": 1976,
      "##stat": 1977,
      "lide": 1978,
      "bid": 1979,
      "##varer": 1980,
      "åben": 1981,
      "spiller": 1982,
      "stud": 1983,
      "##ningerne": 1984,
      "##ået": 1985,
      "rom": 1986,
      "##frem": 1987,
      "konkur": 1988,
      "##uel": 1989,
      "ær": 1990,
      "sidst": 1991,
      "ha": 1992,
      "##ydning": 1993,
      "ryg": 1994,
      "imod": 1995,
      "##lin": 1996,
      "sil": 1997,
      "##lende": 1998,
      "##mæss": 1999,
      "simp": 2000,
      "data": 2001,
      "fint": 2002,
      "cm": 2003,
      "##1.": 2004,
      "##center": 2005,
      "he": 2006,
      "of": 2007,
      "test": 2008,
      "slags": 2009,
      "top": 2010,
      "##uddann": 2011,
      "##mon": 2012,
      "we": 2013,
      "il": 2014,
      "##....": 2015,
      "søge": 2016,
      "fortsæt": 2017,
      "##ium": 2018,
      "part": 2019,
      "##sport": 2020,
      "vælger": 2021,
      "##digheder": 2022,
      "##ærer": 2023,
      "tviv": 2024,
      "##ension": 2025,
      "sidder": 2026,
      "dyb": 2027,
      "##stil": 2028,
      "drøm": 2029,
      "##bol": 2030,
      "prin": 2031,
      "##icin": 2032,
      "voks": 2033,
      "gået": 2034,
      "artik": 2035,
      "privat": 2036,
      "eget": 2037,
      "ønsk": 2038,
      "sej": 2039,
      "region": 2040,
      "behand": 2041,
      "##ative": 2042,
      "##mest": 2043,
      "særligt": 2044,
      "##hør": 2045,
      "lære": 2046,
      "##mende": 2047,
      "penis": 2048,
      "dri": 2049,
      "##ålet": 2050,
      "foreg": 2051,
      "##værre": 2052,
      "tor": 2053,
      "##ighed": 2054,
      "øjeb": 2055,
      "##isten": 2056,
      "enhver": 2057,
      "int": 2058,
      "##ell": 2059,
      "##foren": 2060,
      "##udover": 2061,
      "regist": 2062,
      "ex": 2063,
      "sætter": 2064,
      "niveau": 2065,
      "##ånden": 2066,
      "##ogn": 2067,
      "ge": 2068,
      "univers": 2069,
      "håber": 2070,
      "lø": 2071,
      "social": 2072,
      "glad": 2073,
      "græn": 2074,
      "sku": 2075,
      "##dent": 2076,
      "smukke": 2077,
      "indlæg": 2078,
      "##bat": 2079,
      "##gifter": 2080,
      "##givet": 2081,
      "freder": 2082,
      "##lingen": 2083,
      "##holdt": 2084,
      "udtryk": 2085,
      "##endt": 2086,
      "##abler": 2087,
      "lærer": 2088,
      "jord": 2089,
      "mør": 2090,
      "##agelse": 2091,
      "fj": 2092,
      "tænke": 2093,
      "velkommen": 2094,
      "stær": 2095,
      "hverdag": 2096,
      "snart": 2097,
      "ste": 2098,
      "virker": 2099,
      "##aner": 2100,
      "foran": 2101,
      "##fører": 2102,
      "##ages": 2103,
      "klass": 2104,
      "desværre": 2105,
      "##ations": 2106,
      "##fr": 2107,
      "##bin": 2108,
      "##kn": 2109,
      "##.\"": 2110,
      "ønske": 2111,
      "internation": 2112,
      "anlæg": 2113,
      "sal": 2114,
      "mobil": 2115,
      "støtte": 2116,
      "rent": 2117,
      "24": 2118,
      "sikkerhed": 2119,
      "sek": 2120,
      "træn": 2121,
      "##affe": 2122,
      "comp": 2123,
      "##spil": 2124,
      "##ygt": 2125,
      "uddannelse": 2126,
      "##linger": 2127,
      "##kerne": 2128,
      "butik": 2129,
      "ferie": 2130,
      "##lys": 2131,
      "rød": 2132,
      "##på": 2133,
      "udgangspunkt": 2134,
      "væg": 2135,
      "forbed": 2136,
      "##yng": 2137,
      "##hand": 2138,
      "##uelt": 2139,
      "hjælper": 2140,
      "amer": 2141,
      "seneste": 2142,
      "engang": 2143,
      "skriver": 2144,
      "fug": 2145,
      "##ore": 2146,
      "##spl": 2147,
      "##ons": 2148,
      "bestemt": 2149,
      "##unk": 2150,
      "lag": 2151,
      "egne": 2152,
      "##qu": 2153,
      "rigtigt": 2154,
      "blog": 2155,
      "mærke": 2156,
      "##melig": 2157,
      "begræn": 2158,
      "smag": 2159,
      "øjeblik": 2160,
      "##fald": 2161,
      "dec": 2162,
      "spille": 2163,
      "højere": 2164,
      "udg": 2165,
      "bryster": 2166,
      "inst": 2167,
      "ifølge": 2168,
      "dk": 2169,
      "##ammer": 2170,
      "##irma": 2171,
      "popul": 2172,
      "lar": 2173,
      "hæ": 2174,
      "hej": 2175,
      "##str": 2176,
      "gammel": 2177,
      "##bog": 2178,
      "kost": 2179,
      "##føres": 2180,
      "tvivl": 2181,
      "##anger": 2182,
      "medarbejdere": 2183,
      "skat": 2184,
      "barnet": 2185,
      "forret": 2186,
      "##ode": 2187,
      "fat": 2188,
      "##væg": 2189,
      "tilg": 2190,
      "##ond": 2191,
      "##dition": 2192,
      "##yse": 2193,
      "afslut": 2194,
      "lande": 2195,
      "tom": 2196,
      "nation": 2197,
      "kører": 2198,
      "forn": 2199,
      "##dige": 2200,
      "væsent": 2201,
      "##jylland": 2202,
      "##elsk": 2203,
      "procent": 2204,
      "mask": 2205,
      "billede": 2206,
      "40": 2207,
      "lyk": 2208,
      "tilfred": 2209,
      "fortælle": 2210,
      "anvendes": 2211,
      "kærlighed": 2212,
      "##rup": 2213,
      "4.": 2214,
      "##smæss": 2215,
      "ens": 2216,
      "##øjer": 2217,
      "##ales": 2218,
      "tilst": 2219,
      "mangler": 2220,
      "sundhed": 2221,
      "farver": 2222,
      "landet": 2223,
      "regler": 2224,
      "##mens": 2225,
      "tids": 2226,
      "opgaver": 2227,
      "restaur": 2228,
      "akt": 2229,
      "taler": 2230,
      "tysk": 2231,
      "vægt": 2232,
      "føler": 2233,
      "udsk": 2234,
      "##esten": 2235,
      "ka": 2236,
      "profession": 2237,
      "å": 2238,
      "log": 2239,
      "stod": 2240,
      "yderligere": 2241,
      "199": 2242,
      "motor": 2243,
      "##erede": 2244,
      "##når": 2245,
      "normalt": 2246,
      "blod": 2247,
      "proces": 2248,
      "information": 2249,
      "givet": 2250,
      "baggrund": 2251,
      "okay": 2252,
      "områder": 2253,
      "##man": 2254,
      "##han": 2255,
      "ark": 2256,
      "fakt": 2257,
      "##aller": 2258,
      "bred": 2259,
      "##berg": 2260,
      "drift": 2261,
      "blom": 2262,
      "særlig": 2263,
      "##idler": 2264,
      "udstyr": 2265,
      "alvor": 2266,
      "skrevet": 2267,
      "køn": 2268,
      "kunder": 2269,
      "hvid": 2270,
      "##bu": 2271,
      "##vede": 2272,
      "behøver": 2273,
      "aarhus": 2274,
      "hund": 2275,
      "##bart": 2276,
      "##egn": 2277,
      "amerik": 2278,
      "spise": 2279,
      "sport": 2280,
      "marked": 2281,
      "##spr": 2282,
      "dejlig": 2283,
      "vise": 2284,
      "and": 2285,
      "endelig": 2286,
      "repræ": 2287,
      "##entar": 2288,
      "opt": 2289,
      "sep": 2290,
      "2,": 2291,
      "sw": 2292,
      "anmel": 2293,
      "##assen": 2294,
      "##agra": 2295,
      "naturligvis": 2296,
      "kommunik": 2297,
      "godken": 2298,
      "internet": 2299,
      "##leve": 2300,
      "sort": 2301,
      "relev": 2302,
      "##oen": 2303,
      "oplevelse": 2304,
      "bestille": 2305,
      "elekt": 2306,
      "##hjæl": 2307,
      "##kal": 2308,
      "opmærksom": 2309,
      "medicin": 2310,
      "interesser": 2311,
      "##følgende": 2312,
      "##erer": 2313,
      "bad": 2314,
      "forklar": 2315,
      "##øje": 2316,
      "sæson": 2317,
      "##hel": 2318,
      "##gte": 2319,
      "begynder": 2320,
      "borg": 2321,
      "##vem": 2322,
      "selskab": 2323,
      "##fal": 2324,
      "død": 2325,
      "##minist": 2326,
      "##agere": 2327,
      "bus": 2328,
      "betale": 2329,
      "formål": 2330,
      "føds": 2331,
      "##2.": 2332,
      "##ral": 2333,
      "sociale": 2334,
      "bygge": 2335,
      "ag": 2336,
      "##leks": 2337,
      "tænker": 2338,
      "tvær": 2339,
      "##yre": 2340,
      "egentlig": 2341,
      "funger": 2342,
      "kirke": 2343,
      "hensyn": 2344,
      "følger": 2345,
      "##lek": 2346,
      "tryk": 2347,
      "bereg": 2348,
      "erfaring": 2349,
      "aftale": 2350,
      "##mail": 2351,
      "##mu": 2352,
      "##bud": 2353,
      "okt": 2354,
      "glem": 2355,
      "##tende": 2356,
      "##gift": 2357,
      "##lejer": 2358,
      "##sv": 2359,
      "##bes": 2360,
      "reger": 2361,
      "##uar": 2362,
      "brand": 2363,
      "##50": 2364,
      "klart": 2365,
      "##ringer": 2366,
      "vinter": 2367,
      "##ering": 2368,
      "overvej": 2369,
      "smuk": 2370,
      "##anlæg": 2371,
      "kompeten": 2372,
      "består": 2373,
      "forslag": 2374,
      "valgt": 2375,
      "året": 2376,
      "bestyrelsen": 2377,
      "tri": 2378,
      "resten": 2379,
      "ansøg": 2380,
      "typ": 2381,
      "##skrift": 2382,
      "børnene": 2383,
      "køber": 2384,
      "spør": 2385,
      "fo": 2386,
      "kontak": 2387,
      "##huset": 2388,
      "##plads": 2389,
      "##nende": 2390,
      "pæ": 2391,
      "juni": 2392,
      "##holm": 2393,
      "sæd": 2394,
      "aktiviteter": 2395,
      "##ceret": 2396,
      "aug": 2397,
      "mill": 2398,
      "##ah": 2399,
      "møder": 2400,
      "træning": 2401,
      "##unds": 2402,
      "påvir": 2403,
      "##stilling": 2404,
      "tun": 2405,
      "ero": 2406,
      "##inister": 2407,
      "##apir": 2408,
      "##enti": 2409,
      "tred": 2410,
      "karakter": 2411,
      "##bjerg": 2412,
      "##oven": 2413,
      "bevæg": 2414,
      "finans": 2415,
      "##kost": 2416,
      "dræ": 2417,
      "verdens": 2418,
      "##inge": 2419,
      "post": 2420,
      "##givning": 2421,
      "##co": 2422,
      "till": 2423,
      "derudover": 2424,
      "studer": 2425,
      "opnå": 2426,
      "frække": 2427,
      "##uren": 2428,
      "##gørelse": 2429,
      "burde": 2430,
      "##raks": 2431,
      "smer": 2432,
      "trods": 2433,
      "perfekt": 2434,
      "sider": 2435,
      "hum": 2436,
      "##bel": 2437,
      "bemærk": 2438,
      "##ftet": 2439,
      "##hjem": 2440,
      "energ": 2441,
      "mæng": 2442,
      "##tighed": 2443,
      "projektet": 2444,
      "apr": 2445,
      "betydning": 2446,
      "(1": 2447,
      "##års": 2448,
      "##mi": 2449,
      "opdater": 2450,
      "hor": 2451,
      "##høj": 2452,
      "peter": 2453,
      "rette": 2454,
      "kendt": 2455,
      "begyndte": 2456,
      "foruds": 2457,
      "##hov": 2458,
      "bogen": 2459,
      "mail": 2460,
      "##ræt": 2461,
      "etabler": 2462,
      "fro": 2463,
      "##za": 2464,
      "km": 2465,
      "##området": 2466,
      "time": 2467,
      "##dense": 2468,
      "sundheds": 2469,
      "glæde": 2470,
      "##ose": 2471,
      "sch": 2472,
      "konkret": 2473,
      "ægte": 2474,
      "##stemet": 2475,
      "##ment": 2476,
      "stig": 2477,
      "##liv": 2478,
      "it": 2479,
      "ta": 2480,
      "stri": 2481,
      "##raksis": 2482,
      "nødt": 2483,
      "beskæ": 2484,
      "sør": 2485,
      "huset": 2486,
      "##anch": 2487,
      "##alte": 2488,
      "lange": 2489,
      "##siden": 2490,
      "##ander": 2491,
      "##ligheder": 2492,
      "usa": 2493,
      "resp": 2494,
      "##dagog": 2495,
      "viagra": 2496,
      "2018": 2497,
      "2017": 2498,
      "bræn": 2499,
      "resultater": 2500,
      "2015": 2501,
      "##tids": 2502,
      "kæmpe": 2503,
      "##ink": 2504,
      "hvornår": 2505,
      "##bold": 2506,
      "gruppe": 2507,
      "særlige": 2508,
      "gem": 2509,
      "inkl": 2510,
      "jf": 2511,
      "##atisk": 2512,
      "##gaard": 2513,
      "##rørende": 2514,
      "##ras": 2515,
      "##30": 2516,
      "##bro": 2517,
      "##estyr": 2518,
      "odense": 2519,
      "find": 2520,
      "mi": 2521,
      "heldig": 2522,
      "januar": 2523,
      "krig": 2524,
      "sko": 2525,
      "forløb": 2526,
      "la": 2527,
      "##middel": 2528,
      "betaling": 2529,
      "##dat": 2530,
      "efterfølgende": 2531,
      "indgå": 2532,
      "sa": 2533,
      "bade": 2534,
      "lyd": 2535,
      "##rat": 2536,
      "nævn": 2537,
      "rør": 2538,
      "pot": 2539,
      "indhold": 2540,
      "frederik": 2541,
      "kommunen": 2542,
      "mm": 2543,
      "færdig": 2544,
      "abs": 2545,
      "evt": 2546,
      "offentlige": 2547,
      "##pligt": 2548,
      "aal": 2549,
      "lyder": 2550,
      "priser": 2551,
      "##stø": 2552,
      "val": 2553,
      "sagen": 2554,
      "##rekt": 2555,
      "##rav": 2556,
      "suc": 2557,
      "undgå": 2558,
      "as": 2559,
      "uddannelses": 2560,
      "værd": 2561,
      "holdt": 2562,
      "samlede": 2563,
      "utrol": 2564,
      "konst": 2565,
      "præsen": 2566,
      "hedder": 2567,
      "opgave": 2568,
      "administ": 2569,
      "skj": 2570,
      "bøger": 2571,
      "##mod": 2572,
      "##vist": 2573,
      "farve": 2574,
      "##uen": 2575,
      "##gere": 2576,
      "forfat": 2577,
      "kroppen": 2578,
      "##2,": 2579,
      "planlæg": 2580,
      "##gede": 2581,
      "stærk": 2582,
      "beskriv": 2583,
      "##esp": 2584,
      "cl": 2585,
      "stykke": 2586,
      "størrelse": 2587,
      "##mad": 2588,
      "leve": 2589,
      "moderne": 2590,
      "##nal": 2591,
      "bab": 2592,
      "##mor": 2593,
      "eksper": 2594,
      "dam": 2595,
      "øst": 2596,
      "bær": 2597,
      "##gelse": 2598,
      "øg": 2599,
      "feb": 2600,
      "sammenlig": 2601,
      "##ly": 2602,
      "##æb": 2603,
      "periode": 2604,
      "##tr": 2605,
      "week": 2606,
      "##aks": 2607,
      "træk": 2608,
      "indiv": 2609,
      "nødvendigt": 2610,
      "##udvik": 2611,
      "##kelige": 2612,
      "private": 2613,
      "offentlig": 2614,
      "general": 2615,
      "hører": 2616,
      "mist": 2617,
      "generelt": 2618,
      "##ætter": 2619,
      "##visning": 2620,
      "##agn": 2621,
      "meter": 2622,
      "autom": 2623,
      "fjern": 2624,
      "fig": 2625,
      "##iz": 2626,
      "kurs": 2627,
      "neg": 2628,
      "gennemsnit": 2629,
      "modtager": 2630,
      "føde": 2631,
      "løsning": 2632,
      "skol": 2633,
      "rammer": 2634,
      "id": 2635,
      "aalborg": 2636,
      "2014": 2637,
      "##alog": 2638,
      "##tier": 2639,
      "tit": 2640,
      "vidste": 2641,
      "erhvervs": 2642,
      "pluds": 2643,
      "varer": 2644,
      "ende": 2645,
      "##raft": 2646,
      "tilgæng": 2647,
      "hy": 2648,
      "overra": 2649,
      "øvrige": 2650,
      "andel": 2651,
      "2016": 2652,
      "spar": 2653,
      "21": 2654,
      "##fang": 2655,
      "##klub": 2656,
      "beløb": 2657,
      "kroner": 2658,
      "##ukker": 2659,
      "##ian": 2660,
      "fest": 2661,
      "bekendt": 2662,
      "detal": 2663,
      "husk": 2664,
      "##ument": 2665,
      "foræl": 2666,
      "##behandling": 2667,
      "here": 2668,
      "nuværende": 2669,
      "løbende": 2670,
      "åbne": 2671,
      "##delses": 2672,
      "slå": 2673,
      "konkurren": 2674,
      "høje": 2675,
      "jes": 2676,
      "kæreste": 2677,
      "specielt": 2678,
      "ked": 2679,
      "forbi": 2680,
      "skolen": 2681,
      "##mil": 2682,
      "tradition": 2683,
      "port": 2684,
      "##mellem": 2685,
      "##vs": 2686,
      "5.": 2687,
      "politik": 2688,
      "##fo": 2689,
      "##ustri": 2690,
      "budget": 2691,
      "ing": 2692,
      "fisk": 2693,
      "ir": 2694,
      "##gu": 2695,
      "##fæl": 2696,
      "bort": 2697,
      "glas": 2698,
      "##vare": 2699,
      "mik": 2700,
      "##ach": 2701,
      "idet": 2702,
      "sten": 2703,
      "vækst": 2704,
      "skil": 2705,
      "##fort": 2706,
      "gravid": 2707,
      "personlige": 2708,
      "rus": 2709,
      "helst": 2710,
      "##rivil": 2711,
      "nummer": 2712,
      "dejligt": 2713,
      "voksne": 2714,
      "venstre": 2715,
      "##tian": 2716,
      "##værelse": 2717,
      "##ile": 2718,
      "bebo": 2719,
      "##udvalg": 2720,
      "##ja": 2721,
      "produktion": 2722,
      "##ampe": 2723,
      "##ember": 2724,
      "skaber": 2725,
      "invester": 2726,
      "gæ": 2727,
      "neden": 2728,
      "##fuld": 2729,
      "##iel": 2730,
      "udvikle": 2731,
      "##tern": 2732,
      "hul": 2733,
      "læk": 2734,
      "kj": 2735,
      "##vil": 2736,
      "artikel": 2737,
      "ph": 2738,
      "lån": 2739,
      "##201": 2740,
      "højre": 2741,
      "##abil": 2742,
      "succes": 2743,
      "oprin": 2744,
      "fortsat": 2745,
      "chris": 2746,
      "##ående": 2747,
      "selve": 2748,
      "præcis": 2749,
      "bland": 2750,
      "##app": 2751,
      "##vok": 2752,
      "kommende": 2753,
      "##nere": 2754,
      "##ty": 2755,
      "simpelt": 2756,
      "lagt": 2757,
      "ci": 2758,
      "kred": 2759,
      "##oret": 2760,
      "team": 2761,
      "##essour": 2762,
      "##yser": 2763,
      "##kår": 2764,
      "##ætning": 2765,
      "nyde": 2766,
      "##aster": 2767,
      "udn": 2768,
      "##varende": 2769,
      "trafik": 2770,
      "indret": 2771,
      "dens": 2772,
      "0,": 2773,
      "mods": 2774,
      "##ta": 2775,
      "alder": 2776,
      "##værks": 2777,
      "adr": 2778,
      "##fic": 2779,
      "kendte": 2780,
      "transport": 2781,
      "##ha": 2782,
      "fungerer": 2783,
      "fej": 2784,
      "60": 2785,
      "##3.": 2786,
      "universitet": 2787,
      "fre": 2788,
      "##inds": 2789,
      "cit": 2790,
      "##ørs": 2791,
      "##anti": 2792,
      "##ørn": 2793,
      "imellem": 2794,
      "##ober": 2795,
      "kraft": 2796,
      "virksomheden": 2797,
      "##øjet": 2798,
      "fedt": 2799,
      "pa": 2800,
      "mening": 2801,
      "huske": 2802,
      "retning": 2803,
      "familien": 2804,
      "bank": 2805,
      "pol": 2806,
      "overfl": 2807,
      "prøver": 2808,
      "vari": 2809,
      "døde": 2810,
      "gældende": 2811,
      "typisk": 2812,
      "undervisning": 2813,
      "char": 2814,
      "stol": 2815,
      "##gerne": 2816,
      "individ": 2817,
      "herefter": 2818,
      "muse": 2819,
      "forstår": 2820,
      "århus": 2821,
      "menneske": 2822,
      "eksister": 2823,
      "##skyld": 2824,
      "datter": 2825,
      "oplever": 2826,
      "december": 2827,
      "tilp": 2828,
      "hud": 2829,
      "hom": 2830,
      "##asin": 2831,
      "##eren": 2832,
      "ændre": 2833,
      "udel": 2834,
      "praksis": 2835,
      "frisk": 2836,
      "fræk": 2837,
      "blå": 2838,
      "instru": 2839,
      "pub": 2840,
      "regel": 2841,
      "##iler": 2842,
      "klin": 2843,
      "skrift": 2844,
      "frug": 2845,
      "##ømme": 2846,
      "##ou": 2847,
      "ligel": 2848,
      "jorden": 2849,
      "##stændig": 2850,
      "indsats": 2851,
      "nov": 2852,
      "bilen": 2853,
      "sende": 2854,
      "bekym": 2855,
      "tekst": 2856,
      "##,\"": 2857,
      "tilmel": 2858,
      "pig": 2859,
      "smart": 2860,
      "##feren": 2861,
      "type": 2862,
      "recept": 2863,
      "##tre": 2864,
      "gro": 2865,
      "klare": 2866,
      "sove": 2867,
      "##terede": 2868,
      "starter": 2869,
      "##teres": 2870,
      "##dede": 2871,
      "kry": 2872,
      "##beg": 2873,
      "computer": 2874,
      "##afil": 2875,
      "##tember": 2876,
      "samarbej": 2877,
      "van": 2878,
      "##hn": 2879,
      "##abel": 2880,
      "klasse": 2881,
      "ændringer": 2882,
      "myn": 2883,
      "##iti": 2884,
      "institu": 2885,
      "special": 2886,
      "system": 2887,
      "frivil": 2888,
      "skyldes": 2889,
      "sød": 2890,
      "spur": 2891,
      "marts": 2892,
      "ligeledes": 2893,
      "##adet": 2894,
      "oktober": 2895,
      "##fa": 2896,
      "fisse": 2897,
      "øl": 2898,
      "##kald": 2899,
      "dør": 2900,
      "oper": 2901,
      "bygger": 2902,
      "udl": 2903,
      "opleve": 2904,
      "partner": 2905,
      "##elsens": 2906,
      "##reret": 2907,
      "server": 2908,
      "kre": 2909,
      "afhæng": 2910,
      "##æd": 2911,
      "nærmere": 2912,
      "##inen": 2913,
      "tant": 2914,
      "aner": 2915,
      "##fly": 2916,
      "##atet": 2917,
      "spillet": 2918,
      "værkt": 2919,
      "##sning": 2920,
      "##gj": 2921,
      "##sminister": 2922,
      "##ologiske": 2923,
      "stru": 2924,
      "sammenhæng": 2925,
      "studerende": 2926,
      "##oer": 2927,
      "hårdt": 2928,
      "##skl": 2929,
      "kop": 2930,
      "##okra": 2931,
      "##ancer": 2932,
      "læser": 2933,
      "september": 2934,
      "april": 2935,
      "apo": 2936,
      "iden": 2937,
      "##stående": 2938,
      "bidr": 2939,
      "##10": 2940,
      "##hjælp": 2941,
      "prisen": 2942,
      "strateg": 2943,
      "interess": 2944,
      "##ffet": 2945,
      "##3,": 2946,
      "afsnit": 2947,
      "##jæl": 2948,
      "tot": 2949,
      "##produk": 2950,
      "##keligt": 2951,
      "kombin": 2952,
      "gift": 2953,
      "##peratur": 2954,
      "##ologisk": 2955,
      "##fun": 2956,
      "tand": 2957,
      "forst": 2958,
      "kul": 2959,
      "##deles": 2960,
      "pædagog": 2961,
      "##ænger": 2962,
      "ufor": 2963,
      "søndag": 2964,
      "vandet": 2965,
      "skyld": 2966,
      "##vember": 2967,
      "vedlige": 2968,
      "me": 2969,
      "##ding": 2970,
      "udsigt": 2971,
      "26": 2972,
      "new": 2973,
      "##obb": 2974,
      "##ensen": 2975,
      "##akken": 2976,
      "##vejen": 2977,
      "##person": 2978,
      "sidde": 2979,
      "august": 2980,
      "##forløb": 2981,
      "folke": 2982,
      "##sigt": 2983,
      "firma": 2984,
      "patient": 2985,
      "overrask": 2986,
      "forsikring": 2987,
      "##fag": 2988,
      "pludselig": 2989,
      "are": 2990,
      "øjne": 2991,
      "interesse": 2992,
      "##unkter": 2993,
      "patienter": 2994,
      "paa": 2995,
      "vild": 2996,
      "handling": 2997,
      "tilsyn": 2998,
      "flotte": 2999,
      "klim": 3000,
      "minim": 3001,
      "nogens": 3002,
      "##ca": 3003,
      "##orm": 3004,
      "##viser": 3005,
      "##ny": 3006,
      "##iven": 3007,
      "styrke": 3008,
      "november": 3009,
      "kateg": 3010,
      "bon": 3011,
      "midler": 3012,
      "kold": 3013,
      "##port": 3014,
      "kaffe": 3015,
      "##iens": 3016,
      "almindelige": 3017,
      "anderledes": 3018,
      "lør": 3019,
      "belig": 3020,
      "europa": 3021,
      "##anten": 3022,
      "osv": 3023,
      "##kræ": 3024,
      "##isering": 3025,
      "##cel": 3026,
      "materiale": 3027,
      "sjovt": 3028,
      "##dæk": 3029,
      "##5,": 3030,
      "øvrigt": 3031,
      "##9,": 3032,
      "##besk": 3033,
      "gent": 3034,
      "glæder": 3035,
      "##ement": 3036,
      "##råd": 3037,
      "beskæftig": 3038,
      "lignende": 3039,
      "##ativt": 3040,
      "##åg": 3041,
      "##ierne": 3042,
      "##ash": 3043,
      "hvide": 3044,
      "konsek": 3045,
      "meg": 3046,
      "lægger": 3047,
      "vejledning": 3048,
      "ital": 3049,
      "plad": 3050,
      "28": 3051,
      "endda": 3052,
      "ten": 3053,
      "##kont": 3054,
      "pct": 3055,
      "kommentar": 3056,
      "##hav": 3057,
      "##færd": 3058,
      "strøm": 3059,
      "frit": 3060,
      "##mask": 3061,
      "3,": 3062,
      "##dage": 3063,
      "ungdom": 3064,
      "omkost": 3065,
      "vurdering": 3066,
      "##fremt": 3067,
      "ur": 3068,
      "##gående": 3069,
      "##æring": 3070,
      "udgifter": 3071,
      "måder": 3072,
      "tils": 3073,
      "##ail": 3074,
      "ed": 3075,
      "27": 3076,
      "##-2": 3077,
      "foregår": 3078,
      "punkt": 3079,
      "vigtigste": 3080,
      "anvendelse": 3081,
      "##tter": 3082,
      "kapit": 3083,
      "##skole": 3084,
      "drikke": 3085,
      "bestil": 3086,
      "##løse": 3087,
      "antallet": 3088,
      "ødel": 3089,
      "##ebo": 3090,
      "beting": 3091,
      "sad": 3092,
      "arrange": 3093,
      "##okol": 3094,
      "viste": 3095,
      "##slut": 3096,
      "##abet": 3097,
      "nogensinde": 3098,
      "typer": 3099,
      "såfremt": 3100,
      "tegn": 3101,
      "deltage": 3102,
      "mal": 3103,
      "afh": 3104,
      "forber": 3105,
      "##amen": 3106,
      "kons": 3107,
      "supp": 3108,
      "parker": 3109,
      "lægge": 3110,
      "ry": 3111,
      "6.": 3112,
      "gave": 3113,
      "europæ": 3114,
      "forker": 3115,
      "højde": 3116,
      "##ase": 3117,
      "stærkt": 3118,
      "lørdag": 3119,
      "regnskab": 3120,
      "krist": 3121,
      "##ygge": 3122,
      "næv": 3123,
      "kontakte": 3124,
      "politiet": 3125,
      "##ton": 3126,
      "##ætte": 3127,
      "pågæl": 3128,
      "##ragt": 3129,
      "lækre": 3130,
      "vent": 3131,
      "troede": 3132,
      "afdeling": 3133,
      "brugte": 3134,
      "##olut": 3135,
      "##ape": 3136,
      "chat": 3137,
      "hovedet": 3138,
      "fremtid": 3139,
      "flyt": 3140,
      "##iration": 3141,
      "koncer": 3142,
      "##sætning": 3143,
      "dels": 3144,
      "##ymn": 3145,
      "ford": 3146,
      "##ick": 3147,
      "##forsam": 3148,
      "##aer": 3149,
      "pe": 3150,
      "mio": 3151,
      "eksempelvis": 3152,
      "ressour": 3153,
      "chri": 3154,
      "##okken": 3155,
      "altern": 3156,
      "##ins": 3157,
      "effekt": 3158,
      "##1,": 3159,
      "##æde": 3160,
      "##elset": 3161,
      "##ho": 3162,
      "pension": 3163,
      "cirk": 3164,
      "##somt": 3165,
      "##pris": 3166,
      "sandsyn": 3167,
      "##9.": 3168,
      "##/2": 3169,
      "##ude": 3170,
      "integ": 3171,
      "besked": 3172,
      "##jerne": 3173,
      "##hv": 3174,
      "starte": 3175,
      "##tom": 3176,
      "##værdi": 3177,
      "##valg": 3178,
      "##usion": 3179,
      "udover": 3180,
      "registrer": 3181,
      "lod": 3182,
      "dyg": 3183,
      "kunde": 3184,
      "cykel": 3185,
      "senest": 3186,
      "sælger": 3187,
      "fine": 3188,
      "22": 3189,
      "##område": 3190,
      "smil": 3191,
      "revis": 3192,
      "hygg": 3193,
      "omfang": 3194,
      "##kor": 3195,
      "sender": 3196,
      "fyldt": 3197,
      "##yttelse": 3198,
      "rejser": 3199,
      "situation": 3200,
      "valgte": 3201,
      "vig": 3202,
      "##pt": 3203,
      "identi": 3204,
      "##årige": 3205,
      "kolleg": 3206,
      "eleverne": 3207,
      "skete": 3208,
      "købt": 3209,
      "venlig": 3210,
      "##beret": 3211,
      "##folk": 3212,
      "##idst": 3213,
      "kone": 3214,
      "retur": 3215,
      "san": 3216,
      "pågældende": 3217,
      "pæn": 3218,
      "kg": 3219,
      "øje": 3220,
      "cialis": 3221,
      "ref": 3222,
      "borgere": 3223,
      "standard": 3224,
      "kontra": 3225,
      "meddel": 3226,
      "##sættes": 3227,
      "søren": 3228,
      "##gade": 3229,
      "##ægt": 3230,
      "udenfor": 3231,
      "ringe": 3232,
      "##inder": 3233,
      "bord": 3234,
      "radi": 3235,
      "sang": 3236,
      "mer": 3237,
      "skriv": 3238,
      "aftal": 3239,
      "udviklet": 3240,
      "absolut": 3241,
      "##bare": 3242,
      "##mede": 3243,
      "tantra": 3244,
      "damer": 3245,
      "skrev": 3246,
      "lege": 3247,
      "undersøgelse": 3248,
      "generisk": 3249,
      "bri": 3250,
      "generalforsam": 3251,
      "##hånden": 3252,
      "dårlig": 3253,
      "##sto": 3254,
      "fuldt": 3255,
      "pat": 3256,
      "detaljer": 3257,
      "udgør": 3258,
      "kval": 3259,
      "inspir": 3260,
      "##fors": 3261,
      "såvel": 3262,
      "##obbelt": 3263,
      "klik": 3264,
      "nab": 3265,
      "tus": 3266,
      "##ung": 3267,
      "pleje": 3268,
      "henven": 3269,
      "##videre": 3270,
      "##eres": 3271,
      "##pladsen": 3272,
      "almindelig": 3273,
      "##ebook": 3274,
      "##kv": 3275,
      "venter": 3276,
      "##ymnas": 3277,
      "dre": 3278,
      "smule": 3279,
      "snak": 3280,
      "##imod": 3281,
      "overfor": 3282,
      "lands": 3283,
      "genop": 3284,
      "symp": 3285,
      "##spek": 3286,
      "camp": 3287,
      "forbrug": 3288,
      "foto": 3289,
      "##rækker": 3290,
      "opfat": 3291,
      "former": 3292,
      "##virksomhed": 3293,
      "##drag": 3294,
      "møn": 3295,
      "yng": 3296,
      "##åben": 3297,
      "##ves": 3298,
      "##kommende": 3299,
      "##vie": 3300,
      "afsk": 3301,
      "oplevelser": 3302,
      "##na": 3303,
      "stress": 3304,
      "sikrer": 3305,
      "udviklingen": 3306,
      "middel": 3307,
      "lader": 3308,
      "##olitik": 3309,
      "netværk": 3310,
      "##strup": 3311,
      "heldigvis": 3312,
      "lager": 3313,
      "fredag": 3314,
      "efterhånden": 3315,
      "ansigt": 3316,
      "##ies": 3317,
      "skabt": 3318,
      "##-)": 3319,
      "gæster": 3320,
      "hverken": 3321,
      "fører": 3322,
      "##nov": 3323,
      "##hovedet": 3324,
      "##gæld": 3325,
      "##uc": 3326,
      "dejlige": 3327,
      "##æmp": 3328,
      "afgørende": 3329,
      "fødsels": 3330,
      "mich": 3331,
      "--": 3332,
      "##ork": 3333,
      "fyn": 3334,
      "kli": 3335,
      "inspiration": 3336,
      "forfatter": 3337,
      "##ission": 3338,
      "hørt": 3339,
      "født": 3340,
      "##agerne": 3341,
      "gri": 3342,
      "hem": 3343,
      "##æld": 3344,
      "fremgår": 3345,
      "##kast": 3346,
      "nødvendig": 3347,
      "live": 3348,
      "uaf": 3349,
      "bryst": 3350,
      "figur": 3351,
      "kommuner": 3352,
      "vedrørende": 3353,
      "søde": 3354,
      "##vejs": 3355,
      "falder": 3356,
      "ør": 3357,
      "##digt": 3358,
      "##hal": 3359,
      "sønder": 3360,
      "lider": 3361,
      "##former": 3362,
      "sendt": 3363,
      "risiko": 3364,
      "##own": 3365,
      "erstat": 3366,
      "undskyld": 3367,
      "liste": 3368,
      "tredje": 3369,
      "##blio": 3370,
      "##ruar": 3371,
      "7.": 3372,
      "millioner": 3373,
      "magt": 3374,
      "##hæ": 3375,
      "##mun": 3376,
      "frank": 3377,
      "centr": 3378,
      "forening": 3379,
      "##ktør": 3380,
      "økonomi": 3381,
      "198": 3382,
      "spis": 3383,
      "stik": 3384,
      "opfyldt": 3385,
      "spor": 3386,
      "##!!": 3387,
      "jour": 3388,
      "baseret": 3389,
      "##vig": 3390,
      "overt": 3391,
      "papir": 3392,
      "##komst": 3393,
      "facebook": 3394,
      "##holdelse": 3395,
      "##ici": 3396,
      "økonomiske": 3397,
      "dobbelt": 3398,
      "engelsk": 3399,
      "2013": 3400,
      "##skom": 3401,
      "##ekom": 3402,
      "##ugt": 3403,
      "##dørs": 3404,
      "##ific": 3405,
      "##pladser": 3406,
      "##fulde": 3407,
      "##betaling": 3408,
      "isl": 3409,
      "skade": 3410,
      "hjerte": 3411,
      "udstilling": 3412,
      "omfatter": 3413,
      "rim": 3414,
      "bange": 3415,
      "##ice": 3416,
      "pengene": 3417,
      "kæl": 3418,
      "røde": 3419,
      "startede": 3420,
      "endvidere": 3421,
      "optim": 3422,
      "værelse": 3423,
      "hjør": 3424,
      "##kr": 3425,
      "forand": 3426,
      "primær": 3427,
      "rolle": 3428,
      "tjek": 3429,
      "elev": 3430,
      "tyskland": 3431,
      "februar": 3432,
      "jylland": 3433,
      "##mester": 3434,
      "langs": 3435,
      "hunde": 3436,
      "col": 3437,
      "øk": 3438,
      "musk": 3439,
      "forven": 3440,
      "markedet": 3441,
      "stof": 3442,
      "forbru": 3443,
      "grundlæg": 3444,
      "folket": 3445,
      "olie": 3446,
      "grundlag": 3447,
      "umiddel": 3448,
      "ansatte": 3449,
      "##0,": 3450,
      "princi": 3451,
      "##stemer": 3452,
      "debat": 3453,
      "##ægter": 3454,
      "fysisk": 3455,
      "populære": 3456,
      "dokument": 3457,
      "vælg": 3458,
      "##lar": 3459,
      "overv": 3460,
      "deltager": 3461,
      "klo": 3462,
      "##rådet": 3463,
      "vente": 3464,
      "udeluk": 3465,
      "fodbold": 3466,
      "##opg": 3467,
      "bilag": 3468,
      "starten": 3469,
      "##ffe": 3470,
      "forsvar": 3471,
      "opbe": 3472,
      "##oplys": 3473,
      "##miljø": 3474,
      "vidt": 3475,
      "blo": 3476,
      "##holdes": 3477,
      "guld": 3478,
      "ønskede": 3479,
      "læst": 3480,
      "por": 3481,
      "svarer": 3482,
      "##ovens": 3483,
      "##abrik": 3484,
      "forskning": 3485,
      "stilling": 3486,
      "perfek": 3487,
      "straks": 3488,
      "medarbejder": 3489,
      "rengør": 3490,
      "tanker": 3491,
      "trække": 3492,
      "udfordringer": 3493,
      "potenti": 3494,
      "##rere": 3495,
      "##view": 3496,
      "modtaget": 3497,
      "unders": 3498,
      "##sper": 3499,
      "do": 3500,
      "mv": 3501,
      "cop": 3502,
      "nøgen": 3503,
      "sli": 3504,
      "##ænding": 3505,
      "##landet": 3506,
      "ru": 3507,
      "formid": 3508,
      "indkøb": 3509,
      "##rige": 3510,
      "forældr": 3511,
      "##ilet": 3512,
      "##oren": 3513,
      "##øder": 3514,
      "hosp": 3515,
      "samfund": 3516,
      "internationale": 3517,
      "him": 3518,
      "dækker": 3519,
      "vedt": 3520,
      "videnskab": 3521,
      "møl": 3522,
      "historien": 3523,
      "bygget": 3524,
      "sammens": 3525,
      "##tigheder": 3526,
      "tillad": 3527,
      "hotellet": 3528,
      "pas": 3529,
      "##nene": 3530,
      "##bæk": 3531,
      "simpelthen": 3532,
      "beret": 3533,
      "##sætte": 3534,
      "##ringe": 3535,
      "sing": 3536,
      "##vl": 3537,
      "forsøger": 3538,
      "bage": 3539,
      "##telses": 3540,
      "##go": 3541,
      "prøvet": 3542,
      "##assage": 3543,
      "profil": 3544,
      "##væk": 3545,
      "##indr": 3546,
      "aktiv": 3547,
      "##ruk": 3548,
      "træt": 3549,
      "##histor": 3550,
      "projekter": 3551,
      "kommunikation": 3552,
      "opbyg": 3553,
      "juli": 3554,
      "thom": 3555,
      "dialog": 3556,
      "ideer": 3557,
      "rekl": 3558,
      "moder": 3559,
      "##områder": 3560,
      "eksisterende": 3561,
      "gymnas": 3562,
      "##vit": 3563,
      "##funktion": 3564,
      "varmt": 3565,
      "##kar": 3566,
      "ekst": 3567,
      ";": 3568,
      "##letter": 3569,
      "koster": 3570,
      "kigge": 3571,
      "##ish": 3572,
      "orden": 3573,
      "blomster": 3574,
      "doku": 3575,
      "##nat": 3576,
      "roman": 3577,
      "henhold": 3578,
      "opdag": 3579,
      "##udt": 3580,
      "##gjort": 3581,
      "##kur": 3582,
      "tages": 3583,
      "døren": 3584,
      "gengæld": 3585,
      "billedet": 3586,
      "##udvikling": 3587,
      "##dagen": 3588,
      "##essen": 3589,
      "struktur": 3590,
      "##egetøj": 3591,
      "vare": 3592,
      "præst": 3593,
      "##mene": 3594,
      "flytte": 3595,
      "repræsent": 3596,
      "has": 3597,
      "gre": 3598,
      "opmærksomhed": 3599,
      "fe": 3600,
      "invi": 3601,
      "strand": 3602,
      "##delingen": 3603,
      "##forhold": 3604,
      "rapport": 3605,
      "##øve": 3606,
      "sorte": 3607,
      "vejr": 3608,
      "ori": 3609,
      "vildt": 3610,
      "##5.": 3611,
      "##job": 3612,
      "##arm": 3613,
      "pal": 3614,
      "ondt": 3615,
      "fortalte": 3616,
      "beskri": 3617,
      "køl": 3618,
      "##bed": 3619,
      "øget": 3620,
      "automatisk": 3621,
      "årets": 3622,
      "rev": 3623,
      "aktiver": 3624,
      "##sstil": 3625,
      "ass": 3626,
      "##holdsvis": 3627,
      "pul": 3628,
      "##sa": 3629,
      "nøgne": 3630,
      "apotek": 3631,
      "##atis": 3632,
      "##ementer": 3633,
      "fortsætter": 3634,
      "##th": 3635,
      "visse": 3636,
      "fork": 3637,
      "##ild": 3638,
      "fornem": 3639,
      "je": 3640,
      "mødes": 3641,
      "forel": 3642,
      "##splan": 3643,
      "fantastiske": 3644,
      "politiske": 3645,
      "##4,": 3646,
      "na": 3647,
      "nærmest": 3648,
      "betragt": 3649,
      "##vise": 3650,
      "##ært": 3651,
      "##ix": 3652,
      "##yll": 3653,
      "jule": 3654,
      "vansk": 3655,
      "197": 3656,
      "##atør": 3657,
      "drenge": 3658,
      "skar": 3659,
      "beslutning": 3660,
      "værk": 3661,
      "gøres": 3662,
      "manden": 3663,
      "mulige": 3664,
      "ops": 3665,
      "con": 3666,
      "##we": 3667,
      "københavns": 3668,
      "##iste": 3669,
      "foreb": 3670,
      "nyhed": 3671,
      "80": 3672,
      "##edyg": 3673,
      "real": 3674,
      "##tt": 3675,
      "økonomisk": 3676,
      "medier": 3677,
      "##amin": 3678,
      "scen": 3679,
      "lettere": 3680,
      "##skrifter": 3681,
      "prøv": 3682,
      "jensen": 3683,
      "##8,": 3684,
      "stemme": 3685,
      "fed": 3686,
      "john": 3687,
      "##ness": 3688,
      "industri": 3689,
      "modtage": 3690,
      "amerikanske": 3691,
      "ændring": 3692,
      "hænder": 3693,
      "##vice": 3694,
      "23": 3695,
      "intro": 3696,
      "fremtiden": 3697,
      "##ssel": 3698,
      "vilkår": 3699,
      "##forening": 3700,
      "##delen": 3701,
      "grønne": 3702,
      "ændret": 3703,
      "natten": 3704,
      "løber": 3705,
      "tilfreds": 3706,
      "godkendt": 3707,
      "bestemm": 3708,
      "knap": 3709,
      "sav": 3710,
      "mr": 3711,
      "galt": 3712,
      "indgår": 3713,
      "christian": 3714,
      "##førte": 3715,
      "bety": 3716,
      "omgang": 3717,
      "##lå": 3718,
      "kalder": 3719,
      "##forsk": 3720,
      "baby": 3721,
      "turen": 3722,
      "##smus": 3723,
      "skatte": 3724,
      "swinger": 3725,
      "håb": 3726,
      "sur": 3727,
      "personale": 3728,
      "vejret": 3729,
      "digit": 3730,
      "temperatur": 3731,
      "neder": 3732,
      "hård": 3733,
      "tilbyde": 3734,
      "##gar": 3735,
      "##stænd": 3736,
      "bund": 3737,
      "korrekt": 3738,
      "understø": 3739,
      "dyre": 3740,
      "##gøre": 3741,
      "##chef": 3742,
      "perfekte": 3743,
      "hansen": 3744,
      "dreng": 3745,
      "voksen": 3746,
      "8.": 3747,
      "ugen": 3748,
      "fæng": 3749,
      "sager": 3750,
      "##part": 3751,
      "##orier": 3752,
      "mødt": 3753,
      "##uddannelse": 3754,
      "leverand": 3755,
      "##ski": 3756,
      "##ladt": 3757,
      "overblik": 3758,
      "##gruppe": 3759,
      "q": 3760,
      "##ørgen": 3761,
      "overhovedet": 3762,
      "frugt": 3763,
      "tillæg": 3764,
      "erfaringer": 3765,
      "?": 3766,
      "omgiv": 3767,
      "fleks": 3768,
      "##ynd": 3769,
      "##afe": 3770,
      "overens": 3771,
      "##inst": 3772,
      "##bær": 3773,
      "##ette": 3774,
      "løbe": 3775,
      "kong": 3776,
      "nødvendige": 3777,
      "pil": 3778,
      "##væ": 3779,
      "formand": 3780,
      "mandag": 3781,
      "##gra": 3782,
      "##bas": 3783,
      "symptom": 3784,
      "bekræ": 3785,
      "øver": 3786,
      "##styrelsen": 3787,
      "##itra": 3788,
      "##stit": 3789,
      "tænkte": 3790,
      "##ogle": 3791,
      "##ael": 3792,
      "##iat": 3793,
      "materialer": 3794,
      "elsk": 3795,
      "huden": 3796,
      "##ordin": 3797,
      "skræ": 3798,
      "##sø": 3799,
      "relevante": 3800,
      "forud": 3801,
      "næst": 3802,
      "70": 3803,
      "##ele": 3804,
      "##aktion": 3805,
      "glade": 3806,
      "##vende": 3807,
      "##æder": 3808,
      "tæ": 3809,
      "sukker": 3810,
      "tydeligt": 3811,
      "##estyrelsen": 3812,
      "##4.": 3813,
      "all": 3814,
      "daglig": 3815,
      "##ids": 3816,
      "kron": 3817,
      "nøj": 3818,
      "støv": 3819,
      "kend": 3820,
      "sov": 3821,
      "##60": 3822,
      "reser": 3823,
      "leje": 3824,
      ")": 3825,
      "##timer": 3826,
      "##ragende": 3827,
      "2012": 3828,
      "##rende": 3829,
      "##6,": 3830,
      "indstilling": 3831,
      "vigtige": 3832,
      "betaler": 3833,
      "fart": 3834,
      "løsninger": 3835,
      "anti": 3836,
      "##kendte": 3837,
      "trans": 3838,
      "##bred": 3839,
      "ramme": 3840,
      "##olf": 3841,
      "dato": 3842,
      "##stof": 3843,
      "sjælland": 3844,
      "kød": 3845,
      "besøge": 3846,
      "##ity": 3847,
      "satte": 3848,
      "maler": 3849,
      "indbyg": 3850,
      "primært": 3851,
      "videoer": 3852,
      "mæl": 3853,
      "4,": 3854,
      "##idlertid": 3855,
      "kontor": 3856,
      "imidlertid": 3857,
      "##ines": 3858,
      "behag": 3859,
      "##ødt": 3860,
      "##ove": 3861,
      "ran": 3862,
      "oppe": 3863,
      "vore": 3864,
      "muligheden": 3865,
      "vandt": 3866,
      "##egnet": 3867,
      "anvende": 3868,
      "##kred": 3869,
      "version": 3870,
      "##7,": 3871,
      "tilt": 3872,
      "nør": 3873,
      "ligge": 3874,
      "teen": 3875,
      "##skilde": 3876,
      "##sby": 3877,
      "nielsen": 3878,
      "forpligt": 3879,
      "##nummer": 3880,
      "optag": 3881,
      "##cyk": 3882,
      "##agte": 3883,
      "bevidst": 3884,
      "initi": 3885,
      "##yttes": 3886,
      "alko": 3887,
      "føle": 3888,
      "bevæ": 3889,
      "nede": 3890,
      "##bek": 3891,
      "ug": 3892,
      "##mme": 3893,
      "lækkert": 3894,
      "fremragende": 3895,
      "ww": 3896,
      "jørgen": 3897,
      "##stedet": 3898,
      "branch": 3899,
      "bygning": 3900,
      "##varme": 3901,
      "tænkt": 3902,
      "konkrete": 3903,
      "##ordning": 3904,
      "rul": 3905,
      "opskrift": 3906,
      "##kan": 3907,
      "##rettet": 3908,
      "kem": 3909,
      "brød": 3910,
      "maks": 3911,
      "##dsom": 3912,
      "tværs": 3913,
      "mul": 3914,
      "tjeneste": 3915,
      "tryg": 3916,
      "rådighed": 3917,
      "kampen": 3918,
      "ku": 3919,
      "igang": 3920,
      "##dem": 3921,
      "eval": 3922,
      "rek": 3923,
      "syntes": 3924,
      "9.": 3925,
      "tl": 3926,
      "forekom": 3927,
      "##cl": 3928,
      "batter": 3929,
      "fav": 3930,
      "fysiske": 3931,
      "##denafil": 3932,
      "##pil": 3933,
      "##ong": 3934,
      "hil": 3935,
      "grundlæggende": 3936,
      "##.)": 3937,
      "2010": 3938,
      "biblio": 3939,
      "##førelse": 3940,
      "navnet": 3941,
      "accep": 3942,
      "mindste": 3943,
      "##huse": 3944,
      "uafhæng": 3945,
      "spiser": 3946,
      "europæiske": 3947,
      "skift": 3948,
      "manglende": 3949,
      "elektron": 3950,
      "##oden": 3951,
      "##mm": 3952,
      "daglige": 3953,
      "grupper": 3954,
      "skridt": 3955,
      "dengang": 3956,
      "seng": 3957,
      "handle": 3958,
      "lars": 3959,
      "resultatet": 3960,
      "indre": 3961,
      "parti": 3962,
      "center": 3963,
      "dårligt": 3964,
      "##satte": 3965,
      "ner": 3966,
      "publik": 3967,
      "dra": 3968,
      "##slaget": 3969,
      "kræft": 3970,
      "##ers": 3971,
      "##isme": 3972,
      "udarbej": 3973,
      "##orien": 3974,
      "##dyr": 3975,
      "tilslut": 3976,
      "enhed": 3977,
      "naturen": 3978,
      "pan": 3979,
      "innov": 3980,
      "glob": 3981,
      "fru": 3982,
      "konsekven": 3983,
      "tanke": 3984,
      "passe": 3985,
      "match": 3986,
      "##ystem": 3987,
      "kursus": 3988,
      "##',": 3989,
      "##bor": 3990,
      "møb": 3991,
      "ophold": 3992,
      "##må": 3993,
      "derimod": 3994,
      "10.": 3995,
      "ger": 3996,
      "##hu": 3997,
      "konstru": 3998,
      "kne": 3999,
      "historier": 4000,
      "##sede": 4001,
      "bod": 4002,
      "kørte": 4003,
      "##skær": 4004,
      "##ikken": 4005,
      "tilstand": 4006,
      "www": 4007,
      "tilkn": 4008,
      "tidligt": 4009,
      "landbrug": 4010,
      "##agne": 4011,
      "lukket": 4012,
      "anbefaler": 4013,
      "salt": 4014,
      "fød": 4015,
      "##niveau": 4016,
      "##ikt": 4017,
      "virke": 4018,
      "virkeligheden": 4019,
      "værelser": 4020,
      "kommunal": 4021,
      "##'.": 4022,
      "anbefale": 4023,
      "problemet": 4024,
      "ledelse": 4025,
      "henrik": 4026,
      "stykker": 4027,
      "##fe": 4028,
      "##amera": 4029,
      "plus": 4030,
      "##urer": 4031,
      "##skov": 4032,
      "funktioner": 4033,
      "personlig": 4034,
      "tir": 4035,
      "væsentlig": 4036,
      "##hjemme": 4037,
      "ligner": 4038,
      "relig": 4039,
      "forståelse": 4040,
      "føre": 4041,
      "rasmus": 4042,
      "rob": 4043,
      "##stemmelse": 4044,
      "kast": 4045,
      "fællesskab": 4046,
      "chokol": 4047,
      "dræb": 4048,
      "biler": 4049,
      "##rene": 4050,
      "national": 4051,
      "##tions": 4052,
      "##iker": 4053,
      "fremstil": 4054,
      "umiddelbart": 4055,
      "ant": 4056,
      "retten": 4057,
      "skru": 4058,
      "jens": 4059,
      "guide": 4060,
      "alkohol": 4061,
      "undt": 4062,
      "sym": 4063,
      "peder": 4064,
      "personligt": 4065,
      "##estiv": 4066,
      "blød": 4067,
      "døg": 4068,
      "##årig": 4069,
      "arbejdsmark": 4070,
      "torsdag": 4071,
      "spørge": 4072,
      "hjul": 4073,
      "beskrivelse": 4074,
      "hjemmesiden": 4075,
      "vende": 4076,
      "begynde": 4077,
      "toilet": 4078,
      "##user": 4079,
      "moden": 4080,
      "nævnt": 4081,
      "restaurant": 4082,
      "interessant": 4083,
      "fuldstændig": 4084,
      "udst": 4085,
      "frederiks": 4086,
      "tyske": 4087,
      "praktisk": 4088,
      "##anke": 4089,
      "grunde": 4090,
      "øge": 4091,
      "adresse": 4092,
      "##græn": 4093,
      "overord": 4094,
      "##oo": 4095,
      "wor": 4096,
      "##landske": 4097,
      "meste": 4098,
      "##spar": 4099,
      "faglige": 4100,
      "forkert": 4101,
      "vedr": 4102,
      "triv": 4103,
      "maden": 4104,
      "følelser": 4105,
      "støj": 4106,
      "dist": 4107,
      "såsom": 4108,
      "modne": 4109,
      "minimum": 4110,
      "pak": 4111,
      "opbevar": 4112,
      "uh": 4113,
      "annoncer": 4114,
      "##40": 4115,
      "##somme": 4116,
      "##kør": 4117,
      "##ningsm": 4118,
      "udelukkende": 4119,
      "sagtens": 4120,
      "tilstræk": 4121,
      "##8.": 4122,
      "down": 4123,
      "##smæssige": 4124,
      "bom": 4125,
      "øjnene": 4126,
      "tilskud": 4127,
      "brugere": 4128,
      "##anc": 4129,
      "modeller": 4130,
      "haven": 4131,
      "kende": 4132,
      "ordent": 4133,
      "fang": 4134,
      "##hund": 4135,
      "##ævnet": 4136,
      "qu": 4137,
      "byder": 4138,
      "##kendt": 4139,
      "##/1": 4140,
      "forhand": 4141,
      "##vest": 4142,
      "faldt": 4143,
      "mom": 4144,
      "##udvalget": 4145,
      "sver": 4146,
      "ender": 4147,
      "silke": 4148,
      "fu": 4149,
      "skønne": 4150,
      "##gangen": 4151,
      "vejle": 4152,
      "utrolig": 4153,
      "##-,": 4154,
      "smukt": 4155,
      "sikkerheds": 4156,
      "##ane": 4157,
      "indholdet": 4158,
      "indfly": 4159,
      "##oks": 4160,
      "##vokat": 4161,
      "##perio": 4162,
      "journal": 4163,
      "##sende": 4164,
      "##sku": 4165,
      "mærker": 4166,
      "##phone": 4167,
      "henblik": 4168,
      "att": 4169,
      "dest": 4170,
      "løg": 4171,
      "##lex": 4172,
      "skifte": 4173,
      "løse": 4174,
      "eftermid": 4175,
      "vinder": 4176,
      "max": 4177,
      "højeste": 4178,
      "saa": 4179,
      "afsp": 4180,
      "##igin": 4181,
      "byens": 4182,
      "placeret": 4183,
      "hente": 4184,
      "##so": 4185,
      "##kedes": 4186,
      "jac": 4187,
      "##delt": 4188,
      "reglerne": 4189,
      "markeds": 4190,
      "##ringen": 4191,
      "begrænset": 4192,
      "35": 4193,
      "##brud": 4194,
      "esbjerg": 4195,
      "praktik": 4196,
      "nemmere": 4197,
      "røg": 4198,
      "##6.": 4199,
      "steg": 4200,
      "eventuelle": 4201,
      "lavede": 4202,
      "varet": 4203,
      "dags": 4204,
      "sådanne": 4205,
      "onsdag": 4206,
      "point": 4207,
      "##out": 4208,
      "randers": 4209,
      "##ødet": 4210,
      "mærk": 4211,
      "byr": 4212,
      "udsen": 4213,
      "##inter": 4214,
      "frokost": 4215,
      "internettet": 4216,
      "kompetencer": 4217,
      "interview": 4218,
      "klima": 4219,
      "røv": 4220,
      "fanden": 4221,
      "syv": 4222,
      "politisk": 4223,
      "dvs": 4224,
      "spurgte": 4225,
      "sjældent": 4226,
      "tj": 4227,
      "iværks": 4228,
      "veg": 4229,
      "omfattet": 4230,
      "##gruppen": 4231,
      "##onen": 4232,
      "analyse": 4233,
      "fjerne": 4234,
      "##mæssige": 4235,
      "spørger": 4236,
      "tider": 4237,
      "##organis": 4238,
      "læring": 4239,
      "##føring": 4240,
      "2011": 4241,
      "##aen": 4242,
      "##7.": 4243,
      "##ith": 4244,
      "søvn": 4245,
      "indsam": 4246,
      "åbent": 4247,
      "##sex": 4248,
      "marker": 4249,
      "repræsen": 4250,
      "dagens": 4251,
      "udført": 4252,
      "##olver": 4253,
      "##tesk": 4254,
      "opstår": 4255,
      "##enes": 4256,
      "##ilm": 4257,
      "##ydes": 4258,
      "##ppor": 4259,
      "##vik": 4260,
      "##lings": 4261,
      "##mæssigt": 4262,
      "##liggende": 4263,
      "##ktioner": 4264,
      "##skolen": 4265,
      "ros": 4266,
      "##meste": 4267,
      "vinde": 4268,
      "tingene": 4269,
      "arm": 4270,
      "samfunds": 4271,
      "komfort": 4272,
      "##dy": 4273,
      "levende": 4274,
      "##als": 4275,
      "fødselsdag": 4276,
      "##oplysninger": 4277,
      "##mænd": 4278,
      "oft": 4279,
      "##dres": 4280,
      "##ls": 4281,
      "personalet": 4282,
      "dav": 4283,
      "fortsætte": 4284,
      "sygep": 4285,
      "perioden": 4286,
      "wh": 4287,
      "rådgivning": 4288,
      "efterl": 4289,
      "weekend": 4290,
      "##ender": 4291,
      "don": 4292,
      "milj": 4293,
      "roskilde": 4294,
      "hertil": 4295,
      "##værker": 4296,
      "jagt": 4297,
      "hr": 4298,
      "levitra": 4299,
      "trin": 4300,
      "talt": 4301,
      "entre": 4302,
      "##program": 4303,
      "out": 4304,
      "##-3": 4305,
      "kapitel": 4306,
      "chef": 4307,
      "eventuelt": 4308,
      "tilsvarende": 4309,
      "træner": 4310,
      "##iteter": 4311,
      "kunden": 4312,
      "italien": 4313,
      "spare": 4314,
      "sommeren": 4315,
      "undersøgelser": 4316,
      "forventes": 4317,
      "stiller": 4318,
      "snakke": 4319,
      "##test": 4320,
      "stærke": 4321,
      "##stitut": 4322,
      "angiv": 4323,
      "brun": 4324,
      "##øjelse": 4325,
      "##oris": 4326,
      "klokken": 4327,
      "trækker": 4328,
      "##ppede": 4329,
      "holdet": 4330,
      "buk": 4331,
      "forsv": 4332,
      "##eltet": 4333,
      "minister": 4334,
      "bæredyg": 4335,
      "slot": 4336,
      "cre": 4337,
      "billige": 4338,
      "rut": 4339,
      "oversigt": 4340,
      "ankom": 4341,
      "##have": 4342,
      "##udstyr": 4343,
      "aflever": 4344,
      "faste": 4345,
      "naturligt": 4346,
      "origin": 4347,
      "organ": 4348,
      "##ka": 4349,
      "##film": 4350,
      "udgave": 4351,
      "##ats": 4352,
      "koncent": 4353,
      "skader": 4354,
      "ansvarlig": 4355,
      "sent": 4356,
      "##itte": 4357,
      "kryd": 4358,
      "præsiden": 4359,
      "nedenfor": 4360,
      "##zz": 4361,
      "##ament": 4362,
      "##merne": 4363,
      "gennemført": 4364,
      "kigger": 4365,
      "defin": 4366,
      "##iss": 4367,
      "##eu": 4368,
      "stigende": 4369,
      "sne": 4370,
      "park": 4371,
      "benytte": 4372,
      "gulv": 4373,
      "sælge": 4374,
      "##orte": 4375,
      "my": 4376,
      "forbundet": 4377,
      "stoppe": 4378,
      "##mål": 4379,
      "bjer": 4380,
      "air": 4381,
      "øster": 4382,
      "herfra": 4383,
      "tirsdag": 4384,
      "##sættelse": 4385,
      "spillere": 4386,
      "inddr": 4387,
      "##rapport": 4388,
      "grå": 4389,
      "##ømt": 4390,
      "vindu": 4391,
      "jern": 4392,
      "interesseret": 4393,
      "låne": 4394,
      "##undersøg": 4395,
      "gæst": 4396,
      "tænder": 4397,
      "##fred": 4398,
      "av": 4399,
      "voldsom": 4400,
      "##ware": 4401,
      "ansæt": 4402,
      "##sler": 4403,
      "##stået": 4404,
      "orienter": 4405,
      "udgivet": 4406,
      "kart": 4407,
      "##punkt": 4408,
      "##rid": 4409,
      "pau": 4410,
      "begiven": 4411,
      "##atik": 4412,
      "##nævn": 4413,
      "gal": 4414,
      "##ned": 4415,
      "udarbejdet": 4416,
      "status": 4417,
      "90": 4418,
      "åbner": 4419,
      "oftest": 4420,
      "naturlige": 4421,
      "##penge": 4422,
      "klubben": 4423,
      "##dele": 4424,
      "websted": 4425,
      "hovedst": 4426,
      "spørgsmålet": 4427,
      "##tic": 4428,
      "##grupper": 4429,
      "fremme": 4430,
      "##ancen": 4431,
      "arbejdsgiver": 4432,
      "ansat": 4433,
      "anbefales": 4434,
      "bygninger": 4435,
      "hellere": 4436,
      "forårs": 4437,
      "foretaget": 4438,
      "ødelæg": 4439,
      "digital": 4440,
      "##ire": 4441,
      "##terende": 4442,
      "avis": 4443,
      "thomas": 4444,
      "##ulering": 4445,
      "indflydelse": 4446,
      "stre": 4447,
      "hvorefter": 4448,
      "hånden": 4449,
      "annoncen": 4450,
      "jap": 4451,
      "vask": 4452,
      "lagde": 4453,
      "arkite": 4454,
      "arbejd": 4455,
      "vilde": 4456,
      "levering": 4457,
      "gi": 4458,
      "andersen": 4459,
      "##serv": 4460,
      "bir": 4461,
      "regering": 4462,
      "##ækker": 4463,
      "##slin": 4464,
      "##medlem": 4465,
      "bj": 4466,
      "lykkedes": 4467,
      "##fek": 4468,
      "afgørelse": 4469,
      "evaluer": 4470,
      "grænse": 4471,
      "bredt": 4472,
      "mødet": 4473,
      "kys": 4474,
      "1/2": 4475,
      "garanti": 4476,
      "værktøj": 4477,
      "kolding": 4478,
      "##rebet": 4479,
      "hørte": 4480,
      "litter": 4481,
      "samfundet": 4482,
      "værdier": 4483,
      "aktuelle": 4484,
      "peg": 4485,
      "##ight": 4486,
      "pakke": 4487,
      "fund": 4488,
      "##orten": 4489,
      "morgenmad": 4490,
      "##ivet": 4491,
      "##byr": 4492,
      "##ame": 4493,
      "google": 4494,
      "##telsen": 4495,
      "(2": 4496,
      "##api": 4497,
      "våben": 4498,
      "can": 4499,
      "brev": 4500,
      "travl": 4501,
      "##ced": 4502,
      "organisation": 4503,
      "designet": 4504,
      "stram": 4505,
      "konfl": 4506,
      "cont": 4507,
      "##dannet": 4508,
      "45": 4509,
      "vider": 4510,
      "skib": 4511,
      "tlf": 4512,
      "dol": 4513,
      "skin": 4514,
      "undervejs": 4515,
      "studie": 4516,
      "##nerne": 4517,
      "diver": 4518,
      "bryll": 4519,
      "michael": 4520,
      "køret": 4521,
      "muligvis": 4522,
      "adskil": 4523,
      "stranden": 4524,
      "##viden": 4525,
      "hid": 4526,
      "##ulent": 4527,
      "##etter": 4528,
      "hær": 4529,
      "centrum": 4530,
      "dets": 4531,
      "camping": 4532,
      "tabel": 4533,
      "hyl": 4534,
      "mørke": 4535,
      "hæv": 4536,
      "##kaldte": 4537,
      "begyndt": 4538,
      "effektiv": 4539,
      "forbedre": 4540,
      "kaldes": 4541,
      "stoffer": 4542,
      "omkostninger": 4543,
      "fordele": 4544,
      "toppen": 4545,
      "konstant": 4546,
      "føles": 4547,
      "drømme": 4548,
      "fornu": 4549,
      "relevant": 4550,
      "opfordr": 4551,
      "foreningen": 4552,
      "parkering": 4553,
      "##asc": 4554,
      "lavere": 4555,
      "formålet": 4556,
      "programmet": 4557,
      "##onden": 4558,
      "sverige": 4559,
      "##ogne": 4560,
      "mund": 4561,
      "involver": 4562,
      "##ba": 4563,
      "band": 4564,
      "##veks": 4565,
      "##riere": 4566,
      "stabil": 4567,
      "filmen": 4568,
      "husker": 4569,
      "fan": 4570,
      "tråd": 4571,
      "jævn": 4572,
      "kunstner": 4573,
      "læder": 4574,
      "niels": 4575,
      "derved": 4576,
      "gives": 4577,
      "søl": 4578,
      "not": 4579,
      "##rus": 4580,
      "kob": 4581,
      "art": 4582,
      "kand": 4583,
      "maksim": 4584,
      "betal": 4585,
      "##off": 4586,
      "amatør": 4587,
      "##sst": 4588,
      "tekniske": 4589,
      "##oc": 4590,
      "##ændr": 4591,
      "uhel": 4592,
      "##ura": 4593,
      "##værket": 4594,
      "slår": 4595,
      "skam": 4596,
      "priori": 4597,
      "##enh": 4598,
      "##kelse": 4599,
      "demokra": 4600,
      "##rit": 4601,
      "##su": 4602,
      "##hjel": 4603,
      "overbe": 4604,
      "hænger": 4605,
      "kontrakt": 4606,
      "sørg": 4607,
      "casin": 4608,
      "tå": 4609,
      "kredit": 4610,
      "ekskl": 4611,
      "ill": 4612,
      "##ykket": 4613,
      "præm": 4614,
      "pga": 4615,
      "sub": 4616,
      "danskere": 4617,
      "##arder": 4618,
      "##ni": 4619,
      "systemet": 4620,
      "sags": 4621,
      "mulig": 4622,
      "##atiske": 4623,
      "ligeg": 4624,
      "direktør": 4625,
      "sår": 4626,
      "29": 4627,
      "hurtigere": 4628,
      "##aktivitet": 4629,
      "free": 4630,
      "ep": 4631,
      "##peg": 4632,
      "##rækning": 4633,
      "lam": 4634,
      "forsøge": 4635,
      "favor": 4636,
      "dybt": 4637,
      "link": 4638,
      "##lands": 4639,
      "##elighed": 4640,
      "##ometer": 4641,
      "abon": 4642,
      "emner": 4643,
      "anders": 4644,
      "##hi": 4645,
      "##aard": 4646,
      "afsted": 4647,
      "forlæng": 4648,
      "eventyr": 4649,
      "ker": 4650,
      "afstand": 4651,
      "##hl": 4652,
      "##ec": 4653,
      "##ump": 4654,
      "##drer": 4655,
      "##ign": 4656,
      "fler": 4657,
      "umu": 4658,
      "ordre": 4659,
      "##oplev": 4660,
      "grav": 4661,
      "roligt": 4662,
      "diverse": 4663,
      "middag": 4664,
      "heraf": 4665,
      "sprøj": 4666,
      "redu": 4667,
      "##aser": 4668,
      "5,": 4669,
      "eksp": 4670,
      "ledige": 4671,
      "oplevet": 4672,
      "udvikler": 4673,
      "##kun": 4674,
      "##ition": 4675,
      "pc": 4676,
      "solen": 4677,
      "##olu": 4678,
      "chokolade": 4679,
      "chance": 4680,
      "forebyg": 4681,
      "##bane": 4682,
      "##sing": 4683,
      "##ussion": 4684,
      "aftenen": 4685,
      "##piger": 4686,
      "undersøge": 4687,
      "##ham": 4688,
      "eksempler": 4689,
      "seri": 4690,
      "normal": 4691,
      "stjer": 4692,
      "mængde": 4693,
      "medvir": 4694,
      "administration": 4695,
      "##smu": 4696,
      "jur": 4697,
      "##ball": 4698,
      "slog": 4699,
      "presse": 4700,
      "tema": 4701,
      "pornof": 4702,
      "statis": 4703,
      "elementer": 4704,
      "##nævnte": 4705,
      "vaske": 4706,
      "##smål": 4707,
      "begyndelsen": 4708,
      "klog": 4709,
      "ansøgning": 4710,
      "sættes": 4711,
      "sus": 4712,
      "nyheder": 4713,
      "hensigt": 4714,
      "købte": 4715,
      "gev": 4716,
      "landets": 4717,
      "##tor": 4718,
      "##klare": 4719,
      "fyld": 4720,
      "vender": 4721,
      "##tilbud": 4722,
      "fisker": 4723,
      "opst": 4724,
      "martin": 4725,
      "slutningen": 4726,
      "##laget": 4727,
      "##kaldt": 4728,
      "metoder": 4729,
      "endte": 4730,
      "udbet": 4731,
      "konf": 4732,
      "konkl": 4733,
      "##kens": 4734,
      "##inden": 4735,
      "vises": 4736,
      "dertil": 4737,
      "udlandet": 4738,
      "##tider": 4739,
      "stål": 4740,
      "kilde": 4741,
      "bede": 4742,
      "##stensen": 4743,
      "##able": 4744,
      "placering": 4745,
      "install": 4746,
      "foretage": 4747,
      "stemmer": 4748,
      "udfor": 4749,
      "grader": 4750,
      "nærheden": 4751,
      "##sej": 4752,
      "kommunens": 4753,
      "grunden": 4754,
      "stop": 4755,
      "##tur": 4756,
      "##ror": 4757,
      "afhængig": 4758,
      "downlo": 4759,
      "cam": 4760,
      "optaget": 4761,
      "##vidt": 4762,
      "pres": 4763,
      "ov": 4764,
      "cafe": 4765,
      "##stoffer": 4766,
      "klassiske": 4767,
      "konstater": 4768,
      "##sætter": 4769,
      "metode": 4770,
      "sørger": 4771,
      "bliv": 4772,
      "bunden": 4773,
      "util": 4774,
      "##institu": 4775,
      "anbefal": 4776,
      "##isen": 4777,
      "frygt": 4778,
      "respekt": 4779,
      "renover": 4780,
      "guds": 4781,
      "samtale": 4782,
      "hyggeligt": 4783,
      "##ara": 4784,
      "afl": 4785,
      "handel": 4786,
      "##sprog": 4787,
      "##ytning": 4788,
      "##ionen": 4789,
      "fulde": 4790,
      "lun": 4791,
      "3-": 4792,
      "tænk": 4793,
      "sejl": 4794,
      "krimin": 4795,
      "##skriv": 4796,
      "regeringen": 4797,
      "skuesp": 4798,
      "##sene": 4799,
      "vivan": 4800,
      "##ikkerhed": 4801,
      "kandid": 4802,
      "øjeblikket": 4803,
      ">": 4804,
      "##sc": 4805,
      "digitale": 4806,
      "positiv": 4807,
      "omstæn": 4808,
      ":)": 4809,
      "beliggende": 4810,
      "museum": 4811,
      "cirka": 4812,
      "kendskab": 4813,
      "milit": 4814,
      "##vinder": 4815,
      "dagligt": 4816,
      "##ygdom": 4817,
      "akti": 4818,
      "vivanza": 4819,
      "yderst": 4820,
      "graviditet": 4821,
      "##læge": 4822,
      "##midler": 4823,
      "viborg": 4824,
      "praktiske": 4825,
      "varen": 4826,
      "erik": 4827,
      "##anal": 4828,
      "flygt": 4829,
      "vedkommende": 4830,
      "##aterne": 4831,
      "##inget": 4832,
      "sædvan": 4833,
      "mester": 4834,
      "kamera": 4835,
      "grænser": 4836,
      "repar": 4837,
      "frivillige": 4838,
      "##vent": 4839,
      "livs": 4840,
      "dyn": 4841,
      "vold": 4842,
      "love": 4843,
      "målet": 4844,
      "tiltag": 4845,
      "##opgaver": 4846,
      "##jekter": 4847,
      "drejer": 4848,
      "##lov": 4849,
      "##gård": 4850,
      "##ftigt": 4851,
      "uen": 4852,
      "##bord": 4853,
      "pænt": 4854,
      "##nis": 4855,
      "konkurrence": 4856,
      "##tidens": 4857,
      "fransk": 4858,
      "##møde": 4859,
      "handic": 4860,
      "total": 4861,
      "udføre": 4862,
      "vester": 4863,
      "erkl": 4864,
      "lufthavn": 4865,
      "søster": 4866,
      "rene": 4867,
      "ejendommen": 4868,
      "##stande": 4869,
      "##seende": 4870,
      "fotograf": 4871,
      "anledning": 4872,
      "bestyrelses": 4873,
      "skad": 4874,
      "##bur": 4875,
      "##igtet": 4876,
      "##alp": 4877,
      "kræfter": 4878,
      "teknologi": 4879,
      "svend": 4880,
      "mikro": 4881,
      "nyder": 4882,
      "##otte": 4883,
      "undervisningen": 4884,
      "foretages": 4885,
      "forbruger": 4886,
      "nåede": 4887,
      "lyn": 4888,
      "##asker": 4889,
      "advokat": 4890,
      "##kraft": 4891,
      "##dik": 4892,
      "venligst": 4893,
      "##melige": 4894,
      "2009": 4895,
      "huse": 4896,
      "helbred": 4897,
      "jesus": 4898,
      "såkaldte": 4899,
      "##ze": 4900,
      "hån": 4901,
      "##mper": 4902,
      "500": 4903,
      "klage": 4904,
      "rengøring": 4905,
      "##sorg": 4906,
      "navne": 4907,
      "##hvor": 4908,
      "##avet": 4909,
      "les": 4910,
      "beskrevet": 4911,
      "##spørg": 4912,
      "skoler": 4913,
      "##forbrug": 4914,
      "gas": 4915,
      "sho": 4916,
      "bre": 4917,
      "publikum": 4918,
      "ægtesk": 4919,
      "##iserede": 4920,
      "langsomt": 4921,
      "brøn": 4922,
      "listen": 4923,
      "yngre": 4924,
      "##ley": 4925,
      "overveje": 4926,
      "øjen": 4927,
      "ressourcer": 4928,
      "selskabet": 4929,
      "##gørelsen": 4930,
      "##steder": 4931,
      "brænd": 4932,
      "oph": 4933,
      "byer": 4934,
      "##finder": 4935,
      "boliger": 4936,
      "tilbe": 4937,
      "boede": 4938,
      "##vendt": 4939,
      "##bal": 4940,
      "sørge": 4941,
      "##regn": 4942,
      "æb": 4943,
      "serie": 4944,
      "udstyret": 4945,
      "slået": 4946,
      "nyeste": 4947,
      "forsigtig": 4948,
      "sjove": 4949,
      "udk": 4950,
      "kog": 4951,
      "fabrik": 4952,
      "sem": 4953,
      "##mus": 4954,
      "##fart": 4955,
      "##ari": 4956,
      "behandlingen": 4957,
      "planter": 4958,
      "tilbehør": 4959,
      "omfattende": 4960,
      "otte": 4961,
      "udendørs": 4962,
      "enige": 4963,
      "##hul": 4964,
      "planer": 4965,
      "euro": 4966,
      "korte": 4967,
      "##øft": 4968,
      "udfordring": 4969,
      "minder": 4970,
      "stats": 4971,
      "butikker": 4972,
      "udbud": 4973,
      "##tiser": 4974,
      "##æle": 4975,
      "forretning": 4976,
      "##vind": 4977,
      "udskift": 4978,
      "hø": 4979,
      "vit": 4980,
      "emne": 4981,
      "soft": 4982,
      "tilladelse": 4983,
      "##edrag": 4984,
      "hverdagen": 4985,
      "opgaven": 4986,
      "##ides": 4987,
      "nævnte": 4988,
      "ga": 4989,
      "sendes": 4990,
      "##yp": 4991,
      "194": 4992,
      "johan": 4993,
      "tæl": 4994,
      "enorm": 4995,
      "##nement": 4996,
      "bra": 4997,
      "rart": 4998,
      "familier": 4999,
      "ip": 5000,
      "##agende": 5001,
      "##æs": 5002,
      "##tallet": 5003,
      "pornofilm": 5004,
      "adfærd": 5005,
      "##aften": 5006,
      "##istiske": 5007,
      "mennesket": 5008,
      "herre": 5009,
      "amb": 5010,
      "extra": 5011,
      "nik": 5012,
      "symptomer": 5013,
      "fing": 5014,
      "særdeles": 5015,
      "sens": 5016,
      "##ones": 5017,
      "udføres": 5018,
      "mur": 5019,
      "tusind": 5020,
      "forklarer": 5021,
      "kvalitets": 5022,
      "##tekn": 5023,
      "##itu": 5024,
      "##shop": 5025,
      "arbejdsmiljø": 5026,
      "##gl": 5027,
      "##indt": 5028,
      "vejled": 5029,
      "anne": 5030,
      "veje": 5031,
      "##har": 5032,
      "##omen": 5033,
      "anvendt": 5034,
      "nordjylland": 5035,
      "##værelset": 5036,
      "##utte": 5037,
      "overskud": 5038,
      "mødte": 5039,
      "##utere": 5040,
      "##ærke": 5041,
      "vidunder": 5042,
      "ri": 5043,
      "fokuser": 5044,
      "##ativer": 5045,
      "##blemer": 5046,
      "kørt": 5047,
      "##mentere": 5048,
      "##sd": 5049,
      "##kir": 5050,
      "##mos": 5051,
      "oprette": 5052,
      "smerte": 5053,
      "ån": 5054,
      "##ovre": 5055,
      "mente": 5056,
      "##stalt": 5057,
      "##verden": 5058,
      "dokumentation": 5059,
      "##mindre": 5060,
      "forventer": 5061,
      "##bh": 5062,
      "heste": 5063,
      "opdateret": 5064,
      "##isse": 5065,
      "##sken": 5066,
      "smør": 5067,
      "isoler": 5068,
      "døds": 5069,
      "professionel": 5070,
      "producer": 5071,
      "##rel": 5072,
      "falde": 5073,
      "stue": 5074,
      "tol": 5075,
      "konto": 5076,
      "##urs": 5077,
      "rod": 5078,
      "##ansvar": 5079,
      "196": 5080,
      ":-)": 5081,
      "geb": 5082,
      "##produ": 5083,
      "sky": 5084,
      "##ax": 5085,
      "kryds": 5086,
      "##foreningen": 5087,
      "##jent": 5088,
      "nærmeste": 5089,
      "udløb": 5090,
      "ramt": 5091,
      "##plig": 5092,
      "udvalgte": 5093,
      "##materi": 5094,
      "gennemgå": 5095,
      "aftaler": 5096,
      "udbred": 5097,
      "erotisk": 5098,
      "utroligt": 5099,
      "##idet": 5100,
      "##deret": 5101,
      "informationer": 5102,
      "plat": 5103,
      "hjemmet": 5104,
      "##pot": 5105,
      "foråret": 5106,
      "##yttede": 5107,
      "folkesk": 5108,
      "intens": 5109,
      "##ela": 5110,
      "beskriver": 5111,
      "afhænger": 5112,
      "##yske": 5113,
      "tyr": 5114,
      "driv": 5115,
      "flygtning": 5116,
      "##famil": 5117,
      "od": 5118,
      "##jening": 5119,
      "!": 5120,
      "suppler": 5121,
      "##,<<": 5122,
      "hvorvidt": 5123,
      "udfyl": 5124,
      "book": 5125,
      "bidrage": 5126,
      "up": 5127,
      "efteråret": 5128,
      "##slen": 5129,
      "legetøj": 5130,
      "aktive": 5131,
      "rettigheder": 5132,
      "prote": 5133,
      "##gange": 5134,
      "born": 5135,
      "kirken": 5136,
      "##skort": 5137,
      "##begyn": 5138,
      "festiv": 5139,
      "##sko": 5140,
      "bevægelse": 5141,
      "fit": 5142,
      "##press": 5143,
      "metal": 5144,
      "##sels": 5145,
      "##løsning": 5146,
      "##handler": 5147,
      "hader": 5148,
      "##asset": 5149,
      "samarbejdet": 5150,
      "##bert": 5151,
      "medarbejderne": 5152,
      "solgt": 5153,
      "##aftale": 5154,
      "forvejen": 5155,
      "silkeborg": 5156,
      "##pperne": 5157,
      "##ligheden": 5158,
      "central": 5159,
      "forsik": 5160,
      "kvart": 5161,
      "##urdere": 5162,
      "bøn": 5163,
      "##ana": 5164,
      "##pet": 5165,
      "links": 5166,
      "smerter": 5167,
      "dame": 5168,
      "landsby": 5169,
      "rabat": 5170,
      "professionelle": 5171,
      "lab": 5172,
      "omgivelser": 5173,
      "generelle": 5174,
      "##ube": 5175,
      "##alerne": 5176,
      "##mt": 5177,
      "engel": 5178,
      "lou": 5179,
      "##sag": 5180,
      "##klen": 5181,
      "offici": 5182,
      "##ferie": 5183,
      "32": 5184,
      "åh": 5185,
      "##struktur": 5186,
      "specifik": 5187,
      "kvaliteten": 5188,
      "gruppen": 5189,
      "perspek": 5190,
      "ki": 5191,
      "skønt": 5192,
      "æld": 5193,
      "naturlig": 5194,
      "##bøger": 5195,
      "kapital": 5196,
      "##ume": 5197,
      "produktet": 5198,
      "henholdsvis": 5199,
      "imøde": 5200,
      "hemmelig": 5201,
      "teater": 5202,
      "bror": 5203,
      "programmer": 5204,
      "date": 5205,
      "vinduer": 5206,
      "støt": 5207,
      "præsident": 5208,
      "##smæssigt": 5209,
      "levere": 5210,
      "færre": 5211,
      "show": 5212,
      "mini": 5213,
      "rund": 5214,
      "centrale": 5215,
      "banen": 5216,
      "indstil": 5217,
      "kampe": 5218,
      "leverer": 5219,
      "bos": 5220,
      "besluttet": 5221,
      "enheder": 5222,
      "##tale": 5223,
      "##ammen": 5224,
      "talte": 5225,
      "##vogn": 5226,
      "attrak": 5227,
      "##ektor": 5228,
      "blik": 5229,
      "horsens": 5230,
      "diskussion": 5231,
      "just": 5232,
      "indtryk": 5233,
      "forretnings": 5234,
      "russ": 5235,
      "baggr": 5236,
      "konge": 5237,
      "samle": 5238,
      "stj": 5239,
      "cer": 5240,
      "press": 5241,
      "##tage": 5242,
      "##alder": 5243,
      "halvdelen": 5244,
      "lom": 5245,
      "bryllup": 5246,
      "finger": 5247,
      "##my": 5248,
      "hest": 5249,
      "indik": 5250,
      "retter": 5251,
      "##ernes": 5252,
      "##//": 5253,
      "alternativ": 5254,
      "imple": 5255,
      "international": 5256,
      "konsekvenser": 5257,
      "tyk": 5258,
      "begr": 5259,
      "tår": 5260,
      "fylder": 5261,
      "##mann": 5262,
      "##aut": 5263,
      "unikke": 5264,
      "virksomhedens": 5265,
      "##retning": 5266,
      "teknisk": 5267,
      "undersøgelsen": 5268,
      "styre": 5269,
      "fortalt": 5270,
      "våg": 5271,
      "##ony": 5272,
      "golf": 5273,
      "sven": 5274,
      "bevar": 5275,
      "##hvert": 5276,
      "pi": 5277,
      "##adr": 5278,
      "##sch": 5279,
      "##enske": 5280,
      "##eskab": 5281,
      "sms": 5282,
      "betalt": 5283,
      "garan": 5284,
      "##enden": 5285,
      "##fuldt": 5286,
      "tydelig": 5287,
      "frankrig": 5288,
      "fir": 5289,
      "frihed": 5290,
      "århund": 5291,
      "##hop": 5292,
      "finansi": 5293,
      "dækket": 5294,
      "xx": 5295,
      "gyl": 5296,
      "lykke": 5297,
      "motiv": 5298,
      "opskrifter": 5299,
      "##bum": 5300,
      "æ": 5301,
      "##side": 5302,
      "ekstrem": 5303,
      "sælges": 5304,
      "##iets": 5305,
      "sygdomme": 5306,
      "##kendelse": 5307,
      "kommunale": 5308,
      "tips": 5309,
      "følte": 5310,
      "tilgængelige": 5311,
      "plejer": 5312,
      "tidlig": 5313,
      "##haver": 5314,
      "hygge": 5315,
      "ii": 5316,
      "fader": 5317,
      "købes": 5318,
      "##olie": 5319,
      "skr": 5320,
      "36": 5321,
      "vagt": 5322,
      "##maskine": 5323,
      "jak": 5324,
      "nationale": 5325,
      "forældrene": 5326,
      "##ktiv": 5327,
      "2008": 5328,
      "##00-": 5329,
      "processen": 5330,
      "deltagere": 5331,
      "##ep": 5332,
      "kontant": 5333,
      "##fi": 5334,
      "refer": 5335,
      "svare": 5336,
      "##bånd": 5337,
      "##elen": 5338,
      "diagn": 5339,
      "##ior": 5340,
      "følelse": 5341,
      "kus": 5342,
      "kyl": 5343,
      "##stør": 5344,
      "inkluder": 5345,
      "duft": 5346,
      "spej": 5347,
      "##manden": 5348,
      "ryggen": 5349,
      "ordet": 5350,
      "6,": 5351,
      "klager": 5352,
      "##?\"": 5353,
      "køkkenet": 5354,
      "opfattelse": 5355,
      "tilhør": 5356,
      "hyggelig": 5357,
      "##bygning": 5358,
      "midten": 5359,
      "uk": 5360,
      "terras": 5361,
      "##ækken": 5362,
      "you": 5363,
      "jacob": 5364,
      "årligt": 5365,
      "bef": 5366,
      "kære": 5367,
      "lyset": 5368,
      "##-0": 5369,
      "hænge": 5370,
      "erotiske": 5371,
      "oprindelige": 5372,
      "##minister": 5373,
      "billigt": 5374,
      "##møl": 5375,
      "angreb": 5376,
      "##bring": 5377,
      "bagefter": 5378,
      "wil": 5379,
      "dim": 5380,
      "##12": 5381,
      "gebyr": 5382,
      "udsat": 5383,
      "deb": 5384,
      "ungdoms": 5385,
      "##strøm": 5386,
      "poul": 5387,
      "længde": 5388,
      "sla": 5389,
      "samtlige": 5390,
      "##ætninger": 5391,
      "##igh": 5392,
      "deltagelse": 5393,
      "evne": 5394,
      "mode": 5395,
      "##skont": 5396,
      "kontroller": 5397,
      "##kere": 5398,
      "uddannelsen": 5399,
      "medmindre": 5400,
      "litteratur": 5401,
      "samling": 5402,
      "bordet": 5403,
      "11.": 5404,
      "tilfældet": 5405,
      "##ændene": 5406,
      "beder": 5407,
      "##slev": 5408,
      "##lagte": 5409,
      "situationer": 5410,
      "tilret": 5411,
      "luks": 5412,
      "fremmest": 5413,
      "##ømte": 5414,
      "##igen": 5415,
      "tyn": 5416,
      "##førsel": 5417,
      "effektivt": 5418,
      "orgas": 5419,
      "positive": 5420,
      "bøs": 5421,
      "lægges": 5422,
      "ydelser": 5423,
      "##stændigt": 5424,
      "egenskaber": 5425,
      "søges": 5426,
      "##80": 5427,
      "lært": 5428,
      "sold": 5429,
      "brow": 5430,
      "afholdt": 5431,
      "balance": 5432,
      "##lægge": 5433,
      "12.": 5434,
      "kompl": 5435,
      "gulvet": 5436,
      "karriere": 5437,
      "##agten": 5438,
      "aktivt": 5439,
      "##edag": 5440,
      "ihjel": 5441,
      "##lægning": 5442,
      "munden": 5443,
      "herning": 5444,
      "strå": 5445,
      "pu": 5446,
      "##produkter": 5447,
      "pin": 5448,
      "##frit": 5449,
      "##isterne": 5450,
      "havet": 5451,
      "svin": 5452,
      "##spor": 5453,
      "finansier": 5454,
      "godkendelse": 5455,
      "hent": 5456,
      "##.,": 5457,
      "teknik": 5458,
      "spred": 5459,
      "beliggen": 5460,
      "300": 5461,
      "artikler": 5462,
      "fris": 5463,
      "##fot": 5464,
      "##sproces": 5465,
      "fødevarer": 5466,
      "##acitet": 5467,
      "snakker": 5468,
      "passende": 5469,
      "sports": 5470,
      "##15": 5471,
      "kiggede": 5472,
      "##lager": 5473,
      "##økonom": 5474,
      "relation": 5475,
      "registreret": 5476,
      "##butik": 5477,
      "gennemføre": 5478,
      "vurdere": 5479,
      "##ower": 5480,
      "lavt": 5481,
      "##ference": 5482,
      "kraftig": 5483,
      "##bus": 5484,
      "komplet": 5485,
      "hjertet": 5486,
      "##rom": 5487,
      "hospital": 5488,
      "##åden": 5489,
      "fås": 5490,
      "arrangementer": 5491,
      "nys": 5492,
      "bringe": 5493,
      "parter": 5494,
      "##firma": 5495,
      "svaret": 5496,
      "##standen": 5497,
      "kommentarer": 5498,
      "lægen": 5499,
      "##dret": 5500,
      "##synet": 5501,
      "##iliteter": 5502,
      "##uktion": 5503,
      "nået": 5504,
      "15.": 5505,
      "##efoner": 5506,
      "htt": 5507,
      "beskytte": 5508,
      "forbe": 5509,
      "##://": 5510,
      "angår": 5511,
      "fornøjelse": 5512,
      "##fære": 5513,
      "motiver": 5514,
      "ledere": 5515,
      "##valitet": 5516,
      "##rejse": 5517,
      "kurser": 5518,
      "sandt": 5519,
      "nødvendigvis": 5520,
      "hoteller": 5521,
      "gangen": 5522,
      "##model": 5523,
      "faldet": 5524,
      "virkning": 5525,
      "thor": 5526,
      "intim": 5527,
      "rolig": 5528,
      "tilføj": 5529,
      "##lægges": 5530,
      "##onning": 5531,
      "##oter": 5532,
      "anmeldelser": 5533,
      "forbl": 5534,
      "spillede": 5535,
      "levet": 5536,
      "motion": 5537,
      "dårlige": 5538,
      "<<": 5539,
      "kilometer": 5540,
      "fremstillet": 5541,
      "dj": 5542,
      "håndtere": 5543,
      "##arter": 5544,
      "##yndig": 5545,
      "retningslin": 5546,
      "udlever": 5547,
      "elskede": 5548,
      "##ogen": 5549,
      "##ftige": 5550,
      "##oseks": 5551,
      "ændres": 5552,
      "serien": 5553,
      "kalde": 5554,
      "##enhagen": 5555,
      "##eng": 5556,
      "##delinger": 5557,
      "##prøve": 5558,
      "optræ": 5559,
      "dagsorden": 5560,
      "last": 5561,
      "sengen": 5562,
      "##børn": 5563,
      "besluttede": 5564,
      "##kene": 5565,
      "##mærket": 5566,
      "info": 5567,
      "trænings": 5568,
      "kines": 5569,
      "befolk": 5570,
      "mave": 5571,
      "strategi": 5572,
      "årsager": 5573,
      "##ual": 5574,
      "##jælland": 5575,
      "bidrag": 5576,
      "##politik": 5577,
      "##val": 5578,
      "bonus": 5579,
      "årsag": 5580,
      "fordelt": 5581,
      "##ace": 5582,
      "affald": 5583,
      "sølv": 5584,
      "##give": 5585,
      "##the": 5586,
      "##appen": 5587,
      "##rab": 5588,
      "brænde": 5589,
      "##jeneste": 5590,
      "fyre": 5591,
      "leveret": 5592,
      "tilgang": 5593,
      "overnat": 5594,
      "##fug": 5595,
      "casino": 5596,
      "##ystemet": 5597,
      "aftalen": 5598,
      "2007": 5599,
      "forhandling": 5600,
      "fremover": 5601,
      "##arbejder": 5602,
      "che": 5603,
      "mangel": 5604,
      "spir": 5605,
      "benytter": 5606,
      "hit": 5607,
      "læger": 5608,
      "2000": 5609,
      "cal": 5610,
      "udvalget": 5611,
      "opvar": 5612,
      "humør": 5613,
      "flyve": 5614,
      "rø": 5615,
      "cas": 5616,
      "num": 5617,
      "restauranter": 5618,
      "##att": 5619,
      "illust": 5620,
      "disp": 5621,
      "fryg": 5622,
      "jesper": 5623,
      "##odel": 5624,
      "bære": 5625,
      "betingelser": 5626,
      "sigt": 5627,
      "eftermiddag": 5628,
      "værre": 5629,
      "eleg": 5630,
      "##holdning": 5631,
      "enig": 5632,
      "##con": 5633,
      "kammer": 5634,
      "tanken": 5635,
      "##ømmer": 5636,
      "stolt": 5637,
      "##fyld": 5638,
      "kyst": 5639,
      "forr": 5640,
      "fungere": 5641,
      "dygtige": 5642,
      "radio": 5643,
      "markant": 5644,
      "basis": 5645,
      "maven": 5646,
      "ubeh": 5647,
      "bibliote": 5648,
      "ambi": 5649,
      "møbler": 5650,
      "tillid": 5651,
      "forestilling": 5652,
      "##cere": 5653,
      "##bid": 5654,
      "lede": 5655,
      "##eld": 5656,
      "døgn": 5657,
      "fiske": 5658,
      "##usive": 5659,
      "telefonen": 5660,
      "friske": 5661,
      "lil": 5662,
      "mængder": 5663,
      "bornholm": 5664,
      "traditionelle": 5665,
      "forventninger": 5666,
      "myndigheder": 5667,
      "matem": 5668,
      "norge": 5669,
      "lovgivning": 5670,
      "nords": 5671,
      "risikoen": 5672,
      "ægteskab": 5673,
      "##ars": 5674,
      "indsigt": 5675,
      "75": 5676,
      "##ese": 5677,
      "##celler": 5678,
      "klikke": 5679,
      "videreg": 5680,
      "31": 5681,
      "præsent": 5682,
      "ventet": 5683,
      "ændrer": 5684,
      "udgiv": 5685,
      "bryg": 5686,
      "##hvad": 5687,
      "almindeligt": 5688,
      "kant": 5689,
      "##pleje": 5690,
      "billederne": 5691,
      "myndighed": 5692,
      "plas": 5693,
      "##ådet": 5694,
      "isra": 5695,
      "bøl": 5696,
      "##99": 5697,
      "kaldet": 5698,
      "station": 5699,
      "hæng": 5700,
      "luften": 5701,
      "##ødte": 5702,
      "afrik": 5703,
      "kim": 5704,
      "trænger": 5705,
      "100%": 5706,
      "##mæssig": 5707,
      "##papir": 5708,
      "hard": 5709,
      "vokser": 5710,
      "imens": 5711,
      "##agement": 5712,
      "tunge": 5713,
      "##bestyrelsen": 5714,
      "luder": 5715,
      "forbered": 5716,
      "afvik": 5717,
      "##ested": 5718,
      "afholdes": 5719,
      "borgerne": 5720,
      "##tagelse": 5721,
      "mc": 5722,
      "runde": 5723,
      "beskyttelse": 5724,
      "sekunder": 5725,
      "skærm": 5726,
      "##istisk": 5727,
      "rappor": 5728,
      "positivt": 5729,
      "oversk": 5730,
      "revision": 5731,
      "fremad": 5732,
      "bis": 5733,
      "institution": 5734,
      "franske": 5735,
      "forsy": 5736,
      "stemning": 5737,
      "bestilling": 5738,
      "lokalplan": 5739,
      "bestemmelser": 5740,
      "væsentligt": 5741,
      "juster": 5742,
      "stillet": 5743,
      "##essor": 5744,
      "nysger": 5745,
      "##sområ": 5746,
      "foredrag": 5747,
      "foresl": 5748,
      "midlertid": 5749,
      "udlej": 5750,
      "ba": 5751,
      "udbyder": 5752,
      "##kap": 5753,
      "iphone": 5754,
      "sofa": 5755,
      "imponer": 5756,
      "anmod": 5757,
      "kombination": 5758,
      "befinder": 5759,
      "##falds": 5760,
      "33": 5761,
      "sim": 5762,
      "straff": 5763,
      "kritik": 5764,
      "body": 5765,
      "##videnskab": 5766,
      "klarer": 5767,
      "##ming": 5768,
      "hjemmel": 5769,
      "tilrettel": 5770,
      "spring": 5771,
      "kaff": 5772,
      "##ld": 5773,
      "ap": 5774,
      "bløde": 5775,
      "copenhagen": 5776,
      "sygeplejer": 5777,
      "##oni": 5778,
      "institutioner": 5779,
      "dygtig": 5780,
      "##uft": 5781,
      "arti": 5782,
      "loven": 5783,
      "uddannelser": 5784,
      "##haven": 5785,
      "kommunerne": 5786,
      "##agram": 5787,
      "deler": 5788,
      "hvoraf": 5789,
      "benyttes": 5790,
      "udseende": 5791,
      "skolens": 5792,
      "ånd": 5793,
      "landskab": 5794,
      "##service": 5795,
      "halvt": 5796,
      "skoven": 5797,
      "##df": 5798,
      "datab": 5799,
      "svenske": 5800,
      "##mning": 5801,
      "morten": 5802,
      "##ica": 5803,
      "blæ": 5804,
      "##aten": 5805,
      "identific": 5806,
      "##dning": 5807,
      "kris": 5808,
      "vurderer": 5809,
      "besøger": 5810,
      "send": 5811,
      "dollar": 5812,
      "##system": 5813,
      "ringer": 5814,
      "gum": 5815,
      "##sloven": 5816,
      "frø": 5817,
      "##fikke": 5818,
      "strik": 5819,
      "linje": 5820,
      "etableret": 5821,
      "nøjag": 5822,
      "prøvede": 5823,
      "pedersen": 5824,
      "indled": 5825,
      "klassisk": 5826,
      "ingred": 5827,
      "berør": 5828,
      "gaden": 5829,
      "##risk": 5830,
      "kok": 5831,
      "##esel": 5832,
      "ole": 5833,
      "fleksib": 5834,
      "##bruget": 5835,
      "ideen": 5836,
      "forvalt": 5837,
      "##forsikring": 5838,
      "afd": 5839,
      "nyhedsb": 5840,
      "##ærker": 5841,
      "bygnings": 5842,
      "span": 5843,
      "##sprogram": 5844,
      "dages": 5845,
      "respek": 5846,
      "kategori": 5847,
      "danne": 5848,
      "bob": 5849,
      "grønts": 5850,
      "omsorg": 5851,
      "organisationer": 5852,
      "sommerhus": 5853,
      "årene": 5854,
      "omstændigheder": 5855,
      "beslutninger": 5856,
      "##hvis": 5857,
      "kompetence": 5858,
      "mic": 5859,
      "##70": 5860,
      "##cre": 5861,
      "##udgifter": 5862,
      "forklare": 5863,
      "svag": 5864,
      "ovenstående": 5865,
      "##enskom": 5866,
      "skub": 5867,
      "hypp": 5868,
      "13.": 5869,
      "spænd": 5870,
      "##vo": 5871,
      "pyn": 5872,
      "uddannet": 5873,
      "7,": 5874,
      "larsen": 5875,
      "statistik": 5876,
      "lukke": 5877,
      "##25": 5878,
      "overalt": 5879,
      "forholdet": 5880,
      "hæl": 5881,
      "dokumenter": 5882,
      "##vises": 5883,
      "kbh": 5884,
      "##ivt": 5885,
      "gavn": 5886,
      "##sid": 5887,
      "bogst": 5888,
      "forår": 5889,
      "##ifik": 5890,
      "værste": 5891,
      "analyser": 5892,
      "multi": 5893,
      "deltagerne": 5894,
      "##ppens": 5895,
      "jub": 5896,
      "indeb": 5897,
      "laves": 5898,
      "mac": 5899,
      "overflade": 5900,
      "mission": 5901,
      "forny": 5902,
      "historiske": 5903,
      "samtidigt": 5904,
      "pigerne": 5905,
      "oblig": 5906,
      "##skraft": 5907,
      "årlige": 5908,
      "##lund": 5909,
      "bekendtgørelse": 5910,
      "befol": 5911,
      "black": 5912,
      "ældste": 5913,
      "udenlandske": 5914,
      "nøgle": 5915,
      "##kket": 5916,
      "handels": 5917,
      "rådgiver": 5918,
      "lond": 5919,
      "##ili": 5920,
      "##server": 5921,
      "lette": 5922,
      "ønsket": 5923,
      "##jern": 5924,
      "##itt": 5925,
      "yde": 5926,
      "##handel": 5927,
      "anvender": 5928,
      "tilgængelig": 5929,
      "kvinden": 5930,
      "position": 5931,
      "plant": 5932,
      "##vægt": 5933,
      "14.": 5934,
      "havn": 5935,
      "##lene": 5936,
      "højst": 5937,
      "sammenh": 5938,
      "##sret": 5939,
      "##ktor": 5940,
      "stopper": 5941,
      "##bevæg": 5942,
      "barnets": 5943,
      "kørsel": 5944,
      "fritids": 5945,
      "arranger": 5946,
      "##aliseret": 5947,
      "marie": 5948,
      "##hjul": 5949,
      "##11": 5950,
      "webs": 5951,
      "beskæftigelses": 5952,
      "travlt": 5953,
      "##følg": 5954,
      "##45": 5955,
      "fuck": 5956,
      "##adem": 5957,
      "##ræning": 5958,
      "skifter": 5959,
      "##væsen": 5960,
      "paris": 5961,
      "civ": 5962,
      "foreløb": 5963,
      "værelset": 5964,
      "værker": 5965,
      "tjener": 5966,
      "##nr": 5967,
      "besvær": 5968,
      "##ordningen": 5969,
      "frist": 5970,
      "ke": 5971,
      "farvel": 5972,
      "sof": 5973,
      "dans": 5974,
      "##proces": 5975,
      "big": 5976,
      "hunden": 5977,
      "relativt": 5978,
      "mun": 5979,
      "holdes": 5980,
      "påvirker": 5981,
      "behandlet": 5982,
      "gider": 5983,
      "umuligt": 5984,
      "def": 5985,
      "sejr": 5986,
      "stole": 5987,
      "##yttelses": 5988,
      "##hånd": 5989,
      "oprettet": 5990,
      "idag": 5991,
      "planlægning": 5992,
      "varier": 5993,
      "redeg": 5994,
      "sgu": 5995,
      "fortr": 5996,
      "behandles": 5997,
      "himmel": 5998,
      "størrelser": 5999,
      "lug": 6000,
      "gn": 6001,
      "islam": 6002,
      "stede": 6003,
      "yog": 6004,
      "seksuelle": 6005,
      "au": 6006,
      "skel": 6007,
      "cla": 6008,
      "socialt": 6009,
      "fremtidige": 6010,
      "frig": 6011,
      "regne": 6012,
      "##oss": 6013,
      "indr": 6014,
      "genbrug": 6015,
      "alvorligt": 6016,
      "klæ": 6017,
      "##ows": 6018,
      "færdige": 6019,
      "christ": 6020,
      "adskillige": 6021,
      "##greb": 6022,
      "##yper": 6023,
      "bekæmp": 6024,
      "resul": 6025,
      "slap": 6026,
      "charl": 6027,
      "##arte": 6028,
      "195": 6029,
      "tha": 6030,
      "##kat": 6031,
      "individuelle": 6032,
      "##bøl": 6033,
      "england": 6034,
      "medfører": 6035,
      "##forsy": 6036,
      "##kant": 6037,
      "valget": 6038,
      "##skat": 6039,
      "##tiget": 6040,
      "stim": 6041,
      "##sæ": 6042,
      "pause": 6043,
      "homoseks": 6044,
      "snar": 6045,
      "##øsning": 6046,
      "##ejer": 6047,
      "mette": 6048,
      "investering": 6049,
      "tw": 6050,
      "hænderne": 6051,
      "afslutning": 6052,
      "##agerer": 6053,
      "##eske": 6054,
      "foruren": 6055,
      "dynam": 6056,
      "##enting": 6057,
      "tendens": 6058,
      "hermed": 6059,
      "overordnede": 6060,
      "##centret": 6061,
      "##lic": 6062,
      "tilbag": 6063,
      "pårørende": 6064,
      "##ænke": 6065,
      "mek": 6066,
      "gir": 6067,
      "lyse": 6068,
      "##meter": 6069,
      "##relse": 6070,
      "##rens": 6071,
      "##tiet": 6072,
      "##duktion": 6073,
      "dkk": 6074,
      "##alistisk": 6075,
      "hårde": 6076,
      "ledelses": 6077,
      "gade": 6078,
      "nabo": 6079,
      "##forslag": 6080,
      "slippe": 6081,
      "åbnings": 6082,
      "lyng": 6083,
      "glemt": 6084,
      "##industri": 6085,
      "oplæg": 6086,
      "##ox": 6087,
      "opkræ": 6088,
      "##formen": 6089,
      "##egår": 6090,
      "##asen": 6091,
      "kald": 6092,
      "##aren": 6093,
      "sendte": 6094,
      "leveres": 6095,
      "ryd": 6096,
      "york": 6097,
      "vedligeholdelse": 6098,
      "erstatning": 6099,
      "##smuligheder": 6100,
      "handicap": 6101,
      "mister": 6102,
      "indgået": 6103,
      "areal": 6104,
      "gaver": 6105,
      "tilpas": 6106,
      "##ærket": 6107,
      "skål": 6108,
      "favorit": 6109,
      "hd": 6110,
      "##ræts": 6111,
      "rummet": 6112,
      "kasser": 6113,
      "##oth": 6114,
      "væsentlige": 6115,
      "forstyr": 6116,
      "flyttet": 6117,
      "##way": 6118,
      "græs": 6119,
      "##modt": 6120,
      "bygningen": 6121,
      "felt": 6122,
      "formanden": 6123,
      "modst": 6124,
      "##varter": 6125,
      "##itz": 6126,
      "tegne": 6127,
      "kage": 6128,
      "bebyg": 6129,
      "##bogen": 6130,
      "forum": 6131,
      "held": 6132,
      "veninde": 6133,
      "irri": 6134,
      "##okker": 6135,
      "lis": 6136,
      "foreningens": 6137,
      "pet": 6138,
      "måle": 6139,
      "forskellig": 6140,
      "lærere": 6141,
      "kunderne": 6142,
      "integration": 6143,
      "helsing": 6144,
      "blow": 6145,
      "##læn": 6146,
      "##ineret": 6147,
      "jack": 6148,
      "rens": 6149,
      "london": 6150,
      "tilstede": 6151,
      "certi": 6152,
      "knæ": 6153,
      "stammer": 6154,
      "piz": 6155,
      "planlagt": 6156,
      "øverste": 6157,
      "##ting": 6158,
      "##komp": 6159,
      "koldt": 6160,
      "island": 6161,
      "##oper": 6162,
      "træer": 6163,
      "drama": 6164,
      "##sperio": 6165,
      "besøgende": 6166,
      "situationen": 6167,
      "##anen": 6168,
      "forelig": 6169,
      "lejligheden": 6170,
      "##demokra": 6171,
      "smager": 6172,
      "##18": 6173,
      "øger": 6174,
      "ball": 6175,
      "##ejst": 6176,
      "##tøj": 6177,
      "##eden": 6178,
      "##estående": 6179,
      "spilde": 6180,
      "tilføje": 6181,
      "##data": 6182,
      "modstand": 6183,
      "##projekt": 6184,
      "bespar": 6185,
      "##edyr": 6186,
      "spid": 6187,
      "kvalific": 6188,
      "bac": 6189,
      "atmos": 6190,
      "inspireret": 6191,
      "##skyl": 6192,
      "nic": 6193,
      "kug": 6194,
      "pus": 6195,
      "pladsen": 6196,
      "kopi": 6197,
      "værktøjer": 6198,
      "behandler": 6199,
      "##si": 6200,
      "indeholde": 6201,
      "sun": 6202,
      "forsøgte": 6203,
      "##banen": 6204,
      "##lav": 6205,
      "fugle": 6206,
      "angst": 6207,
      "##kamp": 6208,
      "træder": 6209,
      "tav": 6210,
      "lem": 6211,
      "næppe": 6212,
      "symbol": 6213,
      "20.": 6214,
      "turner": 6215,
      "vurderes": 6216,
      "skand": 6217,
      "løfte": 6218,
      "sign": 6219,
      "##issionen": 6220,
      "##angen": 6221,
      "2-": 6222,
      "plante": 6223,
      "##kasse": 6224,
      "##ino": 6225,
      "forhindr": 6226,
      "##90": 6227,
      "unik": 6228,
      "37": 6229,
      "opfylder": 6230,
      "bio": 6231,
      "##ya": 6232,
      "formentlig": 6233,
      "pladser": 6234,
      "indberet": 6235,
      "##ættes": 6236,
      "##no": 6237,
      "ansøger": 6238,
      "analy": 6239,
      "##præsent": 6240,
      "rust": 6241,
      "ventil": 6242,
      "glim": 6243,
      "christensen": 6244,
      "##sendt": 6245,
      "bærer": 6246,
      "bloggen": 6247,
      "aab": 6248,
      "vegne": 6249,
      "##stal": 6250,
      "##pren": 6251,
      "##vendte": 6252,
      "eleven": 6253,
      "mulighederne": 6254,
      "gård": 6255,
      "relationer": 6256,
      "knu": 6257,
      "forløbet": 6258,
      "gard": 6259,
      "opført": 6260,
      "samarbejdsp": 6261,
      "nedsat": 6262,
      "16.": 6263,
      "##smed": 6264,
      "brugen": 6265,
      "prem": 6266,
      "dommer": 6267,
      "##afgift": 6268,
      "##iør": 6269,
      "mobi": 6270,
      "150": 6271,
      "ingenting": 6272,
      "kru": 6273,
      "følg": 6274,
      "##direkt": 6275,
      "billigere": 6276,
      "##muligheder": 6277,
      "besvar": 6278,
      "systemer": 6279,
      "møller": 6280,
      "##rib": 6281,
      "##osof": 6282,
      "##igter": 6283,
      "##ards": 6284,
      "##stol": 6285,
      "trak": 6286,
      "badeværelse": 6287,
      "##sev": 6288,
      "##kninger": 6289,
      "vælges": 6290,
      "##olig": 6291,
      "slik": 6292,
      "træne": 6293,
      "##fyr": 6294,
      "##istens": 6295,
      "##urt": 6296,
      "##adal": 6297,
      "hidtil": 6298,
      "##keste": 6299,
      "ubehag": 6300,
      "tekster": 6301,
      "bidrager": 6302,
      "normale": 6303,
      "lytte": 6304,
      "fare": 6305,
      "hundrede": 6306,
      "fede": 6307,
      "##fisk": 6308,
      "bevil": 6309,
      "##ms": 6310,
      "grundigt": 6311,
      "beregnet": 6312,
      "psykisk": 6313,
      "drej": 6314,
      "34": 6315,
      "identitet": 6316,
      "fon": 6317,
      "foretrækker": 6318,
      "lykkes": 6319,
      "##regler": 6320,
      "kompon": 6321,
      "rid": 6322,
      "##ola": 6323,
      "##iness": 6324,
      "fængsel": 6325,
      "prim": 6326,
      "##ilde": 6327,
      "rimelig": 6328,
      "svære": 6329,
      "stiger": 6330,
      "indvend": 6331,
      "biv": 6332,
      "##telser": 6333,
      "arbejdede": 6334,
      "påbegyn": 6335,
      "##staltninger": 6336,
      "forsknings": 6337,
      "korre": 6338,
      "rasmussen": 6339,
      "##park": 6340,
      "tilladt": 6341,
      "##gøres": 6342,
      "planen": 6343,
      "##gik": 6344,
      "stået": 6345,
      "##bund": 6346,
      "bevæger": 6347,
      "##ran": 6348,
      "avan": 6349,
      "frederiksberg": 6350,
      "##edel": 6351,
      "specielle": 6352,
      "pligt": 6353,
      "præcist": 6354,
      "##!\"": 6355,
      "##værkt": 6356,
      "maria": 6357,
      "beliggenhed": 6358,
      "offentligt": 6359,
      "rettet": 6360,
      "forskelligt": 6361,
      "lak": 6362,
      "foder": 6363,
      "##bens": 6364,
      "titel": 6365,
      "initiativ": 6366,
      "befolkning": 6367,
      "paul": 6368,
      "sildenafil": 6369,
      "##umpe": 6370,
      "##cam": 6371,
      "flytter": 6372,
      "look": 6373,
      "sevær": 6374,
      "psykolog": 6375,
      "virkede": 6376,
      "##vask": 6377,
      "anmeldelse": 6378,
      "afbr": 6379,
      "##bak": 6380,
      "udkom": 6381,
      "talent": 6382,
      "installer": 6383,
      "kunnet": 6384,
      "jurid": 6385,
      "lek": 6386,
      "hob": 6387,
      "vik": 6388,
      "lind": 6389,
      "##<<.": 6390,
      "##che": 6391,
      "tje": 6392,
      "kina": 6393,
      "##anchen": 6394,
      "##ygg": 6395,
      "svarende": 6396,
      "bul": 6397,
      "stak": 6398,
      "##billeder": 6399,
      "##):": 6400,
      "tilsk": 6401,
      "mobiltel": 6402,
      "produceret": 6403,
      "åbenbart": 6404,
      "##valt": 6405,
      "##adresse": 6406,
      "18.": 6407,
      "##ænomen": 6408,
      "##ævne": 6409,
      "arkitekt": 6410,
      "dv": 6411,
      "butikken": 6412,
      "##taler": 6413,
      "lukkede": 6414,
      "weekenden": 6415,
      "luksus": 6416,
      "danner": 6417,
      "bringer": 6418,
      "måneden": 6419,
      "##riske": 6420,
      "belast": 6421,
      "##eland": 6422,
      "helvede": 6423,
      "opfylde": 6424,
      "engelske": 6425,
      "ansvaret": 6426,
      "##holdende": 6427,
      "##ulere": 6428,
      "frie": 6429,
      "sandsynligvis": 6430,
      "##skol": 6431,
      "hust": 6432,
      "problemstilling": 6433,
      "##veje": 6434,
      "diskret": 6435,
      "skema": 6436,
      "cat": 6437,
      "##sg": 6438,
      "forhåb": 6439,
      "ankl": 6440,
      "akut": 6441,
      "cro": 6442,
      "omvendt": 6443,
      "øen": 6444,
      "lejligheder": 6445,
      "indkomst": 6446,
      "skærmen": 6447,
      "mads": 6448,
      "udfl": 6449,
      "17.": 6450,
      "stigning": 6451,
      "udkig": 6452,
      "##ips": 6453,
      "fc": 6454,
      "pigen": 6455,
      "billet": 6456,
      "##tv": 6457,
      "gens": 6458,
      "tabt": 6459,
      "nar": 6460,
      "vinteren": 6461,
      "fræ": 6462,
      "hjerne": 6463,
      "parad": 6464,
      "præget": 6465,
      "jor": 6466,
      "rente": 6467,
      "slappe": 6468,
      "##entligt": 6469,
      "siges": 6470,
      "##pige": 6471,
      "kolde": 6472,
      "jon": 6473,
      "dække": 6474,
      "sekret": 6475,
      "blanding": 6476,
      "intel": 6477,
      "lat": 6478,
      "angivet": 6479,
      "##rut": 6480,
      "kendet": 6481,
      "tørre": 6482,
      "institut": 6483,
      "holdning": 6484,
      "indebærer": 6485,
      "arbejdsmarkedet": 6486,
      "19.": 6487,
      "##bag": 6488,
      "##vention": 6489,
      "##hot": 6490,
      "advar": 6491,
      "virkelighed": 6492,
      "bestemme": 6493,
      "vilje": 6494,
      "imponerende": 6495,
      "betrag": 6496,
      "eksamen": 6497,
      "##stig": 6498,
      "førende": 6499,
      "##vide": 6500,
      "##tilskud": 6501,
      "kab": 6502,
      "arbejdsplads": 6503,
      "##produktion": 6504,
      "moms": 6505,
      "##indre": 6506,
      "carl": 6507,
      "biograf": 6508,
      "anses": 6509,
      "##færds": 6510,
      "aust": 6511,
      "amager": 6512,
      "abonnement": 6513,
      "##artner": 6514,
      "##sho": 6515,
      "##hr": 6516,
      "størrelsen": 6517,
      "jam": 6518,
      "ture": 6519,
      "flyg": 6520,
      "svarede": 6521,
      "fragt": 6522,
      "sortim": 6523,
      "undervisnings": 6524,
      "##ændelse": 6525,
      "single": 6526,
      "kylling": 6527,
      "dukker": 6528,
      "##beste": 6529,
      "thaim": 6530,
      "selvstændig": 6531,
      "sir": 6532,
      "pap": 6533,
      "blu": 6534,
      "teori": 6535,
      "##italet": 6536,
      "tjekke": 6537,
      "næstved": 6538,
      "utal": 6539,
      "tjene": 6540,
      "##alistiske": 6541,
      "##ood": 6542,
      "stu": 6543,
      "kerne": 6544,
      "##ctor": 6545,
      "bestemte": 6546,
      "skønhed": 6547,
      "kæmper": 6548,
      "afspej": 6549,
      "fange": 6550,
      "forsøgt": 6551,
      "derude": 6552,
      "mælk": 6553,
      "##ydelser": 6554,
      "nedenstående": 6555,
      "##tages": 6556,
      "ægtefæl": 6557,
      "xxx": 6558,
      "proced": 6559,
      "##fund": 6560,
      "##melt": 6561,
      "album": 6562,
      "præsentere": 6563,
      "terror": 6564,
      "køge": 6565,
      "saf": 6566,
      "demon": 6567,
      "kreative": 6568,
      "##2-": 6569,
      "trivsel": 6570,
      "ulov": 6571,
      "skud": 6572,
      "staten": 6573,
      "bevæge": 6574,
      "slu": 6575,
      "overenskom": 6576,
      "##lunde": 6577,
      "resultaterne": 6578,
      "##adalafil": 6579,
      "1000": 6580,
      "##ønne": 6581,
      "perioder": 6582,
      "##formand": 6583,
      "andres": 6584,
      "måler": 6585,
      "læste": 6586,
      "selskaber": 6587,
      "modsætning": 6588,
      "ligeså": 6589,
      "##eladende": 6590,
      "193": 6591,
      "maskin": 6592,
      "##pan": 6593,
      "etc": 6594,
      "betyde": 6595,
      "tadalafil": 6596,
      "herom": 6597,
      "poin": 6598,
      "1)": 6599,
      "rådet": 6600,
      "##kostninger": 6601,
      "##navn": 6602,
      "indrettet": 6603,
      "misbrug": 6604,
      "midtjylland": 6605,
      "bakter": 6606,
      "ethvert": 6607,
      "reklam": 6608,
      "bjerg": 6609,
      "henvendelse": 6610,
      "bind": 6611,
      "ekspl": 6612,
      "etablering": 6613,
      "kurset": 6614,
      "fortsatte": 6615,
      "##irt": 6616,
      "sandheden": 6617,
      "målrettet": 6618,
      "##urop": 6619,
      "assist": 6620,
      "døre": 6621,
      "opholds": 6622,
      "<": 6623,
      "danskerne": 6624,
      "laur": 6625,
      "ingredien": 6626,
      "handlinger": 6627,
      "idræt": 6628,
      "##vurder": 6629,
      "##strateg": 6630,
      "glat": 6631,
      "milli": 6632,
      "##ias": 6633,
      "##æstet": 6634,
      "well": 6635,
      "sind": 6636,
      "borgmester": 6637,
      "medie": 6638,
      "thail": 6639,
      "dræbe": 6640,
      "mos": 6641,
      "teksten": 6642,
      "prins": 6643,
      "tættere": 6644,
      "##livet": 6645,
      "ordin": 6646,
      "##ikere": 6647,
      "line": 6648,
      "2006": 6649,
      "alex": 6650,
      "studen": 6651,
      "scan": 6652,
      "##inav": 6653,
      "behandle": 6654,
      "dræbt": 6655,
      "champ": 6656,
      "div": 6657,
      "cd": 6658,
      "##19": 6659,
      "gram": 6660,
      "reducer": 6661,
      "tilsyneladende": 6662,
      "##its": 6663,
      "morgenen": 6664,
      "tilh": 6665,
      "##ktionen": 6666,
      "city": 6667,
      "38": 6668,
      "kommunes": 6669,
      "webshop": 6670,
      "##angel": 6671,
      "aftalt": 6672,
      "plast": 6673,
      "##smæssig": 6674,
      "##lån": 6675,
      "punkter": 6676,
      "##spe": 6677,
      "sygehus": 6678,
      "forklaring": 6679,
      "priserne": 6680,
      "øre": 6681,
      "bestyrelse": 6682,
      "skyde": 6683,
      "hyggelige": 6684,
      "betales": 6685,
      "##jet": 6686,
      "ast": 6687,
      "grønt": 6688,
      "indvand": 6689,
      "##terier": 6690,
      "årsagen": 6691,
      "forslaget": 6692,
      "hjemmesider": 6693,
      "##vejledning": 6694,
      "##alderen": 6695,
      "forskellen": 6696,
      "##købing": 6697,
      "helhed": 6698,
      "villa": 6699,
      "blomst": 6700,
      "grin": 6701,
      "ynd": 6702,
      "aftens": 6703,
      "vanskelig": 6704,
      "vardenafil": 6705,
      "##lyst": 6706,
      "##afdelingen": 6707,
      "wind": 6708,
      "vundet": 6709,
      "forandring": 6710,
      "##vens": 6711,
      "##olution": 6712,
      "forg": 6713,
      "##aktioner": 6714,
      "##jener": 6715,
      "stift": 6716,
      "påvirke": 6717,
      "grønland": 6718,
      "##alle": 6719,
      "forhånd": 6720,
      "elske": 6721,
      "##fj": 6722,
      "##ysten": 6723,
      "aud": 6724,
      "front": 6725,
      "4-": 6726,
      "high": 6727,
      "##lim": 6728,
      "spurgt": 6729,
      "maskiner": 6730,
      "lyde": 6731,
      "emnet": 6732,
      "medføre": 6733,
      "livsstil": 6734,
      "##asses": 6735,
      "rock": 6736,
      "håndværk": 6737,
      "tilbydes": 6738,
      "##sbet": 6739,
      "senior": 6740,
      "##inerende": 6741,
      "redde": 6742,
      "slutter": 6743,
      "tvang": 6744,
      "##spolitik": 6745,
      "udsted": 6746,
      "fødder": 6747,
      "jakob": 6748,
      "mistet": 6749,
      "rige": 6750,
      "##visninger": 6751,
      "##ns": 6752,
      "udvæl": 6753,
      "indretning": 6754,
      "innovation": 6755,
      "##slet": 6756,
      "rummer": 6757,
      "##pression": 6758,
      "verdensk": 6759,
      "selskabets": 6760,
      "konflik": 6761,
      "forventet": 6762,
      "##ena": 6763,
      "##ric": 6764,
      "kaldt": 6765,
      "##tab": 6766,
      "endelige": 6767,
      "deltog": 6768,
      "udvalgt": 6769,
      "##las": 6770,
      "##givningen": 6771,
      "effektive": 6772,
      "bevis": 6773,
      "fremmed": 6774,
      "##uleret": 6775,
      "brede": 6776,
      "mærket": 6777,
      "##mag": 6778,
      "operation": 6779,
      "play": 6780,
      "politikere": 6781,
      "øvelser": 6782,
      "repræsentant": 6783,
      "##æger": 6784,
      "##vejer": 6785,
      "##inerer": 6786,
      "specifikke": 6787,
      "##enten": 6788,
      "indh": 6789,
      "mia": 6790,
      "fulgte": 6791,
      "##danmark": 6792,
      "##arr": 6793,
      "svensk": 6794,
      "styrker": 6795,
      "liter": 6796,
      "kvindelige": 6797,
      "ordentligt": 6798,
      "##ognen": 6799,
      "udtal": 6800,
      "enormt": 6801,
      "brø": 6802,
      "faktorer": 6803,
      "tilfredsstil": 6804,
      "temmelig": 6805,
      "forlade": 6806,
      "kortet": 6807,
      "##ppes": 6808,
      "##sministeriet": 6809,
      "past": 6810,
      "psykiat": 6811,
      "190": 6812,
      "##menteret": 6813,
      "træffe": 6814,
      "lokalt": 6815,
      "bøsse": 6816,
      "##spiller": 6817,
      "førte": 6818,
      "##elsess": 6819,
      "##burg": 6820,
      "begejst": 6821,
      "diam": 6822,
      "##aftalen": 6823,
      "thaimassage": 6824,
      "##rur": 6825,
      "eb": 6826,
      "arg": 6827,
      "##løst": 6828,
      "##rul": 6829,
      "thailand": 6830,
      "##plade": 6831,
      "##være": 6832,
      "medlemmerne": 6833,
      "stam": 6834,
      "besid": 6835,
      "famili": 6836,
      "forvente": 6837,
      "##apeut": 6838,
      "sinds": 6839,
      "gay": 6840,
      "knud": 6841,
      "##ierede": 6842,
      "##back": 6843,
      "miste": 6844,
      "nerv": 6845,
      "##meligt": 6846,
      "flyttede": 6847,
      "##icia": 6848,
      "åbnede": 6849,
      "bestemmer": 6850,
      "ovenfor": 6851,
      "##gul": 6852,
      "gad": 6853,
      "overgang": 6854,
      "flygtninge": 6855,
      "##14": 6856,
      "##play": 6857,
      "##priser": 6858,
      "spanien": 6859,
      "lover": 6860,
      "foreslå": 6861,
      "forestil": 6862,
      "dansker": 6863,
      "##ain": 6864,
      "8,": 6865,
      "fasc": 6866,
      "##planen": 6867,
      "helsingør": 6868,
      "oplyst": 6869,
      "faglig": 6870,
      "xtra": 6871,
      "bane": 6872,
      "##13": 6873,
      "##skift": 6874,
      "##skrav": 6875,
      "dæ": 6876,
      "bordel": 6877,
      "recep": 6878,
      "##bør": 6879,
      "ryt": 6880,
      "leverandør": 6881,
      "kors": 6882,
      "færdigheder": 6883,
      "##ype": 6884,
      "cor": 6885,
      "leverings": 6886,
      "beboere": 6887,
      "produktionen": 6888,
      "galler": 6889,
      "tar": 6890,
      "lesb": 6891,
      "revisor": 6892,
      "evaluering": 6893,
      "##lam": 6894,
      "evner": 6895,
      "stuen": 6896,
      "if": 6897,
      "opbevaring": 6898,
      "arbejdes": 6899,
      "alderen": 6900,
      "##appet": 6901,
      "forelsk": 6902,
      "afsluttet": 6903,
      "våd": 6904,
      "##dal": 6905,
      "derfra": 6906,
      "ton": 6907,
      "israel": 6908,
      "club": 6909,
      "##erende": 6910,
      "##gest": 6911,
      "##anceret": 6912,
      "byde": 6913,
      "håret": 6914,
      "##<<,": 6915,
      "million": 6916,
      "døden": 6917,
      "varmen": 6918,
      "##onym": 6919,
      "##uddannelsen": 6920,
      "##forstå": 6921,
      "sunde": 6922,
      "hvori": 6923,
      "klip": 6924,
      "##oritet": 6925,
      "##afdeling": 6926,
      "arbejdspladser": 6927,
      "21.": 6928,
      "##moder": 6929,
      "utro": 6930,
      "sæsonen": 6931,
      "plej": 6932,
      "opnået": 6933,
      "relater": 6934,
      "trykke": 6935,
      "erhvervsl": 6936,
      "mobile": 6937,
      "ig": 6938,
      "slem": 6939,
      "venlige": 6940,
      "##elter": 6941,
      "forestille": 6942,
      "komb": 6943,
      "fremgang": 6944,
      "bedt": 6945,
      "krigen": 6946,
      "kapacitet": 6947,
      "kræve": 6948,
      "2)": 6949,
      "##ædvan": 6950,
      "forhandler": 6951,
      "##brød": 6952,
      "##ænk": 6953,
      "speciel": 6954,
      "##/3": 6955,
      "udpeg": 6956,
      "48": 6957,
      "##lip": 6958,
      "fløj": 6959,
      "make": 6960,
      "ik": 6961,
      "reaktion": 6962,
      "bukser": 6963,
      "55": 6964,
      "##unt": 6965,
      "##talt": 6966,
      "##auff": 6967,
      "skaffe": 6968,
      "forskere": 6969,
      "kaste": 6970,
      "##ukket": 6971,
      "stilles": 6972,
      "gennemføres": 6973,
      "##umer": 6974,
      "##forbin": 6975,
      "##faldet": 6976,
      "##--": 6977,
      "bin": 6978,
      "barndom": 6979,
      "iv": 6980,
      "bager": 6981,
      "##itation": 6982,
      "mørk": 6983,
      "fanget": 6984,
      "krops": 6985,
      "brænder": 6986,
      "intellig": 6987,
      "##mmer": 6988,
      "##fundet": 6989,
      "signal": 6990,
      "konver": 6991,
      "##mek": 6992,
      "peber": 6993,
      "anbefalinger": 6994,
      "tilsæt": 6995,
      "bryder": 6996,
      "opstå": 6997,
      "minut": 6998,
      "idræts": 6999,
      "##rr": 7000,
      "sover": 7001,
      "oprindeligt": 7002,
      "perspektiv": 7003,
      "støtter": 7004,
      "finan": 7005,
      "##por": 7006,
      "##fest": 7007,
      "gran": 7008,
      "hiller": 7009,
      "afgift": 7010,
      "##sammen": 7011,
      "peger": 7012,
      "derhjemme": 7013,
      "austral": 7014,
      "herhjemme": 7015,
      "##ita": 7016,
      "42": 7017,
      "##fac": 7018,
      "##behand": 7019,
      "aktier": 7020,
      "ledelsen": 7021,
      "##selv": 7022,
      "svømme": 7023,
      "vendte": 7024,
      "flyver": 7025,
      "havne": 7026,
      "business": 7027,
      "##mat": 7028,
      "fylde": 7029,
      "ryger": 7030,
      "kraftigt": 7031,
      "bla": 7032,
      "element": 7033,
      "tap": 7034,
      "##stema": 7035,
      "bladet": 7036,
      "##skaff": 7037,
      "slipper": 7038,
      "uafhængigt": 7039,
      "skive": 7040,
      "patienten": 7041,
      "micro": 7042,
      "udvi": 7043,
      "##edskab": 7044,
      "swingerklub": 7045,
      "fastsat": 7046,
      "reelt": 7047,
      "##16": 7048,
      "##taj": 7049,
      "times": 7050,
      "glemme": 7051,
      "forfær": 7052,
      "græsk": 7053,
      "400": 7054,
      "##rummet": 7055,
      "ins": 7056,
      "bedøm": 7057,
      "##??": 7058,
      "kortere": 7059,
      "##holdene": 7060,
      "båd": 7061,
      "pædagogiske": 7062,
      "..": 7063,
      "##førelsen": 7064,
      "##pping": 7065,
      "primære": 7066,
      "afdelinger": 7067,
      "##bad": 7068,
      "beton": 7069,
      "david": 7070,
      "overtræ": 7071,
      "forsvinder": 7072,
      "teknolog": 7073,
      "tyrk": 7074,
      "##rukket": 7075,
      "arv": 7076,
      "##formation": 7077,
      "##skon": 7078,
      "##tit": 7079,
      "fugt": 7080,
      "fotos": 7081,
      "artiklen": 7082,
      "##tegn": 7083,
      "son": 7084,
      "##rukne": 7085,
      "##aktiviteter": 7086,
      "udfører": 7087,
      "##ografer": 7088,
      "brem": 7089,
      "##atorer": 7090,
      "bok": 7091,
      "reduc": 7092,
      "læn": 7093,
      "arbejdsmarked": 7094,
      "alvorlige": 7095,
      "##ney": 7096,
      "fornemmelse": 7097,
      "works": 7098,
      "rækker": 7099,
      "##vandet": 7100,
      "site": 7101,
      "historisk": 7102,
      "ført": 7103,
      "skære": 7104,
      "personlighed": 7105,
      "##ions": 7106,
      "##tens": 7107,
      "tæller": 7108,
      "##put": 7109,
      "##aret": 7110,
      "introduktion": 7111,
      "turist": 7112,
      "##sser": 7113,
      "administra": 7114,
      "rot": 7115,
      "sans": 7116,
      "download": 7117,
      "ære": 7118,
      "##sniveau": 7119,
      "timers": 7120,
      "minde": 7121,
      "power": 7122,
      "##barhed": 7123,
      "##ferencer": 7124,
      "elektronisk": 7125,
      "tilrettelæg": 7126,
      "udnytte": 7127,
      "kode": 7128,
      "forvir": 7129,
      "koge": 7130,
      "##enhed": 7131,
      "overlev": 7132,
      "##æret": 7133,
      "bemærkninger": 7134,
      "drømmer": 7135,
      "seværdigheder": 7136,
      "##bringe": 7137,
      "miner": 7138,
      "hjernen": 7139,
      "sogn": 7140,
      "vag": 7141,
      "##jo": 7142,
      "hastighed": 7143,
      "cv": 7144,
      "overvejer": 7145,
      "##sninger": 7146,
      "stærkere": 7147,
      "orgasme": 7148,
      "hverdage": 7149,
      "##ffek": 7150,
      "##gelsen": 7151,
      "socialdemokra": 7152,
      "bortset": 7153,
      "pool": 7154,
      "##somhed": 7155,
      "lund": 7156,
      "nyere": 7157,
      "software": 7158,
      "infek": 7159,
      "##lade": 7160,
      "##bygger": 7161,
      "reducere": 7162,
      "understre": 7163,
      "##17": 7164,
      "hellig": 7165,
      "tilhørende": 7166,
      "samarbejds": 7167,
      "savner": 7168,
      "##ki": 7169,
      "opnår": 7170,
      "##givelse": 7171,
      "usædvan": 7172,
      "implementer": 7173,
      "fjernet": 7174,
      "berlin": 7175,
      "tax": 7176,
      "eftersom": 7177,
      "ern": 7178,
      "foruden": 7179,
      "musikken": 7180,
      "http": 7181,
      "leds": 7182,
      "##do": 7183,
      "kam": 7184,
      "regnskabs": 7185,
      "fitness": 7186,
      "##ffen": 7187,
      "##pas": 7188,
      "fortælling": 7189,
      "regner": 7190,
      "separ": 7191,
      "65": 7192,
      "skriftlig": 7193,
      "krydder": 7194,
      "befolkningen": 7195,
      "##cher": 7196,
      "århundrede": 7197,
      "sexet": 7198,
      "dild": 7199,
      "fortol": 7200,
      "##bevid": 7201,
      "##que": 7202,
      "vogn": 7203,
      "fn": 7204,
      "overraskende": 7205,
      "##rien": 7206,
      "##entlige": 7207,
      "00": 7208,
      "alders": 7209,
      "##cks": 7210,
      "##amet": 7211,
      "##ængde": 7212,
      "enkle": 7213,
      "##beskriv": 7214,
      "løft": 7215,
      "appar": 7216,
      "kontakter": 7217,
      "2005": 7218,
      "ekstremt": 7219,
      "fjerde": 7220,
      "kjole": 7221,
      "mængden": 7222,
      "garn": 7223,
      "gæld": 7224,
      "##va": 7225,
      "##fast": 7226,
      "virksomhederne": 7227,
      "##cykel": 7228,
      "lød": 7229,
      "introdu": 7230,
      "amerikansk": 7231,
      "##lement": 7232,
      "##kers": 7233,
      "##øret": 7234,
      "##jektet": 7235,
      "##inet": 7236,
      "##vejr": 7237,
      "##biler": 7238,
      "drive": 7239,
      "benene": 7240,
      "alm": 7241,
      "inten": 7242,
      "fremstilling": 7243,
      "##kredit": 7244,
      "lyser": 7245,
      "lokaler": 7246,
      "##adt": 7247,
      "ansigtet": 7248,
      "købet": 7249,
      "##ingerne": 7250,
      "##rette": 7251,
      "professor": 7252,
      "svendborg": 7253,
      "##igelse": 7254,
      "religi": 7255,
      "løst": 7256,
      "boligen": 7257,
      "blowjob": 7258,
      "sange": 7259,
      "lukker": 7260,
      "##handling": 7261,
      "##kri": 7262,
      "dekor": 7263,
      "vokse": 7264,
      "energim": 7265,
      "sul": 7266,
      "##splad": 7267,
      "apple": 7268,
      "studi": 7269,
      "master": 7270,
      "dejen": 7271,
      "koncert": 7272,
      "##,-": 7273,
      "sundt": 7274,
      "bevare": 7275,
      "eksperter": 7276,
      "finansielle": 7277,
      "takket": 7278,
      "##osition": 7279,
      "##ygdomme": 7280,
      "##andet": 7281,
      "##ovn": 7282,
      "##inerede": 7283,
      "samtykke": 7284,
      "rejste": 7285,
      "vedtaget": 7286,
      "##ejser": 7287,
      "##ulation": 7288,
      "oplysningerne": 7289,
      "##200": 7290,
      "##yldigt": 7291,
      "##skal": 7292,
      "holste": 7293,
      "flad": 7294,
      "##emed": 7295,
      "besøgte": 7296,
      "ønskes": 7297,
      "trukket": 7298,
      "brugerne": 7299,
      "##møn": 7300,
      "betragtes": 7301,
      "retfær": 7302,
      "betyd": 7303,
      "##æne": 7304,
      "sty": 7305,
      "grænsen": 7306,
      "hillerød": 7307,
      "samler": 7308,
      "##ano": 7309,
      "##klasse": 7310,
      "ejendomme": 7311,
      "##ination": 7312,
      "tablet": 7313,
      "matematik": 7314,
      "##ukom": 7315,
      "##ablere": 7316,
      "##følger": 7317,
      "pre": 7318,
      "##øser": 7319,
      "##klæ": 7320,
      "inder": 7321,
      "hjørne": 7322,
      "hurtige": 7323,
      "redskaber": 7324,
      "grøntsager": 7325,
      "bø": 7326,
      "samtaler": 7327,
      "kvartal": 7328,
      "##problemer": 7329,
      "frækt": 7330,
      "##ættelse": 7331,
      "fremhæ": 7332,
      "nævnes": 7333,
      "efterår": 7334,
      "##bolig": 7335,
      "følelses": 7336,
      "festival": 7337,
      "fænomen": 7338,
      "##ervice": 7339,
      "##ysning": 7340,
      "arrangement": 7341,
      "##kø": 7342,
      "kalender": 7343,
      "anna": 7344,
      "behagelig": 7345,
      "nøje": 7346,
      "##ika": 7347,
      "samarbejder": 7348,
      "fodbol": 7349,
      "kategorier": 7350,
      "såkaldt": 7351,
      "menu": 7352,
      "skuespiller": 7353,
      "driver": 7354,
      "##ægler": 7355,
      "##undervisning": 7356,
      "entrepren": 7357,
      "stiv": 7358,
      "simon": 7359,
      "affalds": 7360,
      "udsatte": 7361,
      "##kvalitet": 7362,
      "anlægget": 7363,
      "eventuel": 7364,
      "market": 7365,
      "læsning": 7366,
      "##undersøgelse": 7367,
      "bivirk": 7368,
      "filosof": 7369,
      "skarp": 7370,
      "årige": 7371,
      "betalings": 7372,
      "fjen": 7373,
      "brønd": 7374,
      "afstem": 7375,
      "udvidet": 7376,
      "startet": 7377,
      "##ferien": 7378,
      "rusland": 7379,
      "##rator": 7380,
      "opfølg": 7381,
      "vanskeligt": 7382,
      "##ssystem": 7383,
      "flest": 7384,
      "kræves": 7385,
      "fødevar": 7386,
      "præsenteret": 7387,
      "##selskab": 7388,
      "##acc": 7389,
      "##byder": 7390,
      "stræk": 7391,
      "invest": 7392,
      "lic": 7393,
      "udveks": 7394,
      "grill": 7395,
      "##ada": 7396,
      "nærværende": 7397,
      "##umper": 7398,
      "kristne": 7399,
      "##dren": 7400,
      "ringede": 7401,
      "sektor": 7402,
      "oplyser": 7403,
      "berømte": 7404,
      "udgift": 7405,
      "tilfredse": 7406,
      "bolden": 7407,
      "værksted": 7408,
      "gennemgang": 7409,
      "##unget": 7410,
      "samvær": 7411,
      "##ple": 7412,
      "uret": 7413,
      "udbetaling": 7414,
      "kollek": 7415,
      "bestående": 7416,
      "skidt": 7417,
      "dyrt": 7418,
      "efterspørg": 7419,
      "pizza": 7420,
      "maskinen": 7421,
      "tilstrækkelig": 7422,
      "##ysk": 7423,
      "understøtter": 7424,
      "hug": 7425,
      "##perioden": 7426,
      "##personer": 7427,
      "økologisk": 7428,
      "spl": 7429,
      "spiste": 7430,
      "##ial": 7431,
      "jørgensen": 7432,
      "kondom": 7433,
      "##agede": 7434,
      "havnen": 7435,
      "slagelse": 7436,
      "##ona": 7437,
      "tryghed": 7438,
      "vm": 7439,
      "nylig": 7440,
      "fagligt": 7441,
      "forhindre": 7442,
      "kaj": 7443,
      "sørensen": 7444,
      "fredericia": 7445,
      "kundes": 7446,
      "horn": 7447,
      "##byen": 7448,
      "##egen": 7449,
      "modul": 7450,
      "##ini": 7451,
      "1:": 7452,
      "##orator": 7453,
      "opp": 7454,
      "marg": 7455,
      "##vækst": 7456,
      "##bladet": 7457,
      "##tikler": 7458,
      "ligefrem": 7459,
      "##liste": 7460,
      "baggrunden": 7461,
      "kontin": 7462,
      "will": 7463,
      "skjul": 7464,
      "mont": 7465,
      "##ureau": 7466,
      "stjerner": 7467,
      "opstil": 7468,
      "##ografi": 7469,
      "centralt": 7470,
      "tillader": 7471,
      "solid": 7472,
      "##dags": 7473,
      "cykler": 7474,
      "nævne": 7475,
      "kos": 7476,
      "39": 7477,
      "back": 7478,
      "miljøet": 7479,
      "grundet": 7480,
      "##75": 7481,
      "oplagt": 7482,
      "##tning": 7483,
      "##næst": 7484,
      "udbytte": 7485,
      "##kontrol": 7486,
      "søgning": 7487,
      "##behov": 7488,
      "##mærker": 7489,
      "velegnet": 7490,
      "##maden": 7491,
      "herudover": 7492,
      "##ålmod": 7493,
      "##abelt": 7494,
      "noveller": 7495,
      "klogere": 7496,
      "gammelt": 7497,
      "##loven": 7498,
      "eksperi": 7499,
      "gemme": 7500,
      "begivenheder": 7501,
      "kolleger": 7502,
      "##pul": 7503,
      "##retten": 7504,
      "##erm": 7505,
      "##lege": 7506,
      "klinik": 7507,
      "##-201": 7508,
      "dro": 7509,
      "måltid": 7510,
      "##værelser": 7511,
      "farligt": 7512,
      "registrering": 7513,
      "##stændige": 7514,
      "##astro": 7515,
      "beklager": 7516,
      "##hoved": 7517,
      "fingre": 7518,
      "##spris": 7519,
      "fulgt": 7520,
      "modsatte": 7521,
      "nysgerrig": 7522,
      "huller": 7523,
      "indendørs": 7524,
      "##annon": 7525,
      "rapporten": 7526,
      "foreninger": 7527,
      "##viste": 7528,
      "bivirkninger": 7529,
      "brugeren": 7530,
      "boet": 7531,
      "storm": 7532,
      "##ani": 7533,
      "rosen": 7534,
      "blok": 7535,
      "dir": 7536,
      "forholdsvis": 7537,
      "ekstraordin": 7538,
      "reserver": 7539,
      "hjalp": 7540,
      "menig": 7541,
      "tredj": 7542,
      "personen": 7543,
      "sum": 7544,
      "tilstrækkeligt": 7545,
      "sikret": 7546,
      "##slå": 7547,
      "desto": 7548,
      "loft": 7549,
      "##kj": 7550,
      "rejsen": 7551,
      "beskrive": 7552,
      "tiltræ": 7553,
      "mg": 7554,
      "tempo": 7555,
      "##tekst": 7556,
      "hustru": 7557,
      "ec": 7558,
      "ve": 7559,
      "skum": 7560,
      "##iseret": 7561,
      "beskæftigelse": 7562,
      "##systemet": 7563,
      "spons": 7564,
      "##slovens": 7565,
      "##keret": 7566,
      "konsulent": 7567,
      "interne": 7568,
      "##-10": 7569,
      "firmaet": 7570,
      "katte": 7571,
      "vå": 7572,
      "##cipl": 7573,
      "##ule": 7574,
      "(3": 7575,
      "flaske": 7576,
      "##marked": 7577,
      "ot": 7578,
      "##jyske": 7579,
      "væggen": 7580,
      "skiftet": 7581,
      "tide": 7582,
      "totalt": 7583,
      "bist": 7584,
      "webcam": 7585,
      "betød": 7586,
      "kusse": 7587,
      "arter": 7588,
      "##bon": 7589,
      "flertal": 7590,
      "takt": 7591,
      "lol": 7592,
      "hurtigst": 7593,
      "##oplevelse": 7594,
      "blad": 7595,
      "forbedring": 7596,
      "##regning": 7597,
      "forudsætning": 7598,
      "##givende": 7599,
      "forudsætninger": 7600,
      "forkerte": 7601,
      "##etid": 7602,
      "trå": 7603,
      "håndtering": 7604,
      "tip": 7605,
      "ulyk": 7606,
      "shop": 7607,
      "##iteten": 7608,
      "tilbuds": 7609,
      "drifts": 7610,
      "fattig": 7611,
      "##ilæ": 7612,
      "retningslinjer": 7613,
      "arrang": 7614,
      "fjernes": 7615,
      "damp": 7616,
      "koordin": 7617,
      "pande": 7618,
      "vant": 7619,
      "udviklings": 7620,
      "tilmelding": 7621,
      "kartof": 7622,
      "##ineres": 7623,
      "##lægger": 7624,
      "jobbet": 7625,
      "##skende": 7626,
      "##vning": 7627,
      "##car": 7628,
      "kandidat": 7629,
      "##visende": 7630,
      "konklusion": 7631,
      "rute": 7632,
      "helle": 7633,
      "kongen": 7634,
      "tøjet": 7635,
      "pist": 7636,
      "ild": 7637,
      "##kortet": 7638,
      "##asken": 7639,
      "internationalt": 7640,
      "lort": 7641,
      "urin": 7642,
      "benz": 7643,
      "30.": 7644,
      "øverst": 7645,
      "tøm": 7646,
      "flag": 7647,
      "negative": 7648,
      "dep": 7649,
      "192": 7650,
      "gemmer": 7651,
      "alvorlig": 7652,
      "##prom": 7653,
      "##regnes": 7654,
      "##ravet": 7655,
      "10,": 7656,
      "etablere": 7657,
      "borgeren": 7658,
      "##:00": 7659,
      "##værdig": 7660,
      "afdelingen": 7661,
      "##egner": 7662,
      "adsk": 7663,
      "sikke": 7664,
      "klassen": 7665,
      "prostitu": 7666,
      "claus": 7667,
      "fokusere": 7668,
      "aps": 7669,
      "dækning": 7670,
      "ressource": 7671,
      "##mentet": 7672,
      "##øbet": 7673,
      "klasser": 7674,
      "##soft": 7675,
      "bekræft": 7676,
      "generation": 7677,
      "vision": 7678,
      "faciliteter": 7679,
      "##rigt": 7680,
      "##linge": 7681,
      "1-": 7682,
      "tilli": 7683,
      "kilder": 7684,
      "nul": 7685,
      "myr": 7686,
      "##aus": 7687,
      "akadem": 7688,
      "oplysning": 7689,
      "copyr": 7690,
      "##blandt": 7691,
      "##appar": 7692,
      "##ww": 7693,
      "byggeri": 7694,
      "5-": 7695,
      "skæb": 7696,
      "officielle": 7697,
      "##eskema": 7698,
      "sekund": 7699,
      "##skoler": 7700,
      "mønster": 7701,
      "opskriften": 7702,
      "9,": 7703,
      "##merende": 7704,
      "##disk": 7705,
      "civil": 7706,
      "scenen": 7707,
      "milf": 7708,
      "indblik": 7709,
      "forstået": 7710,
      "##sled": 7711,
      "with": 7712,
      "angiver": 7713,
      "valut": 7714,
      "##egru": 7715,
      "protein": 7716,
      "##speci": 7717,
      "##rud": 7718,
      "lejer": 7719,
      "indsatsen": 7720,
      "had": 7721,
      "emil": 7722,
      "ost": 7723,
      "ovnen": 7724,
      "nordisk": 7725,
      "bryde": 7726,
      "skriftligt": 7727,
      "copyright": 7728,
      "##spillet": 7729,
      "##kørsel": 7730,
      "gæsterne": 7731,
      "##ænder": 7732,
      "indtægter": 7733,
      "##plader": 7734,
      "##repræsent": 7735,
      "yo": 7736,
      "blade": 7737,
      "tjenester": 7738,
      "tilknyttet": 7739,
      "##teren": 7740,
      "åbnet": 7741,
      "videok": 7742,
      "holbæk": 7743,
      "##spekt": 7744,
      "##arch": 7745,
      "billigste": 7746,
      "##etøj": 7747,
      "pornost": 7748,
      "annonce": 7749,
      "modtog": 7750,
      "forholde": 7751,
      "##wa": 7752,
      "beløbet": 7753,
      "kasse": 7754,
      "hjælpem": 7755,
      "bak": 7756,
      "menuen": 7757,
      "processer": 7758,
      "##driv": 7759,
      "høring": 7760,
      "kvinderne": 7761,
      "voldsomt": 7762,
      "planlægge": 7763,
      "finansiering": 7764,
      "##læs": 7765,
      "repræsenterer": 7766,
      "markedsføring": 7767,
      "##ics": 7768,
      "##artet": 7769,
      "roy": 7770,
      "##anerne": 7771,
      "vend": 7772,
      "kaptaj": 7773,
      "gården": 7774,
      "nyd": 7775,
      "vindmøl": 7776,
      "indkal": 7777,
      "##medlemmer": 7778,
      "##skrevet": 7779,
      "tabe": 7780,
      "systema": 7781,
      "interessante": 7782,
      "##500": 7783,
      "nordiske": 7784,
      "overrasket": 7785,
      "opslag": 7786,
      "sortiment": 7787,
      "##ama": 7788,
      "##skifte": 7789,
      "##ii": 7790,
      "drikker": 7791,
      "religion": 7792,
      "tilber": 7793,
      "indgang": 7794,
      "børns": 7795,
      "mys": 7796,
      "spin": 7797,
      "præsentation": 7798,
      "perman": 7799,
      "overordnet": 7800,
      "fordy": 7801,
      "##artnere": 7802,
      "##lerup": 7803,
      "##lus": 7804,
      "bold": 7805,
      "bop": 7806,
      "holstebro": 7807,
      "##kons": 7808,
      "sikkerheden": 7809,
      "undgår": 7810,
      "dernæst": 7811,
      "afhængigt": 7812,
      "vært": 7813,
      "bragt": 7814,
      "##ssam": 7815,
      "almen": 7816,
      "##god": 7817,
      "væske": 7818,
      "##reste": 7819,
      "##ystemer": 7820,
      "verdenskrig": 7821,
      "phil": 7822,
      "##fru": 7823,
      "##alske": 7824,
      "trom": 7825,
      "tat": 7826,
      "##ågning": 7827,
      "atter": 7828,
      "sygdommen": 7829,
      "ærlig": 7830,
      "lyngby": 7831,
      "vokset": 7832,
      "korn": 7833,
      "princip": 7834,
      "##løg": 7835,
      "##muse": 7836,
      "##bs": 7837,
      "forlængelse": 7838,
      "betegn": 7839,
      "smykker": 7840,
      "##hun": 7841,
      "harmon": 7842,
      "ydre": 7843,
      "fase": 7844,
      "opkald": 7845,
      "stjerne": 7846,
      "drag": 7847,
      "miljøm": 7848,
      "##klæd": 7849,
      "forstand": 7850,
      "##skode": 7851,
      "##estere": 7852,
      "##æves": 7853,
      "##iget": 7854,
      "##dc": 7855,
      "boo": 7856,
      "##ima": 7857,
      "##mot": 7858,
      "steget": 7859,
      "##dsel": 7860,
      "scor": 7861,
      "klubbens": 7862,
      "sammenligne": 7863,
      "knappen": 7864,
      "##usiv": 7865,
      "##assist": 7866,
      "##omet": 7867,
      "julem": 7868,
      "megen": 7869,
      "virksomheds": 7870,
      "ingredienser": 7871,
      "31.": 7872,
      "##ico": 7873,
      "##unge": 7874,
      "22.": 7875,
      "originale": 7876,
      "smide": 7877,
      "lim": 7878,
      "russiske": 7879,
      "##historie": 7880,
      "##bank": 7881,
      "##bre": 7882,
      "##parti": 7883,
      "hall": 7884,
      "soldater": 7885,
      "feltet": 7886,
      "erst": 7887,
      "skandinav": 7888,
      "hak": 7889,
      "kulturelle": 7890,
      "##ladelse": 7891,
      "temp": 7892,
      "mak": 7893,
      "greb": 7894,
      "italiens": 7895,
      "skudt": 7896,
      "dræbte": 7897,
      "inviteret": 7898,
      "hvorfra": 7899,
      "blodt": 7900,
      "ventede": 7901,
      "betragtning": 7902,
      "##stekn": 7903,
      "##tiger": 7904,
      "##alsk": 7905,
      "rep": 7906,
      "præg": 7907,
      "arealer": 7908,
      "##reen": 7909,
      "dvd": 7910,
      "##buk": 7911,
      "vestlige": 7912,
      "##konto": 7913,
      "potentiale": 7914,
      "undersøgt": 7915,
      "muskel": 7916,
      "##alisme": 7917,
      "taske": 7918,
      "terræn": 7919,
      "##bekendt": 7920,
      "##aps": 7921,
      "bibliotek": 7922,
      "43": 7923,
      "anlægs": 7924,
      "mistede": 7925,
      "global": 7926,
      "stående": 7927,
      "##nor": 7928,
      "##ryg": 7929,
      "##fit": 7930,
      "##relser": 7931,
      "##result": 7932,
      "uover": 7933,
      "dum": 7934,
      "menneskelige": 7935,
      "one": 7936,
      "redegør": 7937,
      "behovet": 7938,
      "##smøde": 7939,
      "alting": 7940,
      "bang": 7941,
      "##igere": 7942,
      "svøm": 7943,
      "spist": 7944,
      "##rerer": 7945,
      "##dato": 7946,
      "danse": 7947,
      "##ux": 7948,
      "##øen": 7949,
      "tilknytning": 7950,
      "##iddel": 7951,
      "blandet": 7952,
      "heri": 7953,
      "mors": 7954,
      "domin": 7955,
      "##centre": 7956,
      "slip": 7957,
      "lærte": 7958,
      "##tryk": 7959,
      "acceptere": 7960,
      "teoret": 7961,
      "ogs": 7962,
      "##iej": 7963,
      "um": 7964,
      "erotik": 7965,
      "afpr": 7966,
      "##omi": 7967,
      "kolon": 7968,
      "amt": 7969,
      "vib": 7970,
      "morg": 7971,
      "indtast": 7972,
      "##sendelse": 7973,
      "##iks": 7974,
      "25.": 7975,
      "foreløbig": 7976,
      "forlader": 7977,
      "windows": 7978,
      "##gel": 7979,
      "gule": 7980,
      "glemmer": 7981,
      "##sekt": 7982,
      "180": 7983,
      "søen": 7984,
      "gennemsnitlige": 7985,
      "##/0": 7986,
      "##ulerer": 7987,
      "support": 7988,
      "spildevand": 7989,
      "##øbt": 7990,
      "##smand": 7991,
      "radik": 7992,
      "erfarne": 7993,
      "plastik": 7994,
      "pakker": 7995,
      "henter": 7996,
      "leverandører": 7997,
      "##indlæg": 7998,
      "vedrører": 7999,
      "nogenlunde": 8000,
      "barne": 8001,
      "oplevede": 8002,
      "##gården": 8003,
      "##ius": 8004,
      "44": 8005,
      "forventede": 8006,
      "økologiske": 8007,
      "hilsen": 8008,
      "2004": 8009,
      "terrasse": 8010,
      "hi": 8011,
      "stadigvæk": 8012,
      "årsregn": 8013,
      "ødelægge": 8014,
      "ordentlig": 8015,
      "orientering": 8016,
      "fantasi": 8017,
      "tradi": 8018,
      "aktører": 8019,
      "niveauer": 8020,
      "##rest": 8021,
      "engager": 8022,
      "cel": 8023,
      "uv": 8024,
      "fortjener": 8025,
      "smarte": 8026,
      "mega": 8027,
      "##osis": 8028,
      "simpel": 8029,
      "##berne": 8030,
      "ambul": 8031,
      "##regist": 8032,
      "dyrke": 8033,
      "interesserede": 8034,
      "senge": 8035,
      "##anne": 8036,
      "##kode": 8037,
      "populær": 8038,
      "patter": 8039,
      "overvejelser": 8040,
      "straf": 8041,
      "psykiske": 8042,
      "##etten": 8043,
      "hæld": 8044,
      "robot": 8045,
      "kas": 8046,
      "##95": 8047,
      "svamp": 8048,
      "samleje": 8049,
      "dm": 8050,
      "menstru": 8051,
      "##www": 8052,
      "##isser": 8053,
      "##cess": 8054,
      "##fon": 8055,
      "##creme": 8056,
      "herrer": 8057,
      "ekspert": 8058,
      "sug": 8059,
      "egnet": 8060,
      "##fro": 8061,
      "initiativer": 8062,
      "wal": 8063,
      "kniv": 8064,
      "##yer": 8065,
      "krise": 8066,
      "##ydende": 8067,
      "rets": 8068,
      "##institutioner": 8069,
      "følges": 8070,
      "tast": 8071,
      "liderlig": 8072,
      "##kær": 8073,
      "##periode": 8074,
      "uddy": 8075,
      "halsen": 8076,
      "placeres": 8077,
      "brud": 8078,
      "røven": 8079,
      "eksport": 8080,
      "##planer": 8081,
      "trump": 8082,
      "liderlige": 8083,
      "piller": 8084,
      "kontrollere": 8085,
      "##avisen": 8086,
      "bekymret": 8087,
      "##virksomheder": 8088,
      "fakta": 8089,
      "##ites": 8090,
      "studiet": 8091,
      "world": 8092,
      "plak": 8093,
      "arab": 8094,
      "##sætningen": 8095,
      "##mennes": 8096,
      "eksterne": 8097,
      "##sområdet": 8098,
      "##oft": 8099,
      "opr": 8100,
      "##ioter": 8101,
      "##hår": 8102,
      "skuff": 8103,
      "henvisning": 8104,
      "præsenterer": 8105,
      "offentliggjort": 8106,
      "stab": 8107,
      "hovedstaden": 8108,
      "##kendes": 8109,
      "forsigtigt": 8110,
      "##sket": 8111,
      "komplic": 8112,
      "organisationen": 8113,
      "kvad": 8114,
      "250": 8115,
      "##kender": 8116,
      "direktiv": 8117,
      "muskler": 8118,
      "##ægts": 8119,
      "kejser": 8120,
      "berettiget": 8121,
      "##taget": 8122,
      "æl": 8123,
      "mistæn": 8124,
      "opgør": 8125,
      "##blad": 8126,
      "hvidt": 8127,
      "maskine": 8128,
      "slid": 8129,
      "sammenlignet": 8130,
      "wellness": 8131,
      "##piller": 8132,
      "##faglige": 8133,
      "hvorledes": 8134,
      "henvender": 8135,
      "##midt": 8136,
      "hukom": 8137,
      "renovering": 8138,
      "vandløb": 8139,
      "tillykke": 8140,
      "stillede": 8141,
      "##ægte": 8142,
      "principper": 8143,
      "ærligt": 8144,
      "arbejdskraft": 8145,
      "kombineret": 8146,
      "##orme": 8147,
      "##ualitet": 8148,
      "##arden": 8149,
      "opnås": 8150,
      "elegant": 8151,
      "##ams": 8152,
      "udbuds": 8153,
      "##splads": 8154,
      "usikker": 8155,
      "flok": 8156,
      "forbr": 8157,
      "##krav": 8158,
      "##point": 8159,
      "##cca": 8160,
      "beskytter": 8161,
      "nytår": 8162,
      "producenter": 8163,
      "omsætning": 8164,
      "meddelelse": 8165,
      "producerer": 8166,
      "udlænd": 8167,
      "##smet": 8168,
      "forpligtet": 8169,
      "##status": 8170,
      "profiler": 8171,
      "singler": 8172,
      "globale": 8173,
      "##drej": 8174,
      "frivillig": 8175,
      "redskab": 8176,
      "##fabrik": 8177,
      "atmosfære": 8178,
      "presset": 8179,
      "tillige": 8180,
      "##ath": 8181,
      "##bestyr": 8182,
      "fremmede": 8183,
      "udstil": 8184,
      "klubber": 8185,
      "planlægger": 8186,
      "statens": 8187,
      "beboerne": 8188,
      "vred": 8189,
      "##chen": 8190,
      "modellen": 8191,
      "knyttet": 8192,
      "##/201": 8193,
      "aktion": 8194,
      "##24": 8195,
      "anonym": 8196,
      "##besøg": 8197,
      "netto": 8198,
      "miss": 8199,
      "##prisen": 8200,
      "computere": 8201,
      "##mmende": 8202,
      "afgræn": 8203,
      "alles": 8204,
      "udenrig": 8205,
      "##baseret": 8206,
      "dann": 8207,
      "##tilsynet": 8208,
      "uforpligt": 8209,
      "##kultur": 8210,
      "produkterne": 8211,
      "portræt": 8212,
      "mol": 8213,
      "smage": 8214,
      "##smateri": 8215,
      "drøft": 8216,
      "udform": 8217,
      "varsel": 8218,
      "chancen": 8219,
      "himlen": 8220,
      "##kunst": 8221,
      "fødsel": 8222,
      "skulder": 8223,
      "forskelle": 8224,
      "optimale": 8225,
      "studier": 8226,
      "bevægelser": 8227,
      "certific": 8228,
      "regionen": 8229,
      "##ageren": 8230,
      "tøn": 8231,
      "##bragt": 8232,
      "næse": 8233,
      "komprom": 8234,
      "##una": 8235,
      "computeren": 8236,
      "##vilkår": 8237,
      "##billede": 8238,
      "mundt": 8239,
      "pens": 8240,
      "enestående": 8241,
      "placer": 8242,
      "##fløj": 8243,
      "##ødning": 8244,
      "hæk": 8245,
      "fæ": 8246,
      "løsningen": 8247,
      "syr": 8248,
      "##ræner": 8249,
      "hæve": 8250,
      "##begræn": 8251,
      "##værdige": 8252,
      "producere": 8253,
      "smid": 8254,
      "##wor": 8255,
      "agent": 8256,
      "banken": 8257,
      "uforpligtende": 8258,
      "##rund": 8259,
      "##iserer": 8260,
      "udvide": 8261,
      "producent": 8262,
      "sædvanlige": 8263,
      "dronning": 8264,
      "varighed": 8265,
      "kolle": 8266,
      "fundament": 8267,
      "pt": 8268,
      "engagement": 8269,
      "hval": 8270,
      "behageligt": 8271,
      "##institut": 8272,
      "##phones": 8273,
      "infl": 8274,
      "##time": 8275,
      "investeringer": 8276,
      "modsat": 8277,
      "forsyn": 8278,
      "underholdning": 8279,
      "hormon": 8280,
      "involveret": 8281,
      "magasin": 8282,
      "argu": 8283,
      "hovedsag": 8284,
      "konflikt": 8285,
      "##pakke": 8286,
      "gemt": 8287,
      "##ædagog": 8288,
      "##ular": 8289,
      "børnenes": 8290,
      "foretager": 8291,
      "##isker": 8292,
      "partier": 8293,
      "ekster": 8294,
      "designer": 8295,
      "##uret": 8296,
      "##sborg": 8297,
      "depression": 8298,
      "ramte": 8299,
      "kloak": 8300,
      "##poli": 8301,
      "længst": 8302,
      "individuel": 8303,
      "smagen": 8304,
      "størst": 8305,
      "afg": 8306,
      "mekan": 8307,
      "observ": 8308,
      "23.": 8309,
      "##sop": 8310,
      "bug": 8311,
      "klem": 8312,
      "##alisere": 8313,
      "skide": 8314,
      "titlen": 8315,
      "##...\"": 8316,
      "mobiltelefon": 8317,
      "forekommer": 8318,
      "##ødder": 8319,
      "folketinget": 8320,
      "##tog": 8321,
      "rose": 8322,
      "sammenhænge": 8323,
      "##apper": 8324,
      "tyder": 8325,
      "##krig": 8326,
      "konserv": 8327,
      "sexy": 8328,
      "##industrien": 8329,
      "gods": 8330,
      "konfir": 8331,
      "skabte": 8332,
      "bånd": 8333,
      "sorg": 8334,
      "bibel": 8335,
      "cap": 8336,
      "##indhold": 8337,
      "##kol": 8338,
      "##esteder": 8339,
      "røre": 8340,
      "opfølgning": 8341,
      "ejeren": 8342,
      "ansættelses": 8343,
      "46": 8344,
      "ib": 8345,
      "##ætningen": 8346,
      "##shøj": 8347,
      "##gennem": 8348,
      "##melsen": 8349,
      "##branchen": 8350,
      "kaldte": 8351,
      "mex": 8352,
      "tank": 8353,
      "ler": 8354,
      "kunstnere": 8355,
      "##ray": 8356,
      "lik": 8357,
      "sving": 8358,
      "##station": 8359,
      "jubilæ": 8360,
      "##grundlag": 8361,
      "##atoriske": 8362,
      "##værd": 8363,
      "ændrede": 8364,
      "regioner": 8365,
      "læsere": 8366,
      "##æren": 8367,
      "foreligger": 8368,
      "##ensborg": 8369,
      "##æssige": 8370,
      "##lok": 8371,
      "omhandler": 8372,
      "##billed": 8373,
      "monteret": 8374,
      "betydelig": 8375,
      "repræsentanter": 8376,
      "koncep": 8377,
      "telefoner": 8378,
      "##talte": 8379,
      "spænding": 8380,
      "##dansk": 8381,
      "##organisation": 8382,
      "retss": 8383,
      "optimer": 8384,
      "karen": 8385,
      "##gers": 8386,
      "bopæl": 8387,
      "##drene": 8388,
      "##legetøj": 8389,
      "##revis": 8390,
      "arme": 8391,
      "vægge": 8392,
      "##aftaler": 8393,
      "##install": 8394,
      "kritisk": 8395,
      "forlod": 8396,
      "##foto": 8397,
      "##cerede": 8398,
      "##kningen": 8399,
      "opdaget": 8400,
      "gear": 8401,
      "vort": 8402,
      "overenskomst": 8403,
      "leger": 8404,
      "investere": 8405,
      "spørgeskema": 8406,
      "afklar": 8407,
      "##tiker": 8408,
      "tilhører": 8409,
      "væsen": 8410,
      "bestilt": 8411,
      "forrige": 8412,
      "begivenhed": 8413,
      "##yge": 8414,
      "email": 8415,
      "##kommen": 8416,
      "afslappet": 8417,
      "##cit": 8418,
      "##anken": 8419,
      "plade": 8420,
      "smukkeste": 8421,
      "forebyggelse": 8422,
      "sar": 8423,
      "kvalifik": 8424,
      "apote": 8425,
      "diabet": 8426,
      "##start": 8427,
      "interessen": 8428,
      "kilo": 8429,
      "bredde": 8430,
      "24.": 8431,
      "alarm": 8432,
      "netværks": 8433,
      "nervøs": 8434,
      "##askine": 8435,
      "fravær": 8436,
      "betydeligt": 8437,
      "indstillinger": 8438,
      "kælder": 8439,
      "materialet": 8440,
      "kanten": 8441,
      "klit": 8442,
      "##-/": 8443,
      "affil": 8444,
      "ulem": 8445,
      "but": 8446,
      "salat": 8447,
      "minutters": 8448,
      "##/4": 8449,
      "citron": 8450,
      "underligt": 8451,
      "##havet": 8452,
      "##iseres": 8453,
      "iværksætter": 8454,
      "årig": 8455,
      "vr": 8456,
      "farven": 8457,
      "ovenpå": 8458,
      "trygt": 8459,
      "nemme": 8460,
      "ond": 8461,
      "lyden": 8462,
      "##anven": 8463,
      "##andene": 8464,
      "##ente": 8465,
      "cool": 8466,
      "nom": 8467,
      "reflek": 8468,
      "integreret": 8469,
      "##væl": 8470,
      "##blom": 8471,
      "feri": 8472,
      "##areal": 8473,
      "emp": 8474,
      "##punkter": 8475,
      "your": 8476,
      "##meddel": 8477,
      "knog": 8478,
      "##løshed": 8479,
      "##forsyning": 8480,
      "opdager": 8481,
      "madsen": 8482,
      "arbejdspladsen": 8483,
      "unød": 8484,
      "hjulpet": 8485,
      "nordsjælland": 8486,
      "fair": 8487,
      "meningen": 8488,
      "##fyn": 8489,
      "##1)": 8490,
      "##ektion": 8491,
      "liggende": 8492,
      "##inar": 8493,
      "medlemskab": 8494,
      "lytter": 8495,
      "gun": 8496,
      "##tillinger": 8497,
      "##fod": 8498,
      "##fatte": 8499,
      "opgra": 8500,
      "forhåbentlig": 8501,
      "##cm": 8502,
      "fysioter": 8503,
      "##tika": 8504,
      "ydelse": 8505,
      "##iter": 8506,
      "udarbejde": 8507,
      "glip": 8508,
      "##feltet": 8509,
      "##ffes": 8510,
      "komplek": 8511,
      "stoppede": 8512,
      "spær": 8513,
      "bygges": 8514,
      "##gmail": 8515,
      "old": 8516,
      "liber": 8517,
      "installation": 8518,
      "nett": 8519,
      "opdagede": 8520,
      "workshop": 8521,
      "##parken": 8522,
      "etage": 8523,
      "datoer": 8524,
      "skilt": 8525,
      "##freds": 8526,
      "unikt": 8527,
      "laborator": 8528,
      "neut": 8529,
      "skræd": 8530,
      "udstillingen": 8531,
      "##box": 8532,
      "##ex": 8533,
      "styring": 8534,
      "##skur": 8535,
      "fortrol": 8536,
      "herren": 8537,
      "vinduet": 8538,
      "sammenhængende": 8539,
      "parterne": 8540,
      "##øvet": 8541,
      "træng": 8542,
      "foregå": 8543,
      "##agner": 8544,
      "##stige": 8545,
      "betjen": 8546,
      "drø": 8547,
      "fad": 8548,
      "##komme": 8549,
      "bun": 8550,
      "mog": 8551,
      "bakke": 8552,
      "henvises": 8553,
      "##ækket": 8554,
      "kollega": 8555,
      "tilmeld": 8556,
      "understøtte": 8557,
      "vendt": 8558,
      "anført": 8559,
      "sluttede": 8560,
      "gren": 8561,
      "skød": 8562,
      "døgnet": 8563,
      "zo": 8564,
      "levede": 8565,
      "##ao": 8566,
      "beboer": 8567,
      "synlig": 8568,
      "##itar": 8569,
      "##forslaget": 8570,
      "forbud": 8571,
      "##anda": 8572,
      "##fig": 8573,
      "tilføjer": 8574,
      "børnehave": 8575,
      "1-2": 8576,
      "koste": 8577,
      "kram": 8578,
      "##dsels": 8579,
      "medlems": 8580,
      "##viv": 8581,
      "simple": 8582,
      "creme": 8583,
      "skrå": 8584,
      "ryst": 8585,
      "ride": 8586,
      "produktions": 8587,
      "koncentration": 8588,
      "desser": 8589,
      "##!!!": 8590,
      "##elovens": 8591,
      "rigeligt": 8592,
      "beregning": 8593,
      "##foreninger": 8594,
      "refleks": 8595,
      "tos": 8596,
      "##inerne": 8597,
      "##iment": 8598,
      "##ografiske": 8599,
      "2018.": 8600,
      "fremtidens": 8601,
      "##konstru": 8602,
      "andelen": 8603,
      "blond": 8604,
      "indsatser": 8605,
      "byrådet": 8606,
      "accept": 8607,
      "flydende": 8608,
      "vo": 8609,
      "##sfri": 8610,
      "##analyse": 8611,
      "beskrives": 8612,
      "green": 8613,
      "dal": 8614,
      "udsalg": 8615,
      "hjemmelavet": 8616,
      "italienske": 8617,
      "tålmod": 8618,
      "generel": 8619,
      "studenter": 8620,
      "##ora": 8621,
      "##sselskab": 8622,
      "##appede": 8623,
      "afgørelsen": 8624,
      "##orter": 8625,
      "værdien": 8626,
      "##regel": 8627,
      "pisk": 8628,
      "##ye": 8629,
      "opstået": 8630,
      "skuespil": 8631,
      "##smag": 8632,
      "levetid": 8633,
      "fremstår": 8634,
      "##35": 8635,
      "##arealer": 8636,
      "bæl": 8637,
      "forpligtelser": 8638,
      "##till": 8639,
      "ent": 8640,
      "håndbold": 8641,
      "##anere": 8642,
      "individuelt": 8643,
      "##ydelse": 8644,
      "hvile": 8645,
      "instagram": 8646,
      "##sevne": 8647,
      "##lær": 8648,
      "tung": 8649,
      "##træk": 8650,
      "arkitektur": 8651,
      "udmærket": 8652,
      "fastholde": 8653,
      "overfladen": 8654,
      "##pine": 8655,
      "##dragelse": 8656,
      "britiske": 8657,
      "##ismen": 8658,
      "##wh": 8659,
      "jordbær": 8660,
      "træningen": 8661,
      "discipl": 8662,
      "afsked": 8663,
      "##uge": 8664,
      "##atoren": 8665,
      "##tians": 8666,
      "gensid": 8667,
      "##ums": 8668,
      "hon": 8669,
      "fastsættes": 8670,
      "##styrke": 8671,
      "håndt": 8672,
      "forandringer": 8673,
      "##plant": 8674,
      "afs": 8675,
      "jen": 8676,
      "gevinst": 8677,
      "parat": 8678,
      "1,5": 8679,
      "bure": 8680,
      "chauff": 8681,
      "julet": 8682,
      "tabte": 8683,
      "##oriseret": 8684,
      "##ledningen": 8685,
      "##kontakt": 8686,
      "kalk": 8687,
      "stige": 8688,
      "##ener": 8689,
      "hentet": 8690,
      "nøjes": 8691,
      "hat": 8692,
      "solgte": 8693,
      "##information": 8694,
      "optagelse": 8695,
      "male": 8696,
      "tall": 8697,
      "returner": 8698,
      "skibet": 8699,
      "##eskabet": 8700,
      "belæg": 8701,
      "scene": 8702,
      "beslutter": 8703,
      "forfatteren": 8704,
      "28.": 8705,
      "ødelagt": 8706,
      "sværere": 8707,
      "##iche": 8708,
      "##tokol": 8709,
      "ophør": 8710,
      "opmærksomme": 8711,
      "##tigheden": 8712,
      "##ku": 8713,
      "branchen": 8714,
      "47": 8715,
      "rense": 8716,
      "tube": 8717,
      "##cy": 8718,
      "##uch": 8719,
      "##kelsen": 8720,
      "kundeservice": 8721,
      "femin": 8722,
      "##indsats": 8723,
      "termin": 8724,
      "##umin": 8725,
      "strikke": 8726,
      "fanger": 8727,
      "##ærende": 8728,
      "##yndighed": 8729,
      "##holt": 8730,
      "målt": 8731,
      "##forløbet": 8732,
      "##ote": 8733,
      "branche": 8734,
      "##ublik": 8735,
      "##landsk": 8736,
      "begrebet": 8737,
      "##plej": 8738,
      "##sforløb": 8739,
      "udvend": 8740,
      "##ju": 8741,
      "oplyse": 8742,
      "kabel": 8743,
      "tilbuddet": 8744,
      "holm": 8745,
      "pædagogisk": 8746,
      "tidlige": 8747,
      "ligeglad": 8748,
      "restauranten": 8749,
      "##pad": 8750,
      "delvist": 8751,
      "##tm": 8752,
      "hey": 8753,
      "batteri": 8754,
      "træde": 8755,
      "##agelsen": 8756,
      "trekant": 8757,
      "ledig": 8758,
      "potentielle": 8759,
      "##az": 8760,
      "##amling": 8761,
      "##ånds": 8762,
      "27.": 8763,
      "##ampen": 8764,
      "logo": 8765,
      "klat": 8766,
      "styrket": 8767,
      "tour": 8768,
      "base": 8769,
      "kanal": 8770,
      "populært": 8771,
      "##nit": 8772,
      "tegner": 8773,
      "##rejser": 8774,
      "ikon": 8775,
      "##ging": 8776,
      "museet": 8777,
      "put": 8778,
      "undtagelse": 8779,
      "hjemmefra": 8780,
      "##komm": 8781,
      "frost": 8782,
      "##mal": 8783,
      "fur": 8784,
      "##tæn": 8785,
      "##fejl": 8786,
      "holdninger": 8787,
      "værelserne": 8788,
      "tegnes": 8789,
      "26.": 8790,
      "##stren": 8791,
      "charmerende": 8792,
      "kommand": 8793,
      "ekstern": 8794,
      "cir": 8795,
      "dollars": 8796,
      "danish": 8797,
      "kærligheden": 8798,
      "check": 8799,
      "skyder": 8800,
      "##ordninger": 8801,
      "##iljø": 8802,
      "kravene": 8803,
      "dru": 8804,
      "risikerer": 8805,
      "##agtig": 8806,
      "herved": 8807,
      "opv": 8808,
      "##ografisk": 8809,
      "kontoret": 8810,
      "##stræk": 8811,
      ",,": 8812,
      "##geren": 8813,
      "begreb": 8814,
      "bam": 8815,
      "indledning": 8816,
      "##jenester": 8817,
      "##hotel": 8818,
      "bent": 8819,
      "udbredt": 8820,
      "##drift": 8821,
      "sparer": 8822,
      "##ræber": 8823,
      "##teste": 8824,
      "eder": 8825,
      "fradrag": 8826,
      "beredskab": 8827,
      "dokum": 8828,
      "supplerende": 8829,
      "2003": 8830,
      "æstet": 8831,
      "##jour": 8832,
      "##virkning": 8833,
      "tynd": 8834,
      "militær": 8835,
      "afgang": 8836,
      "konstruktion": 8837,
      "milliarder": 8838,
      "##æve": 8839,
      "##kommer": 8840,
      "##sset": 8841,
      "##klæde": 8842,
      "køleskab": 8843,
      "##visningen": 8844,
      "bevidsthed": 8845,
      "herinde": 8846,
      "konkurrencen": 8847,
      "sperm": 8848,
      "kompleks": 8849,
      "etn": 8850,
      "journalist": 8851,
      "stillinger": 8852,
      "skabes": 8853,
      "strip": 8854,
      "va": 8855,
      "eksisterer": 8856,
      "12,": 8857,
      "120": 8858,
      "dybe": 8859,
      "##dist": 8860,
      "koncept": 8861,
      "cy": 8862,
      "##skilt": 8863,
      "##rød": 8864,
      "louise": 8865,
      "##dm": 8866,
      "##sering": 8867,
      "##ision": 8868,
      "renter": 8869,
      "etableres": 8870,
      "høst": 8871,
      "gig": 8872,
      "transpor": 8873,
      "##rapporten": 8874,
      "overraskelse": 8875,
      "##rerede": 8876,
      "gennemgået": 8877,
      "begrun": 8878,
      "afsæt": 8879,
      "angri": 8880,
      "virkelige": 8881,
      "##ros": 8882,
      "##lel": 8883,
      "grand": 8884,
      "##65": 8885,
      "rødt": 8886,
      "legal": 8887,
      "udp": 8888,
      "kartofler": 8889,
      "dybde": 8890,
      "harry": 8891,
      "trist": 8892,
      "##højde": 8893,
      "blodet": 8894,
      "##pension": 8895,
      "indbet": 8896,
      "mærkeligt": 8897,
      "##ott": 8898,
      "indholds": 8899,
      "anmodning": 8900,
      "rejst": 8901,
      "faktum": 8902,
      "kæft": 8903,
      "run": 8904,
      "services": 8905,
      "##mødet": 8906,
      "skibe": 8907,
      "hospitalet": 8908,
      "nark": 8909,
      "##esen": 8910,
      "##arn": 8911,
      "testet": 8912,
      "spændt": 8913,
      "træet": 8914,
      "essen": 8915,
      "##verdenen": 8916,
      "##habil": 8917,
      "public": 8918,
      "karl": 8919,
      "bras": 8920,
      "lægemidler": 8921,
      "snarere": 8922,
      "##rad": 8923,
      "sammenligning": 8924,
      "heldige": 8925,
      "sau": 8926,
      "indbygget": 8927,
      "sprøjte": 8928,
      "##træning": 8929,
      "korrekte": 8930,
      "høn": 8931,
      "##hjer": 8932,
      "taber": 8933,
      "eva": 8934,
      "behandlinger": 8935,
      "uheld": 8936,
      "##oci": 8937,
      "forkæl": 8938,
      "fans": 8939,
      "professionelt": 8940,
      "reklame": 8941,
      "3)": 8942,
      "atom": 8943,
      "##ensation": 8944,
      "mas": 8945,
      "sofaen": 8946,
      "elevernes": 8947,
      "##ophold": 8948,
      "samlinger": 8949,
      "##ble": 8950,
      "drengene": 8951,
      "begrænsninger": 8952,
      "sjæld": 8953,
      "udskiftning": 8954,
      "melde": 8955,
      "lufthavnen": 8956,
      "forbehold": 8957,
      "halve": 8958,
      "lolland": 8959,
      "søgte": 8960,
      "juleg": 8961,
      "##zon": 8962,
      "##ence": 8963,
      "mandlige": 8964,
      "faktor": 8965,
      "##sland": 8966,
      "tilpasset": 8967,
      "fødslen": 8968,
      "##listen": 8969,
      "##nel": 8970,
      "konting": 8971,
      "##2)": 8972,
      "idi": 8973,
      "gennems": 8974,
      "fjerner": 8975,
      "##stens": 8976,
      "bytte": 8977,
      "voldt": 8978,
      "drengen": 8979,
      "informer": 8980,
      "##gørende": 8981,
      "tegnet": 8982,
      "website": 8983,
      "vurderet": 8984,
      "påske": 8985,
      "konkurrenc": 8986,
      "##skin": 8987,
      "smed": 8988,
      "est": 8989,
      "##skade": 8990,
      "nyhedsbrev": 8991,
      "##blem": 8992,
      "##estol": 8993,
      "beskad": 8994,
      "##reber": 8995,
      "muslim": 8996,
      "negativ": 8997,
      "##gebyr": 8998,
      "hals": 8999,
      "henviser": 9000,
      "forekomme": 9001,
      "selvstændigt": 9002,
      "spot": 9003,
      "omh": 9004,
      "påvirket": 9005,
      "festen": 9006,
      "eksist": 9007,
      "venskab": 9008,
      "##-15": 9009,
      "gyn": 9010,
      "street": 9011,
      "##markedet": 9012,
      "lykkelig": 9013,
      "tilpasse": 9014,
      "##aminer": 9015,
      "##prin": 9016,
      "langsom": 9017,
      "##støj": 9018,
      "træffes": 9019,
      "fokuserer": 9020,
      "##revne": 9021,
      "##prøver": 9022,
      "##forskning": 9023,
      "##bureau": 9024,
      "diskutere": 9025,
      "opfordrer": 9026,
      "vine": 9027,
      "latter": 9028,
      "yoga": 9029,
      "##elever": 9030,
      "forberedt": 9031,
      "opsætning": 9032,
      "##spligt": 9033,
      "sikres": 9034,
      "forholds": 9035,
      "##elet": 9036,
      "kristian": 9037,
      "måneders": 9038,
      "##sområder": 9039,
      "sydlige": 9040,
      "##egang": 9041,
      "##ibil": 9042,
      "##odt": 9043,
      "jævnligt": 9044,
      "##avne": 9045,
      "truffet": 9046,
      "taknem": 9047,
      "##tikken": 9048,
      "offic": 9049,
      "vels": 9050,
      "fiskeri": 9051,
      "##evne": 9052,
      "optimalt": 9053,
      "bogstav": 9054,
      "sande": 9055,
      "underviser": 9056,
      "afholder": 9057,
      "hhv": 9058,
      "##tiks": 9059,
      "nedbr": 9060,
      "##oph": 9061,
      "feed": 9062,
      "praktiser": 9063,
      "politikerne": 9064,
      "##bede": 9065,
      "ejendomsm": 9066,
      "dildo": 9067,
      "##kasser": 9068,
      "##gener": 9069,
      "billetter": 9070,
      "mikkel": 9071,
      "##rådgiver": 9072,
      "seg": 9073,
      "beklæ": 9074,
      "resterende": 9075,
      "marketing": 9076,
      "tillids": 9077,
      "sønderjylland": 9078,
      "##aktiver": 9079,
      "##ændringer": 9080,
      "##autom": 9081,
      "elektroniske": 9082,
      "##log": 9083,
      "jazz": 9084,
[...]
