[PAD]
[UNK]
[CLS]
[SEP]
[MASK]
##er
##en
d
s
##et
a
f
m
o
h
##in
##or
##an
##ti
##ed
v
##el
b
i
k
##ig
p
##ar
og
##es
for
##de
l
er
g
ti
##st
##ing
en
at
##al
n
##re
t
##om
til
det
af
##ke
##eg
##le
##ag
u
##on
vi
j
##ter
##der
på
der
##ne
med
##te
##is
##ver
##un
##ra
##ør
##ler
de
st
##sk
sk
##ol
##kke
den
##den
r
hv
##se
##lig
##il
jeg
##ær
##am
##år
du
har
in
ikke
##ge
##dt
##ning
som
##at
##og
om
ud
kan
##ve
et
##ik
e
##and
an
-
så
op
al
##ede
##ad
##it
##ere
##æn
##ro
men
##ej
##ende
##ru
##hed
el
##as
##ur
##æl
var
man
c
1
##tion
##ri
##ser
bl
##del
##ul
##sen
##av
##for
vil
##ste
##ger
sam
hvor
##ker
sp
##ds
fra
##ræ
##mer
2
kom
##ek
eller
##ab
##em
##ige
skal
ved
##ent
##fter
væ
over
##od
##us
##id
ind
han
##ang
un
##me
##ens
##est
##det
##else
##age
må
##øj
sig
min
##erne
##ok
re
kun
nog
hel
##ak
##så
##ske
##øb
##lev
her
##bej
efter
##ort
se
##lige
##pp
ar
##iv
være
##ov
##tig
også
##iver
##yn
##hol
##til
##ud
##yg
##ks
(
##ling
##ist
##ft
##ation
kon
pro
##dre
år
##æg
##men
kl
sel
##øn
ny
dig
hj
##eget
##ot
bru
blev
##sp
##elig
bes
hvis
dan
##yr
##dan
##gen
##kt
##æt
##ave
##ut
din
##øl
##und
be
##lem
fin
go
vær
selv
##ale
##um
"
under
gen
før
##ligt
meget
mig
##ive
##..
##dr
##vær
##op
få
##ir
##let
hvad
alle
##end
pr
##isk
når
##tet
##rem
##ic
##os
##ff
##øg
sm
hav
##art
##ken
20
arbej
fl
nu
3
si
##ød
##var
end
li
##vis
##øre
pl
##yl
da
tr
##ager
##igt
bar
hun
gr
##eder
##ket
##ret
##elt
##nes
per
mere
stor
br
vor
kv
##sm
dag
##ie
mange
læ
##ene
##ber
mu
sl
##yk
##sl
##...
##skab
bet
##ion
noget
frem
##este
mo
##tid
##nem
##ingen
##itet
vores
bil
##ner
havde
dem
bliver
##ass
w
vir
##uk
##ninger
kunne
##lighed
##ant
have
tilb
godt
##di
##æng
denne
##iske
##ark
køb
##per
##tiv
##elser
##net
##be
##els
##ring
bed
##yt
fr
alt
##ys
ø
##elsen
##son
##ten
hol
komm
tid
##alg
##lere
bør
dette
to
##jer
lig
jo
##ac
os
##kl
høj
##mp
andre
##rå
sin
##igtig
##ast
brug
udv
##yder
or
kr
##hold
##dag
##00
##ven
##tik
deres
beg
##ap
##ade
##tisk
forsk
4
##ord
uden
ret
##ån
##eret
sex
##ci
lige
helt
##agt
fort
##alt
##arbej
reg
##gang
##delse
##led
lidt
sammen
par
del
##ater
forb
##ningen
god
hver
5
sik
##ch
ser
##im
##des
##eb
##læg
ra
##ier
hjem
nogle
gra
får
sid
beh
##ss
##dig
bare
##inger
gl
##ster
le
ch
kont
mel
##sker
mod
vej
##før
næ
gennem
hele
##pl
gør
##ce
været
201
##land
træ
form
ven
forskel
##ien
fors
sy
ad
##ksom
føl
kvin
kommer
person
##aler
ned
##ess
flere
blive
##ange
##ille
##aget
igen
##riv
sen
##avn
samt
th
##åde
##ål
##øde
##org
skul
hvordan
nat
ham
hen
inter
hjæl
##les
##åb
nye
inden
lang
##af
derfor
##ine
gang
ma
ek
##ind
eg
##tem
##ug
mellem
##dende
##ænd
##mel
hvil
ville
##ekt
##dere
##sten
##pe
stør
##elle
sø
ans
gøre
gå
dr
far
skulle
første
ak
ty
##ub
##ma
##andt
både
##ksomhed
6
##ans
dis
går
land
øn
liv
store
##ob
##æk
##mark
##ide
##nings
besk
19
prod
##øm
##vej
##vet
mass
##edet
børn
##kom
ver
##ult
##ost
mulighed
dit
hos
syn
##øs
##over
##tes
##dk
vel
##gør
##pr
des
forskellige
præ
mor
##red
di
udvik
##føl
##oli
##min
andet
##tal
##sæt
sn
so
net
nok
sag
##get
anden
sikker
fol
siden
tilbage
##io
grund
dog
spil
##met
##kelig
dat
giver
##aver
altid
##elses
finde
samme
fik
##orn
##sb
##kon
hans
##cer
##ånd
##hus
mennes
ev
massage
res
##ati
su
##tere
##anden
on
##au
##ørg
tæn
##fte
##ppe
sv
ingen
natur
rigtig
vand
bag
ly
by
mand
7
##tige
stil
byg
##fl
nem
##).
##enter
dansk
##ald
##giv
væl
pen
##ets
disse
fun
lille
##ister
blevet
arbejds
##andling
##len
##derne
virksomhed
måske
løb
fordi
omk
##endes
kommun
tilf
##lede
dine
sådan
##gende
##je
##ads
##amp
##jen
gerne
danske
##dann
##ings
##akt
##bl
##tiske
##form
8
siger
arbejde
##ære
##alitet
komme
opl
jer
tage
mil
skab
##unkt
##gi
verden
##asse
åb
##nu
##uld
##iger
bedste
es
##mes
##havn
inds
##kel
##under
danmark
##ef
sæt
10
lav
sidste
##ører
hov
sit
nogen
pris
tra
##som
hus
skri
##olog
ting
##ram
##rop
##hver
gode
##asser
side
sær
vin
##ligere
gam
##vi
y
hur
##amil
mar
.
rå
##ktion
plan
##atte
##stå
nær
##rer
vide
gj
områ
klar
##ader
##med
str
##istor
fil
best
gener
måde
##dom
##rug
##tis
valg
is
prø
kvinder
##uds
##pper
##bet
lov
inde
##ust
##ræk
forhold
vigtig
kra
200
##tte
hand
fast
##eks
eks
ja
kn
øj
sj
##heder
##gr
omkring
led
##tigt
poli
bor
tro
lever
mit
##aft
##æv
æn
##ard
##ole
stad
spørg
prob
tv
hal
9
##fat
##borg
##ationer
bruge
lok
begyn
lu
læng
mål
spe
##sel
##eligt
##old
give
##heden
##gå
mest
hende
porn
ønsker
##yd
fortæl
##ppen
tre
##ække
##rol
tek
nor
##ow
##tilling
famil
##ia
aller
##br
bruger
fø
##jek
##ay
fri
##enhavn
##far
te
sted
hånd
tager
bek
virkelig
##styr
bedre
off
##ester
##delig
rej
speci
stadig
mån
ber
##ledes
københavn
##pro
eu
spørgsm
kort
ken
hoved
##esk
ro
bo
##iner
##ev
mennesker
##mær
,
##ældre
lær
im
##all
tur
vis
##stra
hjælp
mindre
mine
aldr
hvilket
met
histor
gratis
bol
hår
ben
##reg
endnu
aldrig
##ai
væk
medlem
blandt
red
##løb
##iser
##of
delt
kal
fæl
mænd
##inde
'
finder
sol
udvikling
##undt
uds
##leder
let
ligger
18
##stru
lej
svar
##ande
produk
mens
##arbejde
##idt
kræ
fået
muligt
##lerne
##sh
##anske
folk
##uden
##søg
##are
##vir
uddann
hvorfor
##ges
står
tror
##),
kar
##up
##går
am
opg
nyt
##cent
bog
##antas
##vend
bi
først
forbin
##sn
gange
nød
gæl
##øger
fantas
##bil
set
1.
##vel
mad
små
##hj
ændr
##sti
styr
##sted
oplev
##yld
egen
ord
fær
række
sige
##byg
##iet
##ces
##ærk
##by
spørgsmål
##kte
samtid
esc
##terne
hold
##line
##oner
modt
kvalitet
##øv
##bo
ski
##æss
fak
ofte
soci
komp
##stem
unge
kor
mind
hot
##li
ide
ej
års
##tede
##tivitet
gik
ekse
kær
mark
##elige
escort
##heds
sæ
læg
po
bestem
##mere
produ
fælles
##ænge
##ank
##lag
dage
##teret
##holder
##dsp
##utter
15
synes
dej
bev
##gt
eksemp
længere
##la
12
##vic
mus
##rak
##set
vok
hendes
stort
lave
større
##hæng
##ytte
##dens
kø
udt
kri
##nen
dire
fal
sh
##000
ren
søn
allerede
rel
svær
##rift
##ren
lad
findes
forbindelse
0
sund
tak
langt
##par
##agen
##syn
tog
nord
##stand
rig
##konom
ca
tidligere
sagde
faktisk
mang
##kker
##fer
##".
online
spr
##rik
tag
##ryk
rest
##teg
##ck
dyr
penge
bu
udvalg
start
##entlig
##ise
oplys
ram
dy
und
gru
fag
samtidig
behandling
##ateri
##cep
holde
ko
##iden
tilfæl
##sent
forh
fi
##gelig
rundt
altså
søger
lo
ener
næste
sommer
prof
em
##olen
sine
kol
bel
##ue
##aff
##tag
gamle
##bef
øv
hjælpe
giv
org
##delige
##områ
betyder
hurtigt
smu
stand
mø
fok
eff
tel
sc
##ykke
##orde
lin
piger
tal
##eller
tale
videre
æg
fuld
##yst
##fik
kør
##tive
##ogram
result
råd
##kede
##tu
##jø
tæt
mid
##undet
stra
løs
##ejl
tab
ekstra
erhver
##>>
##telse
afsl
nej
hjemmes
mær
##esse
leg
plads
hvem
medarbej
fordel
priv
viser
##ts
forv
konk
##ræn
##fra
##kes
eng
hu
således
hør
##une
##tioner
kur
kir
læs
stedet
morgen
##alis
...
behov
##urder
##aa
kvinde
stat
hin
##tivt
tiden
##eter
købe
ab
kæ
##delser
sand
##sion
slag
besl
##revet
hvert
tekn
##ultur
aft
x
kontakt
jul
nødvend
##ont
vigtigt
web
haft
##ym
##ført
##rig
foret
grøn
enkel
2.
næsten
anbef
økonom
##sat
fer
glæ
vælge
billeder
viden
yder
film
##øren
tem
##iveau
##brug
##mar
##ummer
##aling
##alet
enk
arbejder
flot
##tim
##ationen
sto
##skaber
##ansk
:
erhverv
##anis
##po
inv
teg
##lik
nemlig
##lever
thai
super
blot
##ip
##nede
erfar
/
lå
stø
ter
undersøg
##lemer
##fordr
##",
11
##uelle
liges
##efter
gu
aften
##ration
##ders
halv
problem
eksempel
##endte
##rev
desig
z
besøg
us
ann
video
kat
igennem
##yde
sikkert
spæn
%
ele
indt
##mid
##lad
syg
##iller
taget
kommune
servic
##ikker
laver
##edes
##jekt
rol
beslut
timer
##fyl
14
sker
ring
##deligt
##øse
fokus
30
vid
##endom
fjer
##ider
##ate
##fær
ol
bolig
lavet
##ator
fleste
selvføl
kig
ris
ul
mindst
skøn
mener
nå
##snit
antal
musik
##slag
ude
##rag
##alen
norm
##one
##terer
star
porno
især
gjorde
lys
##dte
barn
læse
forstå
##sam
##osi
ansvar
tan
kamp
##plan
##uder
undervis
job
enkelte
##efon
ho
stk
kap
##tek
pri
##ask
gjort
selvfølgelig
hotel
##rum
16
funktion
stem
begge
skabe
##atur
event
##udv
ban
udb
elsker
##unde
hinanden
senere
oplysninger
mon
17
ung
>>
aut
##præ
##ga
bud
##værk
hjer
##ligvis
enkelt
##dighed
dom
no
ok
ellers
rum
co
##skabet
com
sat
samarbejde
##sf
##vn
dæk
ful
nr
##akke
via
aktivitet
længe
værdi
selvom
ut
##unden
luft
##kende
##amer
krav
##mo
##læ
##rede
##20
##beh
the
##ance
##bi
ps
##tel
politi
##tille
netop
##vand
kultur
stå
##øver
##entet
##stre
##rin
materi
##atter
forl
vurder
anven
svært
kunst
tilbud
##ved
hyg
gar
##<<
største
vist
##sdag
bestyr
fantastisk
bruges
##ledning
##-1
##ogra
##ylland
##ikke
##giver
anal
fly
jan
projek
##ession
cent
herunder
##ich
##orden
##bar
pige
##ben
nø
almin
##ffer
indtil
inform
sikre
midt
cyk
ne
##ct
virksomheder
##deren
##vor
måned
13
navn
##akter
eneste
##året
familie
skole
tør
holder
##gru
tilfælde
møde
gælder
##øge
ju
##uer
##cen
anv
##ris
problemer
25
sagt
##ps
##int
##van
##menter
direkte
hvilke
##edt
perio
heller
opmær
hjemme
kender
##uler
##delsen
fem
adgang
sæl
følge
sjæl
##if
europ
perf
##står
##aden
syd
elever
afgør
##ori
fred
100
effek
ejendom
ske
dår
desuden
fortæller
øvr
##kken
##træ
vind
passer
plac
foren
##ure
##ift
app
##ron
mis
hæn
ældre
##vid
bas
slut
højt
hens
##ry
##esser
løbet
ni
fire
grad
opret
lyst
fot
lækker
prak
tru
3.
##klar
##our
##skud
dermed
spændende
omfat
brugt
##ann
ligesom
dok
##ytter
uge
##oler
##orer
##ack
steder
arbejdet
slet
fys
##sy
##sfor
personer
produkter
telefon
sætte
klub
størr
regn
##fol
måneder
##reb
##leje
##ital
##føre
##holde
##aur
##sens
leder
##kning
##dspunkt
psyk
samf
##øst
masse
ang
model
måtte
fores
##ykker
medlemmer
##grund
jeres
##stitu
##vin
minutter
fac
udgang
##com
##ill
pati
fod
dagen
dren
##.000
rejse
fald
velkom
##lej
##ses
følgende
forældre
risik
##rør
##ko
##rej
fyr
indsat
##fin
##anter
insp
##åd
##æst
salg
##gene
handler
posi
børne
kontrol
bro
ac
##leg
##elserne
sti
##ioner
opn
##itter
##hen
tilbyder
pik
fejl
opd
produkt
alene
byen
##skri
##her
program
fyl
##ativ
varme
##ban
##gæl
hed
##lagt
fis
kro
køre
intern
hvilken
##anset
gav
seks
50
jun
##plad
projekt
bur
##tionen
##spunkt
udfordr
maj
muligheder
##lo
##ite
fx
##res
billed
miljø
ses
pass
##da
bem
hurtig
dele
##jerg
dating
område
prøve
tøj
##ina
##jeg
##tra
##dene
kil
luk
annon
hjemmeside
området
indeholder
skrive
varm
##værende
##ograf
##ib
sygdom
##fri
##ppet
imp
syge
##ligevel
##ikring
1,
##bru
energi
borger
rigtige
lade
bedst
alligevel
hå
##kort
fandt
forsøg
##marks
kommet
##række
offent
arr
uanset
##køb
sor
##ivers
##yster
##use
##holdet
gud
sket
ene
##skil
##ph
krop
skær
##aske
mag
vest
høre
pop
lejlighed
##uter
intet
##tering
##melse
##to
##serne
##deling
##følge
lokal
livet
mot
aar
derefter
stille
opfyl
##tiver
oven
skyl
disk
nemt
fa
##spro
##stæn
lokale
uger
##aven
køkken
resultat
mart
sjov
samlet
ganske
fundet
vejen
##ful
masser
læge
løn
gul
tran
organis
##tiden
car
situ
græ
##oder
##du
##løs
kæmp
service
nøg
billig
tjen
søg
forvent
skov
tidspunkt
##arbejdet
##he
##mand
##holds
##ologi
##ht
##eten
historie
mat
nettet
##irk
##pport
##blik
##ftig
nav
enten
##duk
præc
##ante
mød
ob
danmarks
##akker
##ævn
##fil
##sek
##pen
kræver
##yttet
ejer
ander
design
sprog
lev
venner
bal
indenfor
##ktur
vol
dø
##cept
##stat
lide
bid
##varer
åben
spiller
stud
##ningerne
##ået
rom
##frem
konkur
##uel
ær
sidst
ha
##ydning
ryg
imod
##lin
sil
##lende
##mæss
simp
data
fint
cm
##1.
##center
he
of
test
slags
top
##uddann
##mon
we
il
##....
søge
fortsæt
##ium
part
##sport
vælger
##digheder
##ærer
tviv
##ension
sidder
dyb
##stil
drøm
##bol
prin
##icin
voks
gået
artik
privat
eget
ønsk
sej
region
behand
##ative
##mest
særligt
##hør
lære
##mende
penis
dri
##ålet
foreg
##værre
tor
##ighed
øjeb
##isten
enhver
int
##ell
##foren
##udover
regist
ex
sætter
niveau
##ånden
##ogn
ge
univers
håber
lø
social
glad
græn
sku
##dent
smukke
indlæg
##bat
##gifter
##givet
freder
##lingen
##holdt
udtryk
##endt
##abler
lærer
jord
mør
##agelse
fj
tænke
velkommen
stær
hverdag
snart
ste
virker
##aner
foran
##fører
##ages
klass
desværre
##ations
##fr
##bin
##kn
##."
ønske
internation
anlæg
sal
mobil
støtte
rent
24
sikkerhed
sek
træn
##affe
comp
##spil
##ygt
uddannelse
##linger
##kerne
butik
ferie
##lys
rød
##på
udgangspunkt
væg
forbed
##yng
##hand
##uelt
hjælper
amer
seneste
engang
skriver
fug
##ore
##spl
##ons
bestemt
##unk
lag
egne
##qu
rigtigt
blog
mærke
##melig
begræn
smag
øjeblik
##fald
dec
spille
højere
udg
bryster
inst
ifølge
dk
##ammer
##irma
popul
lar
hæ
hej
##str
gammel
##bog
kost
##føres
tvivl
##anger
medarbejdere
skat
barnet
forret
##ode
fat
##væg
tilg
##ond
##dition
##yse
afslut
lande
tom
nation
kører
forn
##dige
væsent
##jylland
##elsk
procent
mask
billede
40
lyk
tilfred
fortælle
anvendes
kærlighed
##rup
4.
##smæss
ens
##øjer
##ales
tilst
mangler
sundhed
farver
landet
regler
##mens
tids
opgaver
restaur
akt
taler
tysk
vægt
føler
udsk
##esten
ka
profession
å
log
stod
yderligere
199
motor
##erede
##når
normalt
blod
proces
information
givet
baggrund
okay
områder
##man
##han
ark
fakt
##aller
bred
##berg
drift
blom
særlig
##idler
udstyr
alvor
skrevet
køn
kunder
hvid
##bu
##vede
behøver
aarhus
hund
##bart
##egn
amerik
spise
sport
marked
##spr
dejlig
vise
and
endelig
repræ
##entar
opt
sep
2,
sw
anmel
##assen
##agra
naturligvis
kommunik
godken
internet
##leve
sort
relev
##oen
oplevelse
bestille
elekt
##hjæl
##kal
opmærksom
medicin
interesser
##følgende
##erer
bad
forklar
##øje
sæson
##hel
##gte
begynder
borg
##vem
selskab
##fal
død
##minist
##agere
bus
betale
formål
føds
##2.
##ral
sociale
bygge
ag
##leks
tænker
tvær
##yre
egentlig
funger
kirke
hensyn
følger
##lek
tryk
bereg
erfaring
aftale
##mail
##mu
##bud
okt
glem
##tende
##gift
##lejer
##sv
##bes
reger
##uar
brand
##50
klart
##ringer
vinter
##ering
overvej
smuk
##anlæg
kompeten
består
forslag
valgt
året
bestyrelsen
tri
resten
ansøg
typ
##skrift
børnene
køber
spør
fo
kontak
##huset
##plads
##nende
pæ
juni
##holm
sæd
aktiviteter
##ceret
aug
mill
##ah
møder
træning
##unds
påvir
##stilling
tun
ero
##inister
##apir
##enti
tred
karakter
##bjerg
##oven
bevæg
finans
##kost
dræ
verdens
##inge
post
##givning
##co
till
derudover
studer
opnå
frække
##uren
##gørelse
burde
##raks
smer
trods
perfekt
sider
hum
##bel
bemærk
##ftet
##hjem
energ
mæng
##tighed
projektet
apr
betydning
(1
##års
##mi
opdater
hor
##høj
peter
rette
kendt
begyndte
foruds
##hov
bogen
mail
##ræt
etabler
fro
##za
km
##området
time
##dense
sundheds
glæde
##ose
sch
konkret
ægte
##stemet
##ment
stig
##liv
it
ta
stri
##raksis
nødt
beskæ
sør
huset
##anch
##alte
lange
##siden
##ander
##ligheder
usa
resp
##dagog
viagra
2018
2017
bræn
resultater
2015
##tids
kæmpe
##ink
hvornår
##bold
gruppe
særlige
gem
inkl
jf
##atisk
##gaard
##rørende
##ras
##30
##bro
##estyr
odense
find
mi
heldig
januar
krig
sko
forløb
la
##middel
betaling
##dat
efterfølgende
indgå
sa
bade
lyd
##rat
nævn
rør
pot
indhold
frederik
kommunen
mm
færdig
abs
evt
offentlige
##pligt
aal
lyder
priser
##stø
val
sagen
##rekt
##rav
suc
undgå
as
uddannelses
værd
holdt
samlede
utrol
konst
præsen
hedder
opgave
administ
skj
bøger
##mod
##vist
farve
##uen
##gere
forfat
kroppen
##2,
planlæg
##gede
stærk
beskriv
##esp
cl
stykke
størrelse
##mad
leve
moderne
##nal
bab
##mor
eksper
dam
øst
bær
##gelse
øg
feb
sammenlig
##ly
##æb
periode
##tr
week
##aks
træk
indiv
nødvendigt
##udvik
##kelige
private
offentlig
general
hører
mist
generelt
##ætter
##visning
##agn
meter
autom
fjern
fig
##iz
kurs
neg
gennemsnit
modtager
føde
løsning
skol
rammer
id
aalborg
2014
##alog
##tier
tit
vidste
erhvervs
pluds
varer
ende
##raft
tilgæng
hy
overra
øvrige
andel
2016
spar
21
##fang
##klub
beløb
kroner
##ukker
##ian
fest
bekendt
detal
husk
##ument
foræl
##behandling
here
nuværende
løbende
åbne
##delses
slå
konkurren
høje
jes
kæreste
specielt
ked
forbi
skolen
##mil
tradition
port
##mellem
##vs
5.
politik
##fo
##ustri
budget
ing
fisk
ir
##gu
##fæl
bort
glas
##vare
mik
##ach
idet
sten
vækst
skil
##fort
gravid
personlige
rus
helst
##rivil
nummer
dejligt
voksne
venstre
##tian
##værelse
##ile
bebo
##udvalg
##ja
produktion
##ampe
##ember
skaber
invester
gæ
neden
##fuld
##iel
udvikle
##tern
hul
læk
kj
##vil
artikel
ph
lån
##201
højre
##abil
succes
oprin
fortsat
chris
##ående
selve
præcis
bland
##app
##vok
kommende
##nere
##ty
simpelt
lagt
ci
kred
##oret
team
##essour
##yser
##kår
##ætning
nyde
##aster
udn
##varende
trafik
indret
dens
0,
mods
##ta
alder
##værks
adr
##fic
kendte
transport
##ha
fungerer
fej
60
##3.
universitet
fre
##inds
cit
##ørs
##anti
##ørn
imellem
##ober
kraft
virksomheden
##øjet
fedt
pa
mening
huske
retning
familien
bank
pol
overfl
prøver
vari
døde
gældende
typisk
undervisning
char
stol
##gerne
individ
herefter
muse
forstår
århus
menneske
eksister
##skyld
datter
oplever
december
tilp
hud
hom
##asin
##eren
ændre
udel
praksis
frisk
fræk
blå
instru
pub
regel
##iler
klin
skrift
frug
##ømme
##ou
ligel
jorden
##stændig
indsats
nov
bilen
sende
bekym
tekst
##,"
tilmel
pig
smart
##feren
type
recept
##tre
gro
klare
sove
##terede
starter
##teres
##dede
kry
##beg
computer
##afil
##tember
samarbej
van
##hn
##abel
klasse
ændringer
myn
##iti
institu
special
system
frivil
skyldes
sød
spur
marts
ligeledes
##adet
oktober
##fa
fisse
øl
##kald
dør
oper
bygger
udl
opleve
partner
##elsens
##reret
server
kre
afhæng
##æd
nærmere
##inen
tant
aner
##fly
##atet
spillet
værkt
##sning
##gj
##sminister
##ologiske
stru
sammenhæng
studerende
##oer
hårdt
##skl
kop
##okra
##ancer
læser
september
april
apo
iden
##stående
bidr
##10
##hjælp
prisen
strateg
interess
##ffet
##3,
afsnit
##jæl
tot
##produk
##keligt
kombin
gift
##peratur
##ologisk
##fun
tand
forst
kul
##deles
pædagog
##ænger
ufor
søndag
vandet
skyld
##vember
vedlige
me
##ding
udsigt
26
new
##obb
##ensen
##akken
##vejen
##person
sidde
august
##forløb
folke
##sigt
firma
patient
overrask
forsikring
##fag
pludselig
are
øjne
interesse
##unkter
patienter
paa
vild
handling
tilsyn
flotte
klim
minim
nogens
##ca
##orm
##viser
##ny
##iven
styrke
november
kateg
bon
midler
kold
##port
kaffe
##iens
almindelige
anderledes
lør
belig
europa
##anten
osv
##kræ
##isering
##cel
materiale
sjovt
##dæk
##5,
øvrigt
##9,
##besk
gent
glæder
##ement
##råd
beskæftig
lignende
##ativt
##åg
##ierne
##ash
hvide
konsek
meg
lægger
vejledning
ital
plad
28
endda
ten
##kont
pct
kommentar
##hav
##færd
strøm
frit
##mask
3,
##dage
ungdom
omkost
vurdering
##fremt
ur
##gående
##æring
udgifter
måder
tils
##ail
ed
27
##-2
foregår
punkt
vigtigste
anvendelse
##tter
kapit
##skole
drikke
bestil
##løse
antallet
ødel
##ebo
beting
sad
arrange
##okol
viste
##slut
##abet
nogensinde
typer
såfremt
tegn
deltage
mal
afh
forber
##amen
kons
supp
parker
lægge
ry
6.
gave
europæ
forker
højde
##ase
stærkt
lørdag
regnskab
krist
##ygge
næv
kontakte
politiet
##ton
##ætte
pågæl
##ragt
lækre
vent
troede
afdeling
brugte
##olut
##ape
chat
hovedet
fremtid
flyt
##iration
koncer
##sætning
dels
##ymn
ford
##ick
##forsam
##aer
pe
mio
eksempelvis
ressour
chri
##okken
altern
##ins
effekt
##1,
##æde
##elset
##ho
pension
cirk
##somt
##pris
sandsyn
##9.
##/2
##ude
integ
besked
##jerne
##hv
starte
##tom
##værdi
##valg
##usion
udover
registrer
lod
dyg
kunde
cykel
senest
sælger
fine
22
##område
smil
revis
hygg
omfang
##kor
sender
fyldt
##yttelse
rejser
situation
valgte
vig
##pt
identi
##årige
kolleg
eleverne
skete
købt
venlig
##beret
##folk
##idst
kone
retur
san
pågældende
pæn
kg
øje
cialis
ref
borgere
standard
kontra
meddel
##sættes
søren
##gade
##ægt
udenfor
ringe
##inder
bord
radi
sang
mer
skriv
aftal
udviklet
absolut
##bare
##mede
tantra
damer
skrev
lege
undersøgelse
generisk
bri
generalforsam
##hånden
dårlig
##sto
fuldt
pat
detaljer
udgør
kval
inspir
##fors
såvel
##obbelt
klik
nab
tus
##ung
pleje
henven
##videre
##eres
##pladsen
almindelig
##ebook
##kv
venter
##ymnas
dre
smule
snak
##imod
overfor
lands
genop
symp
##spek
camp
forbrug
foto
##rækker
opfat
former
##virksomhed
##drag
møn
yng
##åben
##ves
##kommende
##vie
afsk
oplevelser
##na
stress
sikrer
udviklingen
middel
lader
##olitik
netværk
##strup
heldigvis
lager
fredag
efterhånden
ansigt
##ies
skabt
##-)
gæster
hverken
fører
##nov
##hovedet
##gæld
##uc
dejlige
##æmp
afgørende
fødsels
mich
--
##ork
fyn
kli
inspiration
forfatter
##ission
hørt
født
##agerne
gri
hem
##æld
fremgår
##kast
nødvendig
live
uaf
bryst
figur
kommuner
vedrørende
søde
##vejs
falder
ør
##digt
##hal
sønder
lider
##former
sendt
risiko
##own
erstat
undskyld
liste
tredje
##blio
##ruar
7.
millioner
magt
##hæ
##mun
frank
centr
forening
##ktør
økonomi
198
spis
stik
opfyldt
spor
##!!
jour
baseret
##vig
overt
papir
##komst
facebook
##holdelse
##ici
økonomiske
dobbelt
engelsk
2013
##skom
##ekom
##ugt
##dørs
##ific
##pladser
##fulde
##betaling
isl
skade
hjerte
udstilling
omfatter
rim
bange
##ice
pengene
kæl
røde
startede
endvidere
optim
værelse
hjør
##kr
forand
primær
rolle
tjek
elev
tyskland
februar
jylland
##mester
langs
hunde
col
øk
musk
forven
markedet
stof
forbru
grundlæg
folket
olie
grundlag
umiddel
ansatte
##0,
princi
##stemer
debat
##ægter
fysisk
populære
dokument
vælg
##lar
overv
deltager
klo
##rådet
vente
udeluk
fodbold
##opg
bilag
starten
##ffe
forsvar
opbe
##oplys
##miljø
vidt
blo
##holdes
guld
ønskede
læst
por
svarer
##ovens
##abrik
forskning
stilling
perfek
straks
medarbejder
rengør
tanker
trække
udfordringer
potenti
##rere
##view
modtaget
unders
##sper
do
mv
cop
nøgen
sli
##ænding
##landet
ru
formid
indkøb
##rige
forældr
##ilet
##oren
##øder
hosp
samfund
internationale
him
dækker
vedt
videnskab
møl
historien
bygget
sammens
##tigheder
tillad
hotellet
pas
##nene
##bæk
simpelthen
beret
##sætte
##ringe
sing
##vl
forsøger
bage
##telses
##go
prøvet
##assage
profil
##væk
##indr
aktiv
##ruk
træt
##histor
projekter
kommunikation
opbyg
juli
thom
dialog
ideer
rekl
moder
##områder
eksisterende
gymnas
##vit
##funktion
varmt
##kar
ekst
;
##letter
koster
kigge
##ish
orden
blomster
doku
##nat
roman
henhold
opdag
##udt
##gjort
##kur
tages
døren
gengæld
billedet
##udvikling
##dagen
##essen
struktur
##egetøj
vare
præst
##mene
flytte
repræsent
has
gre
opmærksomhed
fe
invi
strand
##delingen
##forhold
rapport
##øve
sorte
vejr
ori
vildt
##5.
##job
##arm
pal
ondt
fortalte
beskri
køl
##bed
øget
automatisk
årets
rev
aktiver
##sstil
ass
##holdsvis
pul
##sa
nøgne
apotek
##atis
##ementer
fortsætter
##th
visse
fork
##ild
fornem
je
mødes
forel
##splan
fantastiske
politiske
##4,
na
nærmest
betragt
##vise
##ært
##ix
##yll
jule
vansk
197
##atør
drenge
skar
beslutning
værk
gøres
manden
mulige
ops
con
##we
københavns
##iste
foreb
nyhed
80
##edyg
real
##tt
økonomisk
medier
##amin
scen
lettere
##skrifter
prøv
jensen
##8,
stemme
fed
john
##ness
industri
modtage
amerikanske
ændring
hænder
##vice
23
intro
fremtiden
##ssel
vilkår
##forening
##delen
grønne
ændret
natten
løber
tilfreds
godkendt
bestemm
knap
sav
mr
galt
indgår
christian
##førte
bety
omgang
##lå
kalder
##forsk
baby
turen
##smus
skatte
swinger
håb
sur
personale
vejret
digit
temperatur
neder
hård
tilbyde
##gar
##stænd
bund
korrekt
understø
dyre
##gøre
##chef
perfekte
hansen
dreng
voksen
8.
ugen
fæng
sager
##part
##orier
mødt
##uddannelse
leverand
##ski
##ladt
overblik
##gruppe
q
##ørgen
overhovedet
frugt
tillæg
erfaringer
?
omgiv
fleks
##ynd
##afe
overens
##inst
##bær
##ette
løbe
kong
nødvendige
pil
##væ
formand
mandag
##gra
##bas
symptom
bekræ
øver
##styrelsen
##itra
##stit
tænkte
##ogle
##ael
##iat
materialer
elsk
huden
##ordin
skræ
##sø
relevante
forud
næst
70
##ele
##aktion
glade
##vende
##æder
tæ
sukker
tydeligt
##estyrelsen
##4.
all
daglig
##ids
kron
nøj
støv
kend
sov
##60
reser
leje
)
##timer
##ragende
2012
##rende
##6,
indstilling
vigtige
betaler
fart
løsninger
anti
##kendte
trans
##bred
ramme
##olf
dato
##stof
sjælland
kød
besøge
##ity
satte
maler
indbyg
primært
videoer
mæl
4,
##idlertid
kontor
imidlertid
##ines
behag
##ødt
##ove
ran
oppe
vore
muligheden
vandt
##egnet
anvende
##kred
version
##7,
tilt
nør
ligge
teen
##skilde
##sby
nielsen
forpligt
##nummer
optag
##cyk
##agte
bevidst
initi
##yttes
alko
føle
bevæ
nede
##bek
ug
##mme
lækkert
fremragende
ww
jørgen
##stedet
branch
bygning
##varme
tænkt
konkrete
##ordning
rul
opskrift
##kan
##rettet
kem
brød
maks
##dsom
tværs
mul
tjeneste
tryg
rådighed
kampen
ku
igang
##dem
eval
rek
syntes
9.
tl
forekom
##cl
batter
fav
fysiske
##denafil
##pil
##ong
hil
grundlæggende
##.)
2010
biblio
##førelse
navnet
accep
mindste
##huse
uafhæng
spiser
europæiske
skift
manglende
elektron
##oden
##mm
daglige
grupper
skridt
dengang
seng
handle
lars
resultatet
indre
parti
center
dårligt
##satte
ner
publik
dra
##slaget
kræft
##ers
##isme
udarbej
##orien
##dyr
tilslut
enhed
naturen
pan
innov
glob
fru
konsekven
tanke
passe
match
##ystem
kursus
##',
##bor
møb
ophold
##må
derimod
10.
ger
##hu
konstru
kne
historier
##sede
bod
kørte
##skær
##ikken
tilstand
www
tilkn
tidligt
landbrug
##agne
lukket
anbefaler
salt
fød
##niveau
##ikt
virke
virkeligheden
værelser
kommunal
##'.
anbefale
problemet
ledelse
henrik
stykker
##fe
##amera
plus
##urer
##skov
funktioner
personlig
tir
væsentlig
##hjemme
ligner
relig
forståelse
føre
rasmus
rob
##stemmelse
kast
fællesskab
chokol
dræb
biler
##rene
national
##tions
##iker
fremstil
umiddelbart
ant
retten
skru
jens
guide
alkohol
undt
sym
peder
personligt
##estiv
blød
døg
##årig
arbejdsmark
torsdag
spørge
hjul
beskrivelse
hjemmesiden
vende
begynde
toilet
##user
moden
nævnt
restaurant
interessant
fuldstændig
udst
frederiks
tyske
praktisk
##anke
grunde
øge
adresse
##græn
overord
##oo
wor
##landske
meste
##spar
faglige
forkert
vedr
triv
maden
følelser
støj
dist
såsom
modne
minimum
pak
opbevar
uh
annoncer
##40
##somme
##kør
##ningsm
udelukkende
sagtens
tilstræk
##8.
down
##smæssige
bom
øjnene
tilskud
brugere
##anc
modeller
haven
kende
ordent
fang
##hund
##ævnet
qu
byder
##kendt
##/1
forhand
##vest
faldt
mom
##udvalget
sver
ender
silke
fu
skønne
##gangen
vejle
utrolig
##-,
smukt
sikkerheds
##ane
indholdet
indfly
##oks
##vokat
##perio
journal
##sende
##sku
mærker
##phone
henblik
att
dest
løg
##lex
skifte
løse
eftermid
vinder
max
højeste
saa
afsp
##igin
byens
placeret
hente
##so
##kedes
jac
##delt
reglerne
markeds
##ringen
begrænset
35
##brud
esbjerg
praktik
nemmere
røg
##6.
steg
eventuelle
lavede
varet
dags
sådanne
onsdag
point
##out
randers
##ødet
mærk
byr
udsen
##inter
frokost
internettet
kompetencer
interview
klima
røv
fanden
syv
politisk
dvs
spurgte
sjældent
tj
iværks
veg
omfattet
##gruppen
##onen
analyse
fjerne
##mæssige
spørger
tider
##organis
læring
##føring
2011
##aen
##7.
##ith
søvn
indsam
åbent
##sex
marker
repræsen
dagens
udført
##olver
##tesk
opstår
##enes
##ilm
##ydes
##ppor
##vik
##lings
##mæssigt
##liggende
##ktioner
##skolen
ros
##meste
vinde
tingene
arm
samfunds
komfort
##dy
levende
##als
fødselsdag
##oplysninger
##mænd
oft
##dres
##ls
personalet
dav
fortsætte
sygep
perioden
wh
rådgivning
efterl
weekend
##ender
don
milj
roskilde
hertil
##værker
jagt
hr
levitra
trin
talt
entre
##program
out
##-3
kapitel
chef
eventuelt
tilsvarende
træner
##iteter
kunden
italien
spare
sommeren
undersøgelser
forventes
stiller
snakke
##test
stærke
##stitut
angiv
brun
##øjelse
##oris
klokken
trækker
##ppede
holdet
buk
forsv
##eltet
minister
bæredyg
slot
cre
billige
rut
oversigt
ankom
##have
##udstyr
aflever
faste
naturligt
origin
organ
##ka
##film
udgave
##ats
koncent
skader
ansvarlig
sent
##itte
kryd
præsiden
nedenfor
##zz
##ament
##merne
gennemført
kigger
defin
##iss
##eu
stigende
sne
park
benytte
gulv
sælge
##orte
my
forbundet
stoppe
##mål
bjer
air
øster
herfra
tirsdag
##sættelse
spillere
inddr
##rapport
grå
##ømt
vindu
jern
interesseret
låne
##undersøg
gæst
tænder
##fred
av
voldsom
##ware
ansæt
##sler
##stået
orienter
udgivet
kart
##punkt
##rid
pau
begiven
##atik
##nævn
gal
##ned
udarbejdet
status
90
åbner
oftest
naturlige
##penge
klubben
##dele
websted
hovedst
spørgsmålet
##tic
##grupper
fremme
##ancen
arbejdsgiver
ansat
anbefales
bygninger
hellere
forårs
foretaget
ødelæg
digital
##ire
##terende
avis
thomas
##ulering
indflydelse
stre
hvorefter
hånden
annoncen
jap
vask
lagde
arkite
arbejd
vilde
levering
gi
andersen
##serv
bir
regering
##ækker
##slin
##medlem
bj
lykkedes
##fek
afgørelse
evaluer
grænse
bredt
mødet
kys
1/2
garanti
værktøj
kolding
##rebet
hørte
litter
samfundet
værdier
aktuelle
peg
##ight
pakke
fund
##orten
morgenmad
##ivet
##byr
##ame
google
##telsen
(2
##api
våben
can
brev
travl
##ced
organisation
designet
stram
konfl
cont
##dannet
45
vider
skib
tlf
dol
skin
undervejs
studie
##nerne
diver
bryll
michael
køret
muligvis
adskil
stranden
##viden
hid
##ulent
##etter
hær
centrum
dets
camping
tabel
hyl
mørke
hæv
##kaldte
begyndt
effektiv
forbedre
kaldes
stoffer
omkostninger
fordele
toppen
konstant
føles
drømme
fornu
relevant
opfordr
foreningen
parkering
##asc
lavere
formålet
programmet
##onden
sverige
##ogne
mund
involver
##ba
band
##veks
##riere
stabil
filmen
husker
fan
tråd
jævn
kunstner
læder
niels
derved
gives
søl
not
##rus
kob
art
kand
maksim
betal
##off
amatør
##sst
tekniske
##oc
##ændr
uhel
##ura
##værket
slår
skam
priori
##enh
##kelse
demokra
##rit
##su
##hjel
overbe
hænger
kontrakt
sørg
casin
tå
kredit
ekskl
ill
##ykket
præm
pga
sub
danskere
##arder
##ni
systemet
sags
mulig
##atiske
ligeg
direktør
sår
29
hurtigere
##aktivitet
free
ep
##peg
##rækning
lam
forsøge
favor
dybt
link
##lands
##elighed
##ometer
abon
emner
anders
##hi
##aard
afsted
forlæng
eventyr
ker
afstand
##hl
##ec
##ump
##drer
##ign
fler
umu
ordre
##oplev
grav
roligt
diverse
middag
heraf
sprøj
redu
##aser
5,
eksp
ledige
oplevet
udvikler
##kun
##ition
pc
solen
##olu
chokolade
chance
forebyg
##bane
##sing
##ussion
aftenen
##piger
undersøge
##ham
eksempler
seri
normal
stjer
mængde
medvir
administration
##smu
jur
##ball
slog
presse
tema
pornof
statis
elementer
##nævnte
vaske
##smål
begyndelsen
klog
ansøgning
sættes
sus
nyheder
hensigt
købte
gev
landets
##tor
##klare
fyld
vender
##tilbud
fisker
opst
martin
slutningen
##laget
##kaldt
metoder
endte
udbet
konf
konkl
##kens
##inden
vises
dertil
udlandet
##tider
stål
kilde
bede
##stensen
##able
placering
install
foretage
stemmer
udfor
grader
nærheden
##sej
kommunens
grunden
stop
##tur
##ror
afhængig
downlo
cam
optaget
##vidt
pres
ov
cafe
##stoffer
klassiske
konstater
##sætter
metode
sørger
bliv
bunden
util
##institu
anbefal
##isen
frygt
respekt
renover
guds
samtale
hyggeligt
##ara
afl
handel
##sprog
##ytning
##ionen
fulde
lun
3-
tænk
sejl
krimin
##skriv
regeringen
skuesp
##sene
vivan
##ikkerhed
kandid
øjeblikket
>
##sc
digitale
positiv
omstæn
:)
beliggende
museum
cirka
kendskab
milit
##vinder
dagligt
##ygdom
akti
vivanza
yderst
graviditet
##læge
##midler
viborg
praktiske
varen
erik
##anal
flygt
vedkommende
##aterne
##inget
sædvan
mester
kamera
grænser
repar
frivillige
##vent
livs
dyn
vold
love
målet
tiltag
##opgaver
##jekter
drejer
##lov
##gård
##ftigt
uen
##bord
pænt
##nis
konkurrence
##tidens
fransk
##møde
handic
total
udføre
vester
erkl
lufthavn
søster
rene
ejendommen
##stande
##seende
fotograf
anledning
bestyrelses
skad
##bur
##igtet
##alp
kræfter
teknologi
svend
mikro
nyder
##otte
undervisningen
foretages
forbruger
nåede
lyn
##asker
advokat
##kraft
##dik
venligst
##melige
2009
huse
helbred
jesus
såkaldte
##ze
hån
##mper
500
klage
rengøring
##sorg
navne
##hvor
##avet
les
beskrevet
##spørg
skoler
##forbrug
gas
sho
bre
publikum
ægtesk
##iserede
langsomt
brøn
listen
yngre
##ley
overveje
øjen
ressourcer
selskabet
##gørelsen
##steder
brænd
oph
byer
##finder
boliger
tilbe
boede
##vendt
##bal
sørge
##regn
æb
serie
udstyret
slået
nyeste
forsigtig
sjove
udk
kog
fabrik
sem
##mus
##fart
##ari
behandlingen
planter
tilbehør
omfattende
otte
udendørs
enige
##hul
planer
euro
korte
##øft
udfordring
minder
stats
butikker
udbud
##tiser
##æle
forretning
##vind
udskift
hø
vit
emne
soft
tilladelse
##edrag
hverdagen
opgaven
##ides
nævnte
ga
sendes
##yp
194
johan
tæl
enorm
##nement
bra
rart
familier
ip
##agende
##æs
##tallet
pornofilm
adfærd
##aften
##istiske
mennesket
herre
amb
extra
nik
symptomer
fing
særdeles
sens
##ones
udføres
mur
tusind
forklarer
kvalitets
##tekn
##itu
##shop
arbejdsmiljø
##gl
##indt
vejled
anne
veje
##har
##omen
anvendt
nordjylland
##værelset
##utte
overskud
mødte
##utere
##ærke
vidunder
ri
fokuser
##ativer
##blemer
kørt
##mentere
##sd
##kir
##mos
oprette
smerte
ån
##ovre
mente
##stalt
##verden
dokumentation
##mindre
forventer
##bh
heste
opdateret
##isse
##sken
smør
isoler
døds
professionel
producer
##rel
falde
stue
tol
konto
##urs
rod
##ansvar
196
:-)
geb
##produ
sky
##ax
kryds
##foreningen
##jent
nærmeste
udløb
ramt
##plig
udvalgte
##materi
gennemgå
aftaler
udbred
erotisk
utroligt
##idet
##deret
informationer
plat
hjemmet
##pot
foråret
##yttede
folkesk
intens
##ela
beskriver
afhænger
##yske
tyr
driv
flygtning
##famil
od
##jening
!
suppler
##,<<
hvorvidt
udfyl
book
bidrage
up
efteråret
##slen
legetøj
aktive
rettigheder
prote
##gange
born
kirken
##skort
##begyn
festiv
##sko
bevægelse
fit
##press
metal
##sels
##løsning
##handler
hader
##asset
samarbejdet
##bert
medarbejderne
solgt
##aftale
forvejen
silkeborg
##pperne
##ligheden
central
forsik
kvart
##urdere
bøn
##ana
##pet
links
smerter
dame
landsby
rabat
professionelle
lab
omgivelser
generelle
##ube
##alerne
##mt
engel
lou
##sag
##klen
offici
##ferie
32
åh
##struktur
specifik
kvaliteten
gruppen
perspek
ki
skønt
æld
naturlig
##bøger
kapital
##ume
produktet
henholdsvis
imøde
hemmelig
teater
bror
programmer
date
vinduer
støt
præsident
##smæssigt
levere
færre
show
mini
rund
centrale
banen
indstil
kampe
leverer
bos
besluttet
enheder
##tale
##ammen
talte
##vogn
attrak
##ektor
blik
horsens
diskussion
just
indtryk
forretnings
russ
baggr
konge
samle
stj
cer
press
##tage
##alder
halvdelen
lom
bryllup
finger
##my
hest
indik
retter
##ernes
##//
alternativ
imple
international
konsekvenser
tyk
begr
tår
fylder
##mann
##aut
unikke
virksomhedens
##retning
teknisk
undersøgelsen
styre
fortalt
våg
##ony
golf
sven
bevar
##hvert
pi
##adr
##sch
##enske
##eskab
sms
betalt
garan
##enden
##fuldt
tydelig
frankrig
fir
frihed
århund
##hop
finansi
dækket
xx
gyl
lykke
motiv
opskrifter
##bum
æ
##side
ekstrem
sælges
##iets
sygdomme
##kendelse
kommunale
tips
følte
tilgængelige
plejer
tidlig
##haver
hygge
ii
fader
købes
##olie
skr
36
vagt
##maskine
jak
nationale
forældrene
##ktiv
2008
##00-
processen
deltagere
##ep
kontant
##fi
refer
svare
##bånd
##elen
diagn
##ior
følelse
kus
kyl
##stør
inkluder
duft
spej
##manden
ryggen
ordet
6,
klager
##?"
køkkenet
opfattelse
tilhør
hyggelig
##bygning
midten
uk
terras
##ækken
you
jacob
årligt
bef
kære
lyset
##-0
hænge
erotiske
oprindelige
##minister
billigt
##møl
angreb
##bring
bagefter
wil
dim
##12
gebyr
udsat
deb
ungdoms
##strøm
poul
længde
sla
samtlige
##ætninger
##igh
deltagelse
evne
mode
##skont
kontroller
##kere
uddannelsen
medmindre
litteratur
samling
bordet
11.
tilfældet
##ændene
beder
##slev
##lagte
situationer
tilret
luks
fremmest
##ømte
##igen
tyn
##førsel
effektivt
orgas
positive
bøs
lægges
ydelser
##stændigt
egenskaber
søges
##80
lært
sold
brow
afholdt
balance
##lægge
12.
kompl
gulvet
karriere
##agten
aktivt
##edag
ihjel
##lægning
munden
herning
strå
pu
##produkter
pin
##frit
##isterne
havet
svin
##spor
finansier
godkendelse
hent
##.,
teknik
spred
beliggen
300
artikler
fris
##fot
##sproces
fødevarer
##acitet
snakker
passende
sports
##15
kiggede
##lager
##økonom
relation
registreret
##butik
gennemføre
vurdere
##ower
lavt
##ference
kraftig
##bus
komplet
hjertet
##rom
hospital
##åden
fås
arrangementer
nys
bringe
parter
##firma
svaret
##standen
kommentarer
lægen
##dret
##synet
##iliteter
##uktion
nået
15.
##efoner
htt
beskytte
forbe
##://
angår
fornøjelse
##fære
motiver
ledere
##valitet
##rejse
kurser
sandt
nødvendigvis
hoteller
gangen
##model
faldet
virkning
thor
intim
rolig
tilføj
##lægges
##onning
##oter
anmeldelser
forbl
spillede
levet
motion
dårlige
<<
kilometer
fremstillet
dj
håndtere
##arter
##yndig
retningslin
udlever
elskede
##ogen
##ftige
##oseks
ændres
serien
kalde
##enhagen
##eng
##delinger
##prøve
optræ
dagsorden
last
sengen
##børn
besluttede
##kene
##mærket
info
trænings
kines
befolk
mave
strategi
årsager
##ual
##jælland
bidrag
##politik
##val
bonus
årsag
fordelt
##ace
affald
sølv
##give
##the
##appen
##rab
brænde
##jeneste
fyre
leveret
tilgang
overnat
##fug
casino
##ystemet
aftalen
2007
forhandling
fremover
##arbejder
che
mangel
spir
benytter
hit
læger
2000
cal
udvalget
opvar
humør
flyve
rø
cas
num
restauranter
##att
illust
disp
fryg
jesper
##odel
bære
betingelser
sigt
eftermiddag
værre
eleg
##holdning
enig
##con
kammer
tanken
##ømmer
stolt
##fyld
kyst
forr
fungere
dygtige
radio
markant
basis
maven
ubeh
bibliote
ambi
møbler
tillid
forestilling
##cere
##bid
lede
##eld
døgn
fiske
##usive
telefonen
friske
lil
mængder
bornholm
traditionelle
forventninger
myndigheder
matem
norge
lovgivning
nords
risikoen
ægteskab
##ars
indsigt
75
##ese
##celler
klikke
videreg
31
præsent
ventet
ændrer
udgiv
bryg
##hvad
almindeligt
kant
##pleje
billederne
myndighed
plas
##ådet
isra
bøl
##99
kaldet
station
hæng
luften
##ødte
afrik
kim
trænger
100%
##mæssig
##papir
hard
vokser
imens
##agement
tunge
##bestyrelsen
luder
forbered
afvik
##ested
afholdes
borgerne
##tagelse
mc
runde
beskyttelse
sekunder
skærm
##istisk
rappor
positivt
oversk
revision
fremad
bis
institution
franske
forsy
stemning
bestilling
lokalplan
bestemmelser
væsentligt
juster
stillet
##essor
nysger
##sområ
foredrag
foresl
midlertid
udlej
ba
udbyder
##kap
iphone
sofa
imponer
anmod
kombination
befinder
##falds
33
sim
straff
kritik
body
##videnskab
klarer
##ming
hjemmel
tilrettel
spring
kaff
##ld
ap
bløde
copenhagen
sygeplejer
##oni
institutioner
dygtig
##uft
arti
loven
uddannelser
##haven
kommunerne
##agram
deler
hvoraf
benyttes
udseende
skolens
ånd
landskab
##service
halvt
skoven
##df
datab
svenske
##mning
morten
##ica
blæ
##aten
identific
##dning
kris
vurderer
besøger
send
dollar
##system
ringer
gum
##sloven
frø
##fikke
strik
linje
etableret
nøjag
prøvede
pedersen
indled
klassisk
ingred
berør
gaden
##risk
kok
##esel
ole
fleksib
##bruget
ideen
forvalt
##forsikring
afd
nyhedsb
##ærker
bygnings
span
##sprogram
dages
respek
kategori
danne
bob
grønts
omsorg
organisationer
sommerhus
årene
omstændigheder
beslutninger
##hvis
kompetence
mic
##70
##cre
##udgifter
forklare
svag
ovenstående
##enskom
skub
hypp
13.
spænd
##vo
pyn
uddannet
7,
larsen
statistik
lukke
##25
overalt
forholdet
hæl
dokumenter
##vises
kbh
##ivt
gavn
##sid
bogst
forår
##ifik
værste
analyser
multi
deltagerne
##ppens
jub
indeb
laves
mac
overflade
mission
forny
historiske
samtidigt
pigerne
oblig
##skraft
årlige
##lund
bekendtgørelse
befol
black
ældste
udenlandske
nøgle
##kket
handels
rådgiver
lond
##ili
##server
lette
ønsket
##jern
##itt
yde
##handel
anvender
tilgængelig
kvinden
position
plant
##vægt
14.
havn
##lene
højst
sammenh
##sret
##ktor
stopper
##bevæg
barnets
kørsel
fritids
arranger
##aliseret
marie
##hjul
##11
webs
beskæftigelses
travlt
##følg
##45
fuck
##adem
##ræning
skifter
##væsen
paris
civ
foreløb
værelset
værker
tjener
##nr
besvær
##ordningen
frist
ke
farvel
sof
dans
##proces
big
hunden
relativt
mun
holdes
påvirker
behandlet
gider
umuligt
def
sejr
stole
##yttelses
##hånd
oprettet
idag
planlægning
varier
redeg
sgu
fortr
behandles
himmel
størrelser
lug
gn
islam
stede
yog
seksuelle
au
skel
cla
socialt
fremtidige
frig
regne
##oss
indr
genbrug
alvorligt
klæ
##ows
færdige
christ
adskillige
##greb
##yper
bekæmp
resul
slap
charl
##arte
195
tha
##kat
individuelle
##bøl
england
medfører
##forsy
##kant
valget
##skat
##tiget
stim
##sæ
pause
homoseks
snar
##øsning
##ejer
mette
investering
tw
hænderne
afslutning
##agerer
##eske
foruren
dynam
##enting
tendens
hermed
overordnede
##centret
##lic
tilbag
pårørende
##ænke
mek
gir
lyse
##meter
##relse
##rens
##tiet
##duktion
dkk
##alistisk
hårde
ledelses
gade
nabo
##forslag
slippe
åbnings
lyng
glemt
##industri
oplæg
##ox
opkræ
##formen
##egår
##asen
kald
##aren
sendte
leveres
ryd
york
vedligeholdelse
erstatning
##smuligheder
handicap
mister
indgået
areal
gaver
tilpas
##ærket
skål
favorit
hd
##ræts
rummet
kasser
##oth
væsentlige
forstyr
flyttet
##way
græs
##modt
bygningen
felt
formanden
modst
##varter
##itz
tegne
kage
bebyg
##bogen
forum
held
veninde
irri
##okker
lis
foreningens
pet
måle
forskellig
lærere
kunderne
integration
helsing
blow
##læn
##ineret
jack
rens
london
tilstede
certi
knæ
stammer
piz
planlagt
øverste
##ting
##komp
koldt
island
##oper
træer
drama
##sperio
besøgende
situationen
##anen
forelig
lejligheden
##demokra
smager
##18
øger
ball
##ejst
##tøj
##eden
##estående
spilde
tilføje
##data
modstand
##projekt
bespar
##edyr
spid
kvalific
bac
atmos
inspireret
##skyl
nic
kug
pus
pladsen
kopi
værktøjer
behandler
##si
indeholde
sun
forsøgte
##banen
##lav
fugle
angst
##kamp
træder
tav
lem
næppe
symbol
20.
turner
vurderes
skand
løfte
sign
##issionen
##angen
2-
plante
##kasse
##ino
forhindr
##90
unik
37
opfylder
bio
##ya
formentlig
pladser
indberet
##ættes
##no
ansøger
analy
##præsent
rust
ventil
glim
christensen
##sendt
bærer
bloggen
aab
vegne
##stal
##pren
##vendte
eleven
mulighederne
gård
relationer
knu
forløbet
gard
opført
samarbejdsp
nedsat
16.
##smed
brugen
prem
dommer
##afgift
##iør
mobi
150
ingenting
kru
følg
##direkt
billigere
##muligheder
besvar
systemer
møller
##rib
##osof
##igter
##ards
##stol
trak
badeværelse
##sev
##kninger
vælges
##olig
slik
træne
##fyr
##istens
##urt
##adal
hidtil
##keste
ubehag
tekster
bidrager
normale
lytte
fare
hundrede
fede
##fisk
bevil
##ms
grundigt
beregnet
psykisk
drej
34
identitet
fon
foretrækker
lykkes
##regler
kompon
rid
##ola
##iness
fængsel
prim
##ilde
rimelig
svære
stiger
indvend
biv
##telser
arbejdede
påbegyn
##staltninger
forsknings
korre
rasmussen
##park
tilladt
##gøres
planen
##gik
stået
##bund
bevæger
##ran
avan
frederiksberg
##edel
specielle
pligt
præcist
##!"
##værkt
maria
beliggenhed
offentligt
rettet
forskelligt
lak
foder
##bens
titel
initiativ
befolkning
paul
sildenafil
##umpe
##cam
flytter
look
sevær
psykolog
virkede
##vask
anmeldelse
afbr
##bak
udkom
talent
installer
kunnet
jurid
lek
hob
vik
lind
##<<.
##che
tje
kina
##anchen
##ygg
svarende
bul
stak
##billeder
##):
tilsk
mobiltel
produceret
åbenbart
##valt
##adresse
18.
##ænomen
##ævne
arkitekt
dv
butikken
##taler
lukkede
weekenden
luksus
danner
bringer
måneden
##riske
belast
##eland
helvede
opfylde
engelske
ansvaret
##holdende
##ulere
frie
sandsynligvis
##skol
hust
problemstilling
##veje
diskret
skema
cat
##sg
forhåb
ankl
akut
cro
omvendt
øen
lejligheder
indkomst
skærmen
mads
udfl
17.
stigning
udkig
##ips
fc
pigen
billet
##tv
gens
tabt
nar
vinteren
fræ
hjerne
parad
præget
jor
rente
slappe
##entligt
siges
##pige
kolde
jon
dække
sekret
blanding
intel
lat
angivet
##rut
kendet
tørre
institut
holdning
indebærer
arbejdsmarkedet
19.
##bag
##vention
##hot
advar
virkelighed
bestemme
vilje
imponerende
betrag
eksamen
##stig
førende
##vide
##tilskud
kab
arbejdsplads
##produktion
moms
##indre
carl
biograf
anses
##færds
aust
amager
abonnement
##artner
##sho
##hr
størrelsen
jam
ture
flyg
svarede
fragt
sortim
undervisnings
##ændelse
single
kylling
dukker
##beste
thaim
selvstændig
sir
pap
blu
teori
##italet
tjekke
næstved
utal
tjene
##alistiske
##ood
stu
kerne
##ctor
bestemte
skønhed
kæmper
afspej
fange
forsøgt
derude
mælk
##ydelser
nedenstående
##tages
ægtefæl
xxx
proced
##fund
##melt
album
præsentere
terror
køge
saf
demon
kreative
##2-
trivsel
ulov
skud
staten
bevæge
slu
overenskom
##lunde
resultaterne
##adalafil
1000
##ønne
perioder
##formand
andres
måler
læste
selskaber
modsætning
ligeså
##eladende
193
maskin
##pan
etc
betyde
tadalafil
herom
poin
1)
rådet
##kostninger
##navn
indrettet
misbrug
midtjylland
bakter
ethvert
reklam
bjerg
henvendelse
bind
ekspl
etablering
kurset
fortsatte
##irt
sandheden
målrettet
##urop
assist
døre
opholds
<
danskerne
laur
ingredien
handlinger
idræt
##vurder
##strateg
glat
milli
##ias
##æstet
well
sind
borgmester
medie
thail
dræbe
mos
teksten
prins
tættere
##livet
ordin
##ikere
line
2006
alex
studen
scan
##inav
behandle
dræbt
champ
div
cd
##19
gram
reducer
tilsyneladende
##its
morgenen
tilh
##ktionen
city
38
kommunes
webshop
##angel
aftalt
plast
##smæssig
##lån
punkter
##spe
sygehus
forklaring
priserne
øre
bestyrelse
skyde
hyggelige
betales
##jet
ast
grønt
indvand
##terier
årsagen
forslaget
hjemmesider
##vejledning
##alderen
forskellen
##købing
helhed
villa
blomst
grin
ynd
aftens
vanskelig
vardenafil
##lyst
##afdelingen
wind
vundet
forandring
##vens
##olution
forg
##aktioner
##jener
stift
påvirke
grønland
##alle
forhånd
elske
##fj
##ysten
aud
front
4-
high
##lim
spurgt
maskiner
lyde
emnet
medføre
livsstil
##asses
rock
håndværk
tilbydes
##sbet
senior
##inerende
redde
slutter
tvang
##spolitik
udsted
fødder
jakob
mistet
rige
##visninger
##ns
udvæl
indretning
innovation
##slet
rummer
##pression
verdensk
selskabets
konflik
forventet
##ena
##ric
kaldt
##tab
endelige
deltog
udvalgt
##las
##givningen
effektive
bevis
fremmed
##uleret
brede
mærket
##mag
operation
play
politikere
øvelser
repræsentant
##æger
##vejer
##inerer
specifikke
##enten
indh
mia
fulgte
##danmark
##arr
svensk
styrker
liter
kvindelige
ordentligt
##ognen
udtal
enormt
brø
faktorer
tilfredsstil
temmelig
forlade
kortet
##ppes
##sministeriet
past
psykiat
190
##menteret
træffe
lokalt
bøsse
##spiller
førte
##elsess
##burg
begejst
diam
##aftalen
thaimassage
##rur
eb
arg
##løst
##rul
thailand
##plade
##være
medlemmerne
stam
besid
famili
forvente
##apeut
sinds
gay
knud
##ierede
##back
miste
nerv
##meligt
flyttede
##icia
åbnede
bestemmer
ovenfor
##gul
gad
overgang
flygtninge
##14
##play
##priser
spanien
lover
foreslå
forestil
dansker
##ain
8,
fasc
##planen
helsingør
oplyst
faglig
xtra
bane
##13
##skift
##skrav
dæ
bordel
recep
##bør
ryt
leverandør
kors
færdigheder
##ype
cor
leverings
beboere
produktionen
galler
tar
lesb
revisor
evaluering
##lam
evner
stuen
if
opbevaring
arbejdes
alderen
##appet
forelsk
afsluttet
våd
##dal
derfra
ton
israel
club
##erende
##gest
##anceret
byde
håret
##<<,
million
døden
varmen
##onym
##uddannelsen
##forstå
sunde
hvori
klip
##oritet
##afdeling
arbejdspladser
21.
##moder
utro
sæsonen
plej
opnået
relater
trykke
erhvervsl
mobile
ig
slem
venlige
##elter
forestille
komb
fremgang
bedt
krigen
kapacitet
kræve
2)
##ædvan
forhandler
##brød
##ænk
speciel
##/3
udpeg
48
##lip
fløj
make
ik
reaktion
bukser
55
##unt
##talt
##auff
skaffe
forskere
kaste
##ukket
stilles
gennemføres
##umer
##forbin
##faldet
##--
bin
barndom
iv
bager
##itation
mørk
fanget
krops
brænder
intellig
##mmer
##fundet
signal
konver
##mek
peber
anbefalinger
tilsæt
bryder
opstå
minut
idræts
##rr
sover
oprindeligt
perspektiv
støtter
finan
##por
##fest
gran
hiller
afgift
##sammen
peger
derhjemme
austral
herhjemme
##ita
42
##fac
##behand
aktier
ledelsen
##selv
svømme
vendte
flyver
havne
business
##mat
fylde
ryger
kraftigt
bla
element
tap
##stema
bladet
##skaff
slipper
uafhængigt
skive
patienten
micro
udvi
##edskab
swingerklub
fastsat
reelt
##16
##taj
times
glemme
forfær
græsk
400
##rummet
ins
bedøm
##??
kortere
##holdene
båd
pædagogiske
..
##førelsen
##pping
primære
afdelinger
##bad
beton
david
overtræ
forsvinder
teknolog
tyrk
##rukket
arv
##formation
##skon
##tit
fugt
fotos
artiklen
##tegn
son
##rukne
##aktiviteter
udfører
##ografer
brem
##atorer
bok
reduc
læn
arbejdsmarked
alvorlige
##ney
fornemmelse
works
rækker
##vandet
site
historisk
ført
skære
personlighed
##ions
##tens
tæller
##put
##aret
introduktion
turist
##sser
administra
rot
sans
download
ære
##sniveau
timers
minde
power
##barhed
##ferencer
elektronisk
tilrettelæg
udnytte
kode
forvir
koge
##enhed
overlev
##æret
bemærkninger
drømmer
seværdigheder
##bringe
miner
hjernen
sogn
vag
##jo
hastighed
cv
overvejer
##sninger
stærkere
orgasme
hverdage
##ffek
##gelsen
socialdemokra
bortset
pool
##somhed
lund
nyere
software
infek
##lade
##bygger
reducere
understre
##17
hellig
tilhørende
samarbejds
savner
##ki
opnår
##givelse
usædvan
implementer
fjernet
berlin
tax
eftersom
ern
foruden
musikken
http
leds
##do
kam
regnskabs
fitness
##ffen
##pas
fortælling
regner
separ
65
skriftlig
krydder
befolkningen
##cher
århundrede
sexet
dild
fortol
##bevid
##que
vogn
fn
overraskende
##rien
##entlige
00
alders
##cks
##amet
##ængde
enkle
##beskriv
løft
appar
kontakter
2005
ekstremt
fjerde
kjole
mængden
garn
gæld
##va
##fast
virksomhederne
##cykel
lød
introdu
amerikansk
##lement
##kers
##øret
##jektet
##inet
##vejr
##biler
drive
benene
alm
inten
fremstilling
##kredit
lyser
lokaler
##adt
ansigtet
købet
##ingerne
##rette
professor
svendborg
##igelse
religi
løst
boligen
blowjob
sange
lukker
##handling
##kri
dekor
vokse
energim
sul
##splad
apple
studi
master
dejen
koncert
##,-
sundt
bevare
eksperter
finansielle
takket
##osition
##ygdomme
##andet
##ovn
##inerede
samtykke
rejste
vedtaget
##ejser
##ulation
oplysningerne
##200
##yldigt
##skal
holste
flad
##emed
besøgte
ønskes
trukket
brugerne
##møn
betragtes
retfær
betyd
##æne
sty
grænsen
hillerød
samler
##ano
##klasse
ejendomme
##ination
tablet
matematik
##ukom
##ablere
##følger
pre
##øser
##klæ
inder
hjørne
hurtige
redskaber
grøntsager
bø
samtaler
kvartal
##problemer
frækt
##ættelse
fremhæ
nævnes
efterår
##bolig
følelses
festival
fænomen
##ervice
##ysning
arrangement
##kø
kalender
anna
behagelig
nøje
##ika
samarbejder
fodbol
kategorier
såkaldt
menu
skuespiller
driver
##ægler
##undervisning
entrepren
stiv
simon
affalds
udsatte
##kvalitet
anlægget
eventuel
market
læsning
##undersøgelse
bivirk
filosof
skarp
årige
betalings
fjen
brønd
afstem
udvidet
startet
##ferien
rusland
##rator
opfølg
vanskeligt
##ssystem
flest
kræves
fødevar
præsenteret
##selskab
##acc
##byder
stræk
invest
lic
udveks
grill
##ada
nærværende
##umper
kristne
##dren
ringede
sektor
oplyser
berømte
udgift
tilfredse
bolden
værksted
gennemgang
##unget
samvær
##ple
uret
udbetaling
kollek
bestående
skidt
dyrt
efterspørg
pizza
maskinen
tilstrækkelig
##ysk
understøtter
hug
##perioden
##personer
økologisk
spl
spiste
##ial
jørgensen
kondom
##agede
havnen
slagelse
##ona
tryghed
vm
nylig
fagligt
forhindre
kaj
sørensen
fredericia
kundes
horn
##byen
##egen
modul
##ini
1:
##orator
opp
marg
##vækst
##bladet
##tikler
ligefrem
##liste
baggrunden
kontin
will
skjul
mont
##ureau
stjerner
opstil
##ografi
centralt
tillader
solid
##dags
cykler
nævne
kos
39
back
miljøet
grundet
##75
oplagt
##tning
##næst
udbytte
##kontrol
søgning
##behov
##mærker
velegnet
##maden
herudover
##ålmod
##abelt
noveller
klogere
gammelt
##loven
eksperi
gemme
begivenheder
kolleger
##pul
##retten
##erm
##lege
klinik
##-201
dro
måltid
##værelser
farligt
registrering
##stændige
##astro
beklager
##hoved
fingre
##spris
fulgt
modsatte
nysgerrig
huller
indendørs
##annon
rapporten
foreninger
##viste
bivirkninger
brugeren
boet
storm
##ani
rosen
blok
dir
forholdsvis
ekstraordin
reserver
hjalp
menig
tredj
personen
sum
tilstrækkeligt
sikret
##slå
desto
loft
##kj
rejsen
beskrive
tiltræ
mg
tempo
##tekst
hustru
ec
ve
skum
##iseret
beskæftigelse
##systemet
spons
##slovens
##keret
konsulent
interne
##-10
firmaet
katte
vå
##cipl
##ule
(3
flaske
##marked
ot
##jyske
væggen
skiftet
tide
totalt
bist
webcam
betød
kusse
arter
##bon
flertal
takt
lol
hurtigst
##oplevelse
blad
forbedring
##regning
forudsætning
##givende
forudsætninger
forkerte
##etid
trå
håndtering
tip
ulyk
shop
##iteten
tilbuds
drifts
fattig
##ilæ
retningslinjer
arrang
fjernes
damp
koordin
pande
vant
udviklings
tilmelding
kartof
##ineres
##lægger
jobbet
##skende
##vning
##car
kandidat
##visende
konklusion
rute
helle
kongen
tøjet
pist
ild
##kortet
##asken
internationalt
lort
urin
benz
30.
øverst
tøm
flag
negative
dep
192
gemmer
alvorlig
##prom
##regnes
##ravet
10,
etablere
borgeren
##:00
##værdig
afdelingen
##egner
adsk
sikke
klassen
prostitu
claus
fokusere
aps
dækning
ressource
##mentet
##øbet
klasser
##soft
bekræft
generation
vision
faciliteter
##rigt
##linge
1-
tilli
kilder
nul
myr
##aus
akadem
oplysning
copyr
##blandt
##appar
##ww
byggeri
5-
skæb
officielle
##eskema
sekund
##skoler
mønster
opskriften
9,
##merende
##disk
civil
scenen
milf
indblik
forstået
##sled
with
angiver
valut
##egru
protein
##speci
##rud
lejer
indsatsen
had
emil
ost
ovnen
nordisk
bryde
skriftligt
copyright
##spillet
##kørsel
gæsterne
##ænder
indtægter
##plader
##repræsent
yo
blade
tjenester
tilknyttet
##teren
åbnet
videok
holbæk
##spekt
##arch
billigste
##etøj
pornost
annonce
modtog
forholde
##wa
beløbet
kasse
hjælpem
bak
menuen
processer
##driv
høring
kvinderne
voldsomt
planlægge
finansiering
##læs
repræsenterer
markedsføring
##ics
##artet
roy
##anerne
vend
kaptaj
gården
nyd
vindmøl
indkal
##medlemmer
##skrevet
tabe
systema
interessante
##500
nordiske
overrasket
opslag
sortiment
##ama
##skifte
##ii
drikker
religion
tilber
indgang
børns
mys
spin
præsentation
perman
overordnet
fordy
##artnere
##lerup
##lus
bold
bop
holstebro
##kons
sikkerheden
undgår
dernæst
afhængigt
vært
bragt
##ssam
almen
##god
væske
##reste
##ystemer
verdenskrig
phil
##fru
##alske
trom
tat
##ågning
atter
sygdommen
ærlig
lyngby
vokset
korn
princip
##løg
##muse
##bs
forlængelse
betegn
smykker
##hun
harmon
ydre
fase
opkald
stjerne
drag
miljøm
##klæd
forstand
##skode
##estere
##æves
##iget
##dc
boo
##ima
##mot
steget
##dsel
scor
klubbens
sammenligne
knappen
##usiv
##assist
##omet
julem
megen
virksomheds
ingredienser
31.
##ico
##unge
22.
originale
smide
lim
russiske
##historie
##bank
##bre
##parti
hall
soldater
feltet
erst
skandinav
hak
kulturelle
##ladelse
temp
mak
greb
italiens
skudt
dræbte
inviteret
hvorfra
blodt
ventede
betragtning
##stekn
##tiger
##alsk
rep
præg
arealer
##reen
dvd
##buk
vestlige
##konto
potentiale
undersøgt
muskel
##alisme
taske
terræn
##bekendt
##aps
bibliotek
43
anlægs
mistede
global
stående
##nor
##ryg
##fit
##relser
##result
uover
dum
menneskelige
one
redegør
behovet
##smøde
alting
bang
##igere
svøm
spist
##rerer
##dato
danse
##ux
##øen
tilknytning
##iddel
blandet
heri
mors
domin
##centre
slip
lærte
##tryk
acceptere
teoret
ogs
##iej
um
erotik
afpr
##omi
kolon
amt
vib
morg
indtast
##sendelse
##iks
25.
foreløbig
forlader
windows
##gel
gule
glemmer
##sekt
180
søen
gennemsnitlige
##/0
##ulerer
support
spildevand
##øbt
##smand
radik
erfarne
plastik
pakker
henter
leverandører
##indlæg
vedrører
nogenlunde
barne
oplevede
##gården
##ius
44
forventede
økologiske
hilsen
2004
terrasse
hi
stadigvæk
årsregn
ødelægge
ordentlig
orientering
fantasi
tradi
aktører
niveauer
##rest
engager
cel
uv
fortjener
smarte
mega
##osis
simpel
##berne
ambul
##regist
dyrke
interesserede
senge
##anne
##kode
populær
patter
overvejelser
straf
psykiske
##etten
hæld
robot
kas
##95
svamp
samleje
dm
menstru
##www
##isser
##cess
##fon
##creme
herrer
ekspert
sug
egnet
##fro
initiativer
wal
kniv
##yer
krise
##ydende
rets
##institutioner
følges
tast
liderlig
##kær
##periode
uddy
halsen
placeres
brud
røven
eksport
##planer
trump
liderlige
piller
kontrollere
##avisen
bekymret
##virksomheder
fakta
##ites
studiet
world
plak
arab
##sætningen
##mennes
eksterne
##sområdet
##oft
opr
##ioter
##hår
skuff
henvisning
præsenterer
offentliggjort
stab
hovedstaden
##kendes
forsigtigt
##sket
komplic
organisationen
kvad
250
##kender
direktiv
muskler
##ægts
kejser
berettiget
##taget
æl
mistæn
opgør
##blad
hvidt
maskine
slid
sammenlignet
wellness
##piller
##faglige
hvorledes
henvender
##midt
hukom
renovering
vandløb
tillykke
stillede
##ægte
principper
ærligt
arbejdskraft
kombineret
##orme
##ualitet
##arden
opnås
elegant
##ams
udbuds
##splads
usikker
flok
forbr
##krav
##point
##cca
beskytter
nytår
producenter
omsætning
meddelelse
producerer
udlænd
##smet
forpligtet
##status
profiler
singler
globale
##drej
frivillig
redskab
##fabrik
atmosfære
presset
tillige
##ath
##bestyr
fremmede
udstil
klubber
planlægger
statens
beboerne
vred
##chen
modellen
knyttet
##/201
aktion
##24
anonym
##besøg
netto
miss
##prisen
computere
##mmende
afgræn
alles
udenrig
##baseret
dann
##tilsynet
uforpligt
##kultur
produkterne
portræt
mol
smage
##smateri
drøft
udform
varsel
chancen
himlen
##kunst
fødsel
skulder
forskelle
optimale
studier
bevægelser
certific
regionen
##ageren
tøn
##bragt
næse
komprom
##una
computeren
##vilkår
##billede
mundt
pens
enestående
placer
##fløj
##ødning
hæk
fæ
løsningen
syr
##ræner
hæve
##begræn
##værdige
producere
smid
##wor
agent
banken
uforpligtende
##rund
##iserer
udvide
producent
sædvanlige
dronning
varighed
kolle
fundament
pt
engagement
hval
behageligt
##institut
##phones
infl
##time
investeringer
modsat
forsyn
underholdning
hormon
involveret
magasin
argu
hovedsag
konflikt
##pakke
gemt
##ædagog
##ular
børnenes
foretager
##isker
partier
ekster
designer
##uret
##sborg
depression
ramte
kloak
##poli
længst
individuel
smagen
størst
afg
mekan
observ
23.
##sop
bug
klem
##alisere
skide
titlen
##..."
mobiltelefon
forekommer
##ødder
folketinget
##tog
rose
sammenhænge
##apper
tyder
##krig
konserv
sexy
##industrien
gods
konfir
skabte
bånd
sorg
bibel
cap
##indhold
##kol
##esteder
røre
opfølgning
ejeren
ansættelses
46
ib
##ætningen
##shøj
##gennem
##melsen
##branchen
kaldte
mex
tank
ler
kunstnere
##ray
lik
sving
##station
jubilæ
##grundlag
##atoriske
##værd
ændrede
regioner
læsere
##æren
foreligger
##ensborg
##æssige
##lok
omhandler
##billed
monteret
betydelig
repræsentanter
koncep
telefoner
##talte
spænding
##dansk
##organisation
retss
optimer
karen
##gers
bopæl
##drene
##legetøj
##revis
arme
vægge
##aftaler
##install
kritisk
forlod
##foto
##cerede
##kningen
opdaget
gear
vort
overenskomst
leger
investere
spørgeskema
afklar
##tiker
tilhører
væsen
bestilt
forrige
begivenhed
##yge
email
##kommen
afslappet
##cit
##anken
plade
smukkeste
forebyggelse
sar
kvalifik
apote
diabet
##start
interessen
kilo
bredde
24.
alarm
netværks
nervøs
##askine
fravær
betydeligt
indstillinger
kælder
materialet
kanten
klit
##-/
affil
ulem
but
salat
minutters
##/4
citron
underligt
##havet
##iseres
iværksætter
årig
vr
farven
ovenpå
trygt
nemme
ond
lyden
##anven
##andene
##ente
cool
nom
reflek
integreret
##væl
##blom
feri
##areal
emp
##punkter
your
##meddel
knog
##løshed
##forsyning
opdager
madsen
arbejdspladsen
unød
hjulpet
nordsjælland
fair
meningen
##fyn
##1)
##ektion
liggende
##inar
medlemskab
lytter
gun
##tillinger
##fod
##fatte
opgra
forhåbentlig
##cm
fysioter
##tika
ydelse
##iter
udarbejde
glip
##feltet
##ffes
komplek
stoppede
spær
bygges
##gmail
old
liber
installation
nett
opdagede
workshop
##parken
etage
datoer
skilt
##freds
unikt
laborator
neut
skræd
udstillingen
##box
##ex
styring
##skur
fortrol
herren
vinduet
sammenhængende
parterne
##øvet
træng
foregå
##agner
##stige
betjen
drø
fad
##komme
bun
mog
bakke
henvises
##ækket
kollega
tilmeld
understøtte
vendt
anført
sluttede
gren
skød
døgnet
zo
levede
##ao
beboer
synlig
##itar
##forslaget
forbud
##anda
##fig
tilføjer
børnehave
1-2
koste
kram
##dsels
medlems
##viv
simple
creme
skrå
ryst
ride
produktions
koncentration
desser
##!!!
##elovens
rigeligt
beregning
##foreninger
refleks
tos
##inerne
##iment
##ografiske
2018.
fremtidens
##konstru
andelen
blond
indsatser
byrådet
accept
flydende
vo
##sfri
##analyse
beskrives
green
dal
udsalg
hjemmelavet
italienske
tålmod
generel
studenter
##ora
##sselskab
##appede
afgørelsen
##orter
værdien
##regel
pisk
##ye
opstået
skuespil
##smag
levetid
fremstår
##35
##arealer
bæl
forpligtelser
##till
ent
håndbold
##anere
individuelt
##ydelse
hvile
instagram
##sevne
##lær
tung
##træk
arkitektur
udmærket
fastholde
overfladen
##pine
##dragelse
britiske
##ismen
##wh
jordbær
træningen
discipl
afsked
##uge
##atoren
##tians
gensid
##ums
hon
fastsættes
##styrke
håndt
forandringer
##plant
afs
jen
gevinst
parat
1,5
bure
chauff
julet
tabte
##oriseret
##ledningen
##kontakt
kalk
stige
##ener
hentet
nøjes
hat
solgte
##information
optagelse
male
tall
returner
skibet
##eskabet
belæg
scene
beslutter
forfatteren
28.
ødelagt
sværere
##iche
##tokol
ophør
opmærksomme
##tigheden
##ku
branchen
47
rense
tube
##cy
##uch
##kelsen
kundeservice
femin
##indsats
termin
##umin
strikke
fanger
##ærende
##yndighed
##holt
målt
##forløbet
##ote
branche
##ublik
##landsk
begrebet
##plej
##sforløb
udvend
##ju
oplyse
kabel
tilbuddet
holm
pædagogisk
tidlige
ligeglad
restauranten
##pad
delvist
##tm
hey
batteri
træde
##agelsen
trekant
ledig
potentielle
##az
##amling
##ånds
27.
##ampen
logo
klat
styrket
tour
base
kanal
populært
##nit
tegner
##rejser
ikon
##ging
museet
put
undtagelse
hjemmefra
##komm
frost
##mal
fur
##tæn
##fejl
holdninger
værelserne
tegnes
26.
##stren
charmerende
kommand
ekstern
cir
dollars
danish
kærligheden
check
skyder
##ordninger
##iljø
kravene
dru
risikerer
##agtig
herved
opv
##ografisk
kontoret
##stræk
,,
##geren
begreb
bam
indledning
##jenester
##hotel
bent
udbredt
##drift
sparer
##ræber
##teste
eder
fradrag
beredskab
dokum
supplerende
2003
æstet
##jour
##virkning
tynd
militær
afgang
konstruktion
milliarder
##æve
##kommer
##sset
##klæde
køleskab
##visningen
bevidsthed
herinde
konkurrencen
sperm
kompleks
etn
journalist
stillinger
skabes
strip
va
eksisterer
12,
120
dybe
##dist
koncept
cy
##skilt
##rød
louise
##dm
##sering
##ision
renter
etableres
høst
gig
transpor
##rapporten
overraskelse
##rerede
gennemgået
begrun
afsæt
angri
virkelige
##ros
##lel
grand
##65
rødt
legal
udp
kartofler
dybde
harry
trist
##højde
blodet
##pension
indbet
mærkeligt
##ott
indholds
anmodning
rejst
faktum
kæft
run
services
##mødet
skibe
hospitalet
nark
##esen
##arn
testet
spændt
træet
essen
##verdenen
##habil
public
karl
bras
lægemidler
snarere
##rad
sammenligning
heldige
sau
indbygget
sprøjte
##træning
korrekte
høn
##hjer
taber
eva
behandlinger
uheld
##oci
forkæl
fans
professionelt
reklame
3)
atom
##ensation
mas
sofaen
elevernes
##ophold
samlinger
##ble
drengene
begrænsninger
sjæld
udskiftning
melde
lufthavnen
forbehold
halve
lolland
søgte
juleg
##zon
##ence
mandlige
faktor
##sland
tilpasset
fødslen
##listen
##nel
konting
##2)
idi
gennems
fjerner
##stens
bytte
voldt
drengen
informer
##gørende
tegnet
website
vurderet
påske
konkurrenc
##skin
smed
est
##skade
nyhedsbrev
##blem
##estol
beskad
##reber
muslim
negativ
##gebyr
hals
henviser
forekomme
selvstændigt
spot
omh
påvirket
festen
eksist
venskab
##-15
gyn
street
##markedet
lykkelig
tilpasse
##aminer
##prin
langsom
##støj
træffes
fokuserer
##revne
##prøver
##forskning
##bureau
diskutere
opfordrer
vine
latter
yoga
##elever
forberedt
opsætning
##spligt
sikres
forholds
##elet
kristian
måneders
##sområder
sydlige
##egang
##ibil
##odt
jævnligt
##avne
truffet
taknem
##tikken
offic
vels
fiskeri
##evne
optimalt
bogstav
sande
underviser
afholder
hhv
##tiks
nedbr
##oph
feed
praktiser
politikerne
##bede
ejendomsm
dildo
##kasser
##gener
billetter
mikkel
##rådgiver
seg
beklæ
resterende
marketing
tillids
sønderjylland
##aktiver
##ændringer
##autom
elektroniske
##log
jazz
##kage
norske
kødet
##sministeren
##dis
anelse
videos
##ttet
fritid
vejer
##rationer
fjernvarme
##pa
drage
bh
læber
kommissionen
52
hk
sexlegetøj
parken
kommerci
forsvandt
rich
johannes
bød
vedvarende
frivilligt
filer
anbefaling
##dske
600
noter
ovn
indby
skæv
##ory
princippet
kaster
velfærds
##sforen
udskriv
##skema
farlige
oversku
formue
budskab
cand
##omkostninger
udfol
sogne
##sikring
browser
tusindvis
##ekn
nærmer
revi
##iseringen
##brit
optage
veget
udfylde
numre
aspek
banker
##ulære
##kassen
seriøst
##små
more
ron
regionale
frik
faget
term
utallige
småt
arkiv
passion
trækkes
turister
brøndby
##valtningen
fejre
tykke
oplevelsen
note
optimal
indført
85
mælke
motivation
hjørring
##skrive
ryge
oli
##nie
uld
##sonen
##aderne
haver
##sse
vidner
foretrukne
yout
##uderende
##datter
nordlige
udefra
udgangen
kontanthjælp
##sleder
rygs
sandhed
spilles
##anna
matcher
badeværelset
specifikt
##farve
seksuel
##ulenter
drevet
##lens
tændt
cig
båden
broder
##has
bøj
vanvit
lånet
##4)
bron
skør
linjer
pers
onde
poly
##typer
##tager
fordeling
vrede
maling
uni
##klin
bedes
tusinde
snit
selvstændige
japan
borde
ydes
11,
bygher
dræber
mølle
##fælles
kaptajn
effekter
##umre
spidsen
dennes
rimeligt
forstås
kvarter
ører
tilføjet
##klæder
videregående
##gam
personal
##frastruktur
våde
læses
slægt
##venlig
##chat
glide
microsoft
##timod
stolte
##læggelse
##eto
hammer
##fyldte
skilsm
##kræft
fjord
samles
samvit
##mærke
bæredygtig
tdc
pakket
##maskiner
varierer
temaer
##ættet
vindue
mord
vejleder
forbedringer
##clai
temperaturen
aspekter
##ynder
##bygget
opstod
julen
optræder
41
ipad
afsen
forsikringen
##menterer
29.
delvis
bjørn
halvdel
pøl
##22
mands
##sløb
forelsket
udarbejdes
jim
##itten
tankerne
sikring
tynde
asyl
tænd
serveret
##pak
##boliger
tilslutning
foreslår
##ture
##barn
##gisk
##serie
vinkel
##deg
mob
##ella
##syge
##top
øjet
folkeskolen
##slået
##spunkter
bundet
opbak
råb
permanent
##arbejds
prom
medierne
##svej
sviger
forebygge
vifte
non
##uddannelser
##projekter
reduceret
rekrut
enorme
##agtige
##oster
evnen
##bordet
##delighed
emball
oprør
##musik
##claimer
udarbejdelse
latin
dybere
##instru
varem
effektivitet
udforske
ovennævnte
##cc
spek
##stjeneste
dagpenge
##aktør
olsen
##wood
##venlige
flit
parf
sved
##procent
indrømme
##atorisk
##yggeligt
søgt
##itering
rammerne
værket
skander
##tidspunkt
##zone
udviklede
eftermiddagen
##skop
jus
faktura
disclaimer
##etil
##!)
vacc
##oneret
##jord
##prog
schwe
##roid
alli
vandret
2-3
james
##rerende
værds
firmaer
eksemplar
smartphones
##arrange
kriterier
opvarmning
videnskabelige
mødre
##leden
undersøger
##dækning
spa
hoppe
avisen
snor
##yste
##:0
forsin
bestilte
virkeligt
kvadrat
forsiden
ål
effekten
eksklusive
pod
tilbudt
petersen
home
traditionel
##dspil
kundens
##ativitet
##rudt
bakterier
hemmelighed
##aming
##salg
brændstof
pornostjerne
##seret
##anlægget
forlag
påli
##fyldt
forbedret
afkast
christians
vinden
##fre
##fødte
pis
embed
mørkt
##ades
##ftiger
reklamer
##fonden
aftensmad
ml
##komne
tone
definition
rask
cup
forbudt
følelsen
##serien
skabel
endeligt
##øget
humor
rejs
revolution
186
ure
sab
fortællinger
homo
musli
##holdelses
##fø
immun
uund
standarder
##skader
49
bb
begrav
varmep
klø
kassen
størsted
original
regnet
louis
##0'
repræsenteret
pensions
##reder
regning
##unst
##post
##smænd
sønderborg
kompromis
gummi
loftet
score
##bevis
##gives
##ønt
jamen
##nej
skor
ukendt
diabetes
beskyttet
uop
virus
faktiske
ift
188
bestiller
ah
mari
beskæftiger
input
bussen
benzin
endt
ded
##abon
opstart
kneppe
##ipp
try
valby
mændene
formår
##lut
##førende
ferien
95
manglede
los
steen
henne
toget
objek
homoseksuelle
identificere
##grad
junior
modtagelse
##styrelsens
skygge
forberede
ub
##astrup
fran
stoffet
genstande
åbningstider
ankomst
opdage
sidstnævnte
ster
sult
afspejler
word
ansættelse
enden
sites
beholder
åbnes
##kammer
venligt
kanaler
jose
etik
byggeriet
sluk
affilierede
anvendte
##annoncer
kameraet
2017.
##ingelser
beholde
trives
årgang
fars
pæne
biblioteket
køretøjer
##tima
##skel
##fulgt
nætter
##værdien
ejendoms
opleves
opbygning
inkluderet
teknikker
lancer
salget
##møder
tum
##gelser
afrika
##bevidst
tvunget
##"-
derinde
håndværker
shopping
konflikter
##"?
thi
skanderborg
##don
##-8
##hy
medicinsk
synd
##rappor
willi
begrænse
størstedelen
debut
tildelt
forvand
observer
belysning
hvorpå
rug
vell
##værdier
sådant
inspirerende
##stud
##xt
beretning
folketing
##key
56
vug
##mord
italiensk
forventning
gyld
virtu
vvs
##amme
##alier
udsigten
von
salgs
demokrati
konkurr
plet
telt
##armen
##reds
ambass
årtier
##fæ
##profil
##ifi
##værdigt
skriftlige
##prof
##ckt
skuffet
##ynde
hjælpemidler
bakker
besøgt
nørre
kjær
##materiale
deltaget
installeret
detail
nærings
økonomien
investerings
##ryks
annonc
beregnes
platform
blødt
##odes
##ction
fryser
##ofte
rykker
cover
springe
råvarer
##sperson
##institution
lau
##tidsp
overskrift
opbygge
##kob
rand
bestod
ogsaa
hellige
speciale
tandlæge
eksam
##ræd
mdr
##dok
##yrer
klippe
##ool
melder
tegninger
skå
##skvalitet
tillade
##udbyder
synge
reduktion
##danne
##iko
poster
angive
##kurs
##massage
##stad
tilfredshed
##åndet
##vogne
##98
gader
østrig
indb
køleskabet
skrædders
almene
opbygget
grundig
daniel
##værktøj
##hyd
administrative
##skede
##fakt
bekymre
binde
##ostrup
debatten
##ummet
##melser
stemp
isolering
teste
vidunderlige
skjult
væld
##sproduk
##ata
fællesskabet
europæisk
mellemrum
malet
##gas
seksuelt
sæn
die
tenden
reguler
opsam
##pædagog
længden
##aves
overvågning
##edi
velkomne
unges
##zen
stren
smartphone
##pon
tilmelde
polen
beviser
read
hop
dømt
sandsynlighed
klagen
opretholde
##mands
katastro
##aste
print
kinesiske
##plom
præmie
snap
naz
len
##ommer
kraftige
bit
pant
skyg
forside
##atch
deci
rac
##ors
##jort
##strategi
pkt
ejere
reparation
inviterer
færdigt
brugs
##mø
##ked
##smidler
mess
nævner
##betændelse
kroppens
udlejning
indbyggere
vægttab
linket
##skriver
fortid
frederikshavn
##styring
mødtes
may
ægtefælle
takke
##emål
mov
massag
las
sandsynligt
montering
##iverset
løgn
betjening
tiltrække
kategorien
hygiej
##lan
##brudt
eftersp
##obe
fet
##øvede
bestå
jød
målgruppe
gravide
udlejer
stemningen
hede
gennemførelse
##ribu
##ræder
smidt
##ots
##dækkende
færø
skit
sf
##mis
sæde
medfør
sygeplejerske
pic
kampagne
plejehjem
##godt
forbliver
lønmodt
foresp
forsyning
blodtryk
konsekvens
storbrit
##ævner
bestemmelse
##ræft
udsp
taller
manu
##ands
kravet
spillerne
udbetalt
voksende
##regne
slank
##ræb
##skærm
efterlader
voksede
køle
skulpt
##21
sci
håbet
##leren
opløsning
hva
grupp
nederst
forleden
##direktør
##lovens
irriterende
befri
##sal
opbakning
drik
maksimalt
mørket
##ome
træffer
kommunikere
hjørnet
udfordrende
##uminium
opbevares
dannet
magnet
kirur
systematisk
##sprocessen
veninder
graf
##rettede
sod
ansøgningen
føres
##23
##hs
ork
skattem
soveværelse
##ælk
orange
ze
koord
husdyr
;-)
##bukser
race
tværtimod
gucca
##pri
shem
pakken
indbrud
pdf
offer
elas
epis
politiken
garder
##tikker
klinisk
ugers
jyske
væn
##fælde
stød
##boy
udkast
##ods
sjældne
øvelse
##nens
dukke
slemt
menstruation
##aar
chancer
melod
##ykkede
næsen
alternative
bragte
800
spejl
overleve
skæl
flade
eksamens
trykker
begreber
hvorved
passager
hvidløg
køns
##støtte
##forn
##arbejdere
tårn
placere
##afrik
netværket
skræmmende
loy
##ordet
racer
sproget
##klubben
enheden
indstillet
sovjet
2:
udvidelse
##systemer
udvikles
##sproblemer
styrer
must
sponsor
afgørelser
##%.
farlig
liden
evigt
inspirere
indien
##nam
prog
smit
coach
veter
##dsm
yt
læseren
oversættelse
dyrker
##6)
storbritann
opdatering
romer
morgenmaden
##iere
fiber
betæn
lægemiddel
menneskeret
ræ
##draget
partnere
klædt
tons
sams
fremtræ
bay
usikkerhed
typen
##:)
##buds
medarbejderen
parall
bekymring
##eloven
##wich
udførelse
adop
ærger
ager
måling
##roen
tidens
menigheds
smad
##sforhold
løfter
##illede
regulering
uges
fleksibel
efterløn
##holdere
dyrere
stal
georg
mønstre
indsk
##sr
##ensioner
##seks
overvæl
##aliteter
kirsten
understreger
##cker
youtube
udlændinge
bestyrelsens
referat
adgangskode
##-4
##core
fog
##bedste
snakkede
slås
##merter
smut
girl
##lub
##ida
ringsted
gel
forvaltning
kristus
glemte
##sprojekt
reagerer
##kommun
##tiler
##bespar
anerkendelse
king
fyldte
kandidater
##elin
samspil
##relater
##lagde
pia
##forbruget
fingrene
lovens
;)
mæn
54
træl
tørt
kager
schweiz
53
13,
makeup
##omfru
lugt
overstået
##esh
ligget
betingelserne
2002
accepterer
sidel
formel
##emark
vak
aluminium
imødekommende
##læde
tidsp
##kager
fastsætte
gennemgår
adam
kæledyr
koncerter
alsid
##bio
apps
sagens
fleksibil
##ters
støvler
arrangementet
varieret
præsenteres
senget
##plo
fuldstændigt
parret
vink
vidne
samtalen
##bygningen
cyklen
undskyl
##cus
sødt
krog
##skridt
rub
2001
erindr
henvendelser
grundlagt
præstation
##vol
tallene
vedtægter
##sbes
##skib
lesbisk
sed
lidelser
##zy
##uller
mæg
##igheden
64
##dring
anerkendt
menneskets
##drende
cra
##orienteret
laveste
vinen
synlige
##stille
kliniske
religiøse
besvare
##lister
##tigede
hvidovre
house
kongelige
##stri
##orge
##skar
afslører
afhent
aktuelt
lady
auto
ofre
måneds
omhand
##oplevelser
datings
##gelses
videoen
forbindelser
instruktør
riv
veder
forordning
deg
##sikkerhed
ubet
victor
mistanke
fødevare
digitalt
##ford
thy
2,5
##spoli
fril
husets
jubilæum
birg
jav
##sikker
dosis
##-20
##apning
kærlig
rehabil
tomme
ordning
##7)
##posten
##3)
søskende
usb
##wn
carsten
##pol
royal
årrække
sut
flu
##lespil
##anterne
diplom
##uf
ansvarlige
##anmel
##sider
##forme
eje
##holdte
##dør
hek
##tigheds
##store
negle
attraktive
forsink
kysten
telefonnummer
budgettet
lærerne
##kels
##frug
hanne
##hur
##osen
åbning
##aktionen
0.
##apos
holland
kristendom
juridiske
elite
strej
##ægten
grafik
beslutte
strø
analys
regeringens
blin
##smodel
##sløs
##yndigheden
kreativitet
juletræ
skønnes
##sprodukter
øges
guitar
ultima
ansøgninger
##frisk
##cast
juridisk
infrastruktur
##melighed
komplekse
visit
##billedet
generationer
flem
udsagn
strid
hegn
kran
ordinære
sec
##løn
kontingent
##seng
fax
##sig
handlede
signaler
officielt
navig
varetage
keram
angel
hobby
variere
##version
##helor
grave
trafikken
ordene
skarpe
##zer
licens
##8)
tegning
##sendes
stund
konger
floden
fonden
##ramme
dun
##blog
spøg
afgøre
slim
from
afgr
gevin
overvå
forsker
##rykke
unger
formidling
tyver
##rering
egentlige
familiens
##ete
carol
kollegaer
velsm
brune
dl
udgifterne
videoklip
sejler
bond
barns
erklær
servicen
tidspunktet
##type
mem
beskyttelses
##col
yndlings
##boks
anskaff
scener
funktionen
gribe
kreativ
##skontrol
hinandens
kvalificeret
##vidde
##sætninger
medvirke
##akterer
##sholm
187
afslør
trådte
##magt
forinden
##angreb
skæn
bill
lene
skolel
domstol
##hente
189
##web
spirit
strækker
journ
##ikre
diagnos
patienterne
springer
madlav
##opgave
patri
vul
tilmeldt
jakke
trend
##rater
display
samvittighed
dedik
viet
gylden
opvaske
flor
vægten
robert
##øden
##organisationer
journalister
##ftere
##sprojekter
spansk
##ison
terapi
sexede
##moner
projektets
synger
##familie
udtaler
præcise
squ
kedeligt
##lemmer
ankommer
war
##felt
##brog
portug
##ally
disku
##allere
overnatning
tang
##cktail
børnet
folks
nøglen
godkendte
sulten
##æver
skra
snakket
##orts
romantisk
iagt
tech
scenar
185
søer
##stor
##inges
afsnittet
##lægen
##egning
indire
beløn
denmark
##baserede
universitetet
2016.
indledende
##pligtige
rødovre
duk
##kurren
velfærd
##dating
bekvem
##projektet
fattige
##æge
erstatte
grundlaget
glimrende
anvendelsen
skatter
##farvet
##skål
efterspørgsel
andreas
##brev
##shosp
##agter
indirekte
ingeniør
rulle
kemik
tilfældigt
##parten
58
udgangspunktet
innovative
blande
##pool
##hor
højest
##amilla
godkendes
##øves
good
gæste
aftalte
ordningen
##kering
tallet
##kvar
planet
##inering
##forståelse
rekord
ruten
##blå
sammensat
magten
omfatte
kit
anim
betjent
split
grov
99
lut
slette
implementering
dar
lærings
infektion
flugt
##partner
herfor
##leverand
##stjer
opdelt
sagsbehandling
##svin
eksplos
##sner
##fx
mangfol
kriminalitet
opgaverne
fødderne
##tilstand
velkomst
irak
livets
aftes
pille
##ends
##indsat
trygge
slikke
lovgivningen
indvi
monteres
##bringes
ged
aggr
begået
##esteret
kopier
overholde
##can
lovet
medlemsst
##forbindelse
nederste
##orth
##finans
vill
skjulte
(5
10.000
##umen
onkel
swe
fotografer
##ævnt
langvar
kak
femte
opad
sparring
fantasier
##imp
ox
wik
farten
overgreb
##overe
kræn
dyrene
##-5
##forældre
kælderen
kreditkort
omgivet
##øster
##gave
ida
synet
afholde
##isoler
overbevist
android
udtrykke
##,.
##-19
mild
ligegyldigt
##ansøg
naboer
cle
gifte
lot
australien
##drede
armen
passede
##størrelse
##ukke
15,
spild
184
porte
tilgængeligt
meldt
forstod
##trin
palæst
##immel
##avnet
##sbyg
##reres
komponenter
fløde
strategisk
forank
charlotte
##inens
berling
##både
bonde
vidst
lår
##pati
##tain
west
marian
##speriode
siderne
tidspunkter
##omer
nykøbing
efterskole
realkredit
tilsammen
konference
##vitamin
naar
fusion
sejle
elektrisk
opdagelse
daværende
tyve
rh
beskat
ejendomsmægler
skræddersy
gennemsnitlig
##askiner
nak
grundvand
opgav
foden
##bok
##centeret
##ktøren
modstan
guler
##dækket
beslutningen
drikkevarer
forårsage
problemerne
sofie
domæn
##rot
fjol
siddende
##imer
screen
##affald
poker
arbejdstid
antik
gif
##øbler
##dels
hf
jomfru
velsmagende
gab
##psyk
advarsel
portion
udpeget
energik
sundhedsvæsen
risici
57
løses
sutte
landsdækkende
arrangeret
glostrup
hjælpsomme
##artikler
feedback
tu
beteg
bik
pej
box
arom
##gerende
##denhed
kosttilskud
opdatere
udgøre
##isted
opstilling
##produkt
rækkefølge
##sekret
##celle
##koncer
ligestilling
råder
applik
##programmer
skæbne
tim
celler
turde
rapporter
konceptet
##ous
undtag
teks
##tillid
måles
skot
##timere
betalte
ih
landbrugs
##sområde
skik
krævede
##bom
ventilation
0,0
haderslev
##baner
skåret
inkluderer
##ala
##pat
øer
bogstaver
spekt
afløb
##ynge
jobs
nydelse
underholdende
stoppet
rab
##estue
##shistor
##dire
##fikation
filter
asi
downloade
df
sammensætning
drop
##garanti
kasper
japanske
##meddelelse
##sem
format
køretøj
understøt
##splanen
rec
pier
##gæng
falske
rediger
landskabet
enighed
entreprenør
bekymringer
torben
måltider
##.).
øgede
kommunikations
omdrej
##bruger
spanske
differ
storby
##vang
inddrage
samsung
kriminal
fleksibilitet
tønder
traditionelt
udleveret
norden
pokker
##læsning
formiddag
sædceller
hovedpine
partiet
kvik
foregik
cho
hemmelige
reaktioner
een
##stegn
trætte
efterårs
##kanten
##sigtede
##kro
##hverv
kombinere
##øven
filen
##het
fyret
påpeg
fornuftigt
##00,
lyt
garanteret
skolerne
##avede
##upunkt
gardiner
privatliv
##øvelse
##fugle
##36
##spir
##klassen
lighed
udtalelse
storbritannien
wi
##motor
forladt
varianter
##oppe
pern
14,
arbejdsopgaver
##uligheder
ce
##nus
sanger
##frist
mix
##betjening
væd
soli
egentligt
##maskinen
trol
##comp
ophav
kronisk
66
spredt
##rykt
rede
dna
realitet
lejr
lovligt
menneskers
pose
fuldtids
syl
hesten
forsvundet
##rækket
panden
%.
jung
avanceret
kirker
planlagte
tyrkiet
ringet
genet
human
vandre
##sor
falsk
##ving
kigget
præster
ugens
##28
##udder
spejder
##forsøg
##ng
bagud
køres
##26
niveauet
herlev
omgivelserne
bå
forfattere
klaus
##egler
##amm
detaljeret
beskeder
##appende
drink
katol
ladet
då
flytning
fremskridt
##yden
##offer
veks
julie
løser
##assistent
kalorier
syds
forespørg
cykelt
bredere
kongens
broen
honning
##stration
##eløb
henvende
##funktioner
diesel
perspektiver
##idte
omegn
fastsætter
ama
distribu
selvmord
gymnasium
fornuft
##beløb
##byggeri
flex
dagtilbud
##ituation
redegørelse
etager
skrives
##ary
smilede
bagsiden
##øjt
##ague
separat
analysen
akvar
deles
skulde
##kil
##sliv
##ametre
##ferencen
fel
angrebet
##tillæg
nærliggende
##sne
stikker
##elementer
ego
lederen
george
angående
vurderingen
##istan
forurening
ministeren
hovedsageligt
##esex
##brand
##egle
adresser
værende
baren
adskiller
brygger
bæredygtighed
kunsten
motoren
yngste
forberedelse
##sbr
plader
##skrivning
hylde
forplig
3-4
##shaver
##ariatet
brian
##hd
lovede
##ppy
##historier
kvinders
udmel
avancerede
indeholdt
kritiske
forsynet
mene
##bj
##flade
skaff
formidle
attraktiv
##/5
konvention
besparelser
forbrugere
oplyste
bøgerne
##design
kammerat
albert
##asing
##aktive
##onering
##kål
##oser
##glas
tegneser
trusser
afsluttes
årlig
figurer
græske
ejet
dirig
##uddannede
##frihed
51
svagt
ungerne
klinikken
tegl
oprettelse
##lers
begyndelse
landbruget
trænet
kvæl
såret
slanke
tes
anholdt
##ælling
ombord
briller
##tør
affære
essenti
##jenesten
makker
elektriske
drå
forhøjet
gyldne
reel
##radi
##vurdering
røver
##egård
bekræftet
##agtigt
menings
##gået
##itor
toilettet
##gri
opgørelse
##øvler
ulykke
brystet
hændelser
kedelig
##byrdes
behandlings
opfin
poulsen
##ws
nærvær
(19
valuta
overdre
forudsætter
tøs
frygter
gavekort
nyborg
rese
blid
genstand
kastet
dumme
##seren
herred
##administ
vikar
bitter
smider
østerbro
regelmæssigt
fortrin
auten
blind
premier
muslimer
##ado
dokumentere
sara
tær
host
flemming
benyttet
flow
##kab
yderste
##foder
forudgående
udsl
markeder
kørekort
sæbe
mormor
stramme
cocktail
##ern
bestemmelsen
##-18
rist
typiske
##spørgsmål
rib
open
justit
ax
bekræfter
kommuneplan
joe
næg
skjold
##dannelse
egner
##finger
pilot
##sperioden
shemale
beskyt
hind
flasker
##mændene
overført
##esko
solidt
dominans
overvejende
##tilladelse
afslappende
posten
anbefalet
jonas
##fungerende
##belast
spænder
republik
ple
siddet
##igennem
##ellet
gol
kartoff
##stykker
atlet
##værelsen
tallerken
dress
seksualitet
pom
##alender
##fladen
class
##ellen
oversti
adressen
afgifter
ensartet
##skiftet
receptionen
##agnen
indehaver
##ologien
smile
dagsordenen
##esult
fortry
falster
##dam
konstatere
bebyggelse
uro
kobber
kontakten
##isere
kh
##selskaber
##studerende
##27
##frie
stjålet
afvig
udlænding
##ulin
overtog
dimensioner
##kvens
kæde
regnskabet
##hallen
markeret
zoo
##distrik
kæresten
vers
(201
forholdene
gammeldags
tennis
opf
hævet
genkende
##undersøgelser
medens
suver
nuancer
import
mærkes
klaret
##kirken
16,
sta
legem
svage
sindss
robust
aktie
indbydende
bøde
kompliceret
rem
udbr
stav
lign
breve
##dering
afsløre
overtage
puds
kvaliteter
fester
gumm
brændende
svampe
metoden
folkeparti
overn
##falder
jæger
farverne
nederlag
finn
##cia
stadion
##morgen
##rets
2015.
defineret
forbry
anerkendte
målsætning
klap
påvirkning
##arer
citater
##indret
bjerge
aaben
speed
##udlej
tilbagebet
særskilt
##olin
##usioner
rytter
##festiv
logge
##ago
kagen
##rist
vitamin
mogens
kvadratmeter
##sbek
jean
anlagt
tæppe
myndighederne
tungt
##vognen
uafhængige
forbrugerne
eksperimenter
appet
bjar
##34
##,...
50%
fysik
lastbil
fornuftig
##een
forbinder
forholder
##rakter
##dkvalitet
##fu
hyppig
udsættes
##raa
##pal
flensborg
omkostningerne
##blade
bagved
politiker
##ræde
##bundet
##plac
kokos
hang
##rich
##tagelser
##0.
alu
blods
forebyggende
afsluttende
##valget
distrik
##programmet
88
medi
nyligt
vanskeligheder
spræng
væsentligste
rejsende
kjoler
velfungerende
reserv
voldsomme
seriøs
naturvidenskab
velvære
vigtigere
jas
aw
##ited
##-6
##stab
vitaminer
##ical
bekæmpe
hjerter
erhvervslivet
møbel
homoseksuel
##nyt
begejstret
##rids
sant
indføre
variation
silik
##beskyttelse
aldre
bomuld
rødder
yndling
henning
##book
rumme
##ega
ever
reagere
mort
afsat
##linjen
gps
skilsmisse
##ariat
##født
stock
barber
nøjagtig
udad
driften
chok
##begrænset
##processen
slutte
stiftet
produktivitet
opretter
grundt
oh
geni
frugter
##stykke
provin
cens
hyp
returret
hvalp
funktionalitet
teknologier
bureau
erklæring
##udviklingen
udby
instrument
derhen
##ami
(18
deraf
realistisk
##ausen
stillingen
tavs
gryde
skrue
udsendt
2015,
hensigtsmæssigt
##lås
ambiti
russisk
##klædning
nørreb
##atører
##bunden
##uro
væv
udnyttelse
teat
begravet
ordrer
batterier
cali
sommerferien
##uten
union
kompetente
hyper
firk
forårsaget
oversæt
##00.
brødre
dreje
##best
tørret
##asket
##......
##tidige
##talere
gensidig
##dj
##ymp
måden
##æden
sher
##vision
ulovligt
ane
##områderne
forhindrer
vaner
håbe
andelsb
##andel
##stein
gril
mindske
clo
##ressour
nick
##jorde
told
velkendte
fungerede
##ykning
##visor
tænde
win
efterfulgt
rengørings
case
##fan
##flix
##sbeg
que
##ademi
bisk
##grænse
##punktet
klikker
##bevægelsen
overholder
traditioner
krigs
##eje
this
bekæmpelse
pad
sutter
optimere
overskri
kemi
baner
##ængen
forskerne
tatover
##selskabet
ægge
flyttes
dynamisk
##okaler
db
##flytning
vække
oliven
##ington
mht
ministeriet
ballerup
erektion
indbyrdes
institutionen
##sbor
parkerings
digte
tabletter
fron
galleri
kirkens
##xx
pernille
betydningen
detaljerede
##ifte
praktiserende
demens
hjel
nytte
##nord
##tise
dannes
kloster
revet
kuffer
action
##bidrag
##smiljø
østjylland
##bende
##forsvar
##ellem
førtidsp
##rakt
lignede
laks
trag
##dog
##-7
nøgler
villig
##stiden
##inal
serveres
##lament
kinesisk
##iges
iii
kik
##cd
thisted
##billet
aflevere
##ogni
##numre
##eler
midlertidigt
ilt
oftere
centi
besiddelse
##tran
overlever
bandet
##værn
matrik
##luft
##raget
dørene
##/10
white
##bod
##mak
wa
styres
nedad
##strå
##ilien
belg
beach
68
##igtige
berlingske
##yle
rådets
inklusive
rører
group
##kg
##lignende
minus
konstateret
ultra
barcel
##cykler
rester
##sj
##svøm
operationen
lidelse
oprindelse
omtr
cru
##klima
refunder
call
management
touch
gymnastik
registrerede
##ørerne
jordens
overføres
##foran
vidunderlig
skarpt
indsamling
målgruppen
tætte
æble
flyet
laser
).
offentligheden
bål
mike
ords
##skj
##9)
varde
tilfældig
specialiseret
jeans
##nær
dagene
formen
##bræt
kvar
kvitter
karakterer
opløs
skjule
udenom
##færdig
ordne
forbund
##slisten
prøven
##nets
vågner
diameter
dick
##træng
##otiske
udsm
##ress
bot
opføre
madras
livskvalitet
uøn
delte
vanil
støb
indlagt
trav
reform
##33
##sager
ikraft
tilmed
##sselskaber
ansøgnings
overstiger
tyndt
undertøj
kostumer
##dri
isoleret
ving
storeb
vejledningen
skylder
cvr
speciall
klæder
foregående
hovedperson
##opper
##udstilling
klarede
metro
hp
reelle
fandtes
ødelægger
roller
ligne
instruktion
##verdens
blon
kund
udstillinger
cur
1960
udstedt
##stog
##aritet
##ikop
##smødet
league
kontrast
vesterbro
invitere
##ygter
bydel
##ege
##osit
bagt
ernæring
æbler
alternativt
kugle
bistand
##ktører
##undborg
gymnasiet
##umb
camilla
dokumentar
drys
normer
nakken
støder
lidenskab
midlertidig
pistol
afgjort
##urg
lamper
kulhyd
##alinger
arkæ
that
ef
dessert
##regnet
##enderen
fm
attra
##stan
toner
##afsnit
##drivende
ration
69
##kval
nordic
norde
maa
dukkede
sarah
##almin
canada
##skaffe
##egården
selskabs
afk
##boler
wifi
udtrykker
vindues
udbydere
hushold
meddelt
bestemmelserne
armene
##plejen
##bul
analysere
98
rammen
irrit
##tivis
trussel
præmier
##ård
##rådt
detalje
groft
notat
(4
##alie
##halv
bat
##ugter
oral
##åds
##hvil
tåle
##lighederne
##-12
##eksper
kæmpede
troen
batteriet
##pass
seo
sned
fokuseret
tvil
højskole
forsvinde
tæpper
##ords
prop
kemiske
##forholdet
ideel
stolen
girls
72
##adgang
farvet
pikken
forsam
##stop
europas
marianne
sammenlign
##amper
##mpe
sygedag
twitter
internt
roser
pra
kvæg
skiver
##kursus
strategiske
##fatter
vasker
##ulær
isen
registrere
pragt
stikke
ovre
fremgå
strande
##dater
netflix
##guide
cu
perform
kørende
bly
sektion
energimærk
områdets
indvandrere
nære
teamet
graviditeten
begrundelse
ikrafttræ
konservative
færreste
dimension
merc
##butikker
mærkede
pumpe
##interesser
pletter
risikere
fængslet
##rrrr
session
fortiden
omstilling
udred
##skræ
##vejleder
##tilsyn
holdbarhed
flo
suk
arhus
anbefalede
2020
lysten
sygepleje
medfølger
bern
varerne
kastede
faa
ds
##agem
græken
hyd
booke
associ
værdig
organer
##ledere
##funktionen
spillem
udgiver
##abe
bou
forelæg
##spæn
59
uafhængig
##acks
belastning
tømrer
udbetales
betingelse
2014,
##afstand
parkeringsplad
##berettigede
jorde
lunge
kristen
##mån
74
afslag
forstærk
given
##lis
beregninger
egyp
bevise
college
##aktiv
##board
hass
præsten
afdøde
evangel
oversat
flys
langtids
##sbehandling
kommunernes
klæde
##problem
statslige
boller
oprindelig
cykle
prædik
vedligeholde
katalog
afspil
nicol
protes
##milj
##video
food
uplo
fleksible
bevægelses
krævende
trusler
sandwich
malt
##urdering
67
##niveauet
##retter
rar
vejledende
##cial
pressen
negativt
##shirt
mental
iført
sammenhængen
##sin
##uth
##ægterne
manager
##bragte
felter
kid
##esund
leverandøren
skilte
argument
##forum
skabet
##glem
trakt
stabilitet
gennemsigtig
##ime
kryst
tømmer
##100
middelalder
##lande
##klæring
parforhold
overtrædelse
tig
##husene
tjekker
forblive
##øvelser
##læger
bemærket
##skr
afslapning
supplement
##stolen
japansk
##ssystemet
anton
indstille
ideelle
fremtids
dominerende
faderen
snav
##melses
inddrages
##udgift
krøl
førtidspension
kin
##bit
pels
bevid
tilpasses
erob
18,
##pes
aviser
underskud
##pose
pædagoger
tiv
##anvendelse
##virksomheden
##kop
##pig
kongr
escortpiger
##ml
udstrækning
satser
skinner
aftales
kompet
overtaget
##kirke
medal
styrelsen
dsb
øve
##issen
##forstyr
fornøj
fineste
gebyrer
faldende
styret
sorter
##ainer
desper
midter
##ungen
tilstedeværelse
nap
elef
relateret
omkringliggende
##jælp
nørrebro
##oman
reserved
tilgængelighed
erstatnings
17,
rud
konfirm
##billetter
##lader
mandens
designs
ydm
bækken
forælder
bevilling
varetager
medbringe
kalundborg
dumt
sikrede
forsvare
##rust
djæv
dækkes
fucking
##våben
børnehaven
##konsulent
fjernsyn
tydeligvis
##ytten
sauna
ye
lux
chi
##øvrigt
##vad
ringkøbing
gennemførte
koloni
##drage
spont
nordvest
2013,
iso
##ælt
ømme
formå
opfyldelse
ærgerligt
asf
analsex
californ
ryn
evig
nakke
slave
middelfart
klient
konkurrenter
paradis
hallen
servere
elend
opspar
lovforslaget
##);
mænds
børnes
##teknologi
reference
##vagt
soveværelset
brudt
teenager
##farver
events
##egade
thomsen
##øf
drives
snu
##adene
##artede
lay
##iber
budd
##38
sigte
sætning
allesammen
vamp
2016,
læreren
byggede
omtalt
organisering
kore
##cket
##skaberne
fascinerende
##arv
terrassen
optager
##ønnede
symptomerne
hylder
optages
rådhus
##sædet
barsel
orienteret
cr
##orit
spiseb
bdsm
##estr
https
1999
kontrakten
chili
sjælden
nil
aktuel
arbejdsgiveren
ledende
halvleg
asiatiske
kosmet
##ledninger
##hvi
trop
fastlagt
etablerede
wall
blidt
hvortil
diagnose
##stur
avl
##yen
##sgade
værdipapir
malerier
##sektoren
fliser
fyren
##derede
##rifter
indikator
##work
smagte
##mig
##græ
##win
##rådte
væksten
jacobsen
retfærdig
mentor
appels
bachelor
20,
protokol
10%
uenig
research
kommission
derover
hjælpen
berømt
prinsesse
##slov
modern
ukra
tivoli
brændt
menneskelig
##enn
rykke
##tidspunktet
installere
##/200
kendetegnet
gø
slidt
##tagen
wo
videns
angives
##eliv
brands
kristensen
fremfor
asien
champagne
registreres
3:
reduceres
vestjylland
bestand
pump
##drup
##ffekt
wash
indgangen
anstren
opfører
rygning
anvendelses
##imellem
##itek
##skrives
bogens
##inding
indeks
tapet
indfri
kreds
årevis
##entre
##analy
usædvanligt
dead
trænge
indlægget
gær
ophæ
serier
sporet
cast
temper
##ivelse
gris
urol
overfør
afprøve
william
udfør
gentofte
maksimal
medvirkende
##nøg
##ologer
get
betragter
##ref
afhængige
##umpen
teoretisk
forestillinger
griner
vognen
##cal
##mode
##kapital
lugter
##udere
indkl
rollen
agen
##ira
håndværkere
##ficeret
ventetid
##ummen
tarm
mejer
##mg
fremadrettet
##bror
1.000
omtrent
4)
##illa
strategier
radikale
regions
lægerne
trøje
oste
greve
nægter
tænkes
lukkes
tænderne
##pilot
##lægningen
blan
susanne
##fjer
rednings
trang
incl
light
indtægt
ulykker
pur
##skabe
##bestem
##pladen
charlie
arrangere
##day
glæden
rettes
opsat
allan
##pakker
##gon
##bland
butiks
##telig
dæmp
##beskrivelse
udarbejder
ekspertise
vedhæ
sprede
bagage
udfordre
knægt
##oxid
bukserne
reducerer
##svis
##pu
centimeter
rækkevidde
63
##sbesk
trailer
##inv
sas
dagligdagen
##rine
kostede
rimelige
fordybe
lesbiske
hovedstad
##ruppen
86
genre
##venligt
udsol
##glæde
##følelse
ank
forsvaret
tilsynet
interesserer
##gårds
##spillere
##oversigt
undtagen
apoteket
isb
trænere
##ørne
##oliger
strikket
medicinske
##trafik
##sgaard
bedstemor
omtalte
vuggest
##1-
søb
##abeth
omhyggeligt
##nettet
slottet
istedet
tålmodighed
allergi
utilfreds
phot
##fravær
kontaktet
nationalt
##mit
tykt
barcelona
navnlig
hundred
##samfundet
fællesskaber
0,5
udgaver
110
##zo
##hæv
hopper
plig
erhvervsliv
stævne
stater
moun
bekræfte
indeni
gennemfører
##skamp
##orerne
hab
moderen
strømmen
forkæle
krydret
indhente
##vere
1950
lokalavisen
##søgning
flet
afdrag
erfaren
omfanget
##ationerne
cirkel
udløbet
færøerne
##esi
pink
temaet
boks
list
##grundlaget
engageret
##fisker
forretninger
happy
##reger
angriber
##.1
rikke
ober
underlagt
##ættere
syddanmark
defini
apparatet
teorier
sak
bass
##plejer
##faciliteter
låg
omd
kamer
kompetent
##gren
kult
skur
##ellekt
afslutte
##tex
##cs
farverige
##otisk
fremgangsm
sagsbehand
duften
##fel
##ives
##klasses
hyr
indtager
sfo
##ugh
##egaard
##tikel
##beth
##act
##jene
##avand
volumen
angivelse
grækenland
##bygge
tilværelse
##teringen
elsket
hørsholm
lanceret
##infek
aggress
##spraksis
sygemel
kærester
sundere
forudsat
hvede
ørken
skæg
cirkus
ribe
stabilt
tasken
idiot
tilbringe
selvtillid
pir
fods
tina
knytter
step
koncentrere
jane
flysel
##biblio
søm
spørgsmålene
ped
imponeret
udløsning
bedømmelse
##ansen
elektronik
forsøget
dårligere
##sprin
ukrudt
statsfor
obs
seriøse
##lon
blue
##levende
attraktivt
søj
skagen
##æssigt
hill
stir
begrænsede
##ulde
mindes
omtale
2017,
##estuen
baggrunds
##spring
##også
drab
hængende
##onsulent
bm
beund
skala
indtage
##icht
udtale
straffes
kanon
istand
betinget
puls
museer
billund
ukendte
smilende
låse
uskyld
leverede
ergo
##lang
day
luther
##ekont
kontaktperson
dron
vederlag
træerne
##fs
##tak
argumenter
gennemsnittet
gevinster
retfærdighed
skjorte
afvist
##aland
##spot
gulve
##fold
##iering
forsikrings
årsregnskab
##oget
instrumenter
anten
##arbejdning
zone
præsenterede
university
yn
procedure
##æsning
##date
ordsprog
pikke
glasset
##ræer
høf
inklusiv
##39
##ændring
##slån
feber
##tie
##øste
jagten
##iserings
opnåede
begær
skral
kriter
skaden
##domme
franc
bemærkes
forklarede
##præst
inn
##briller
studere
begå
imper
##roner
modstander
700
forlig
hash
gradvist
forretningen
##alingen
2014.
skeden
forsinket
##tanke
login
filt
skyd
pav
hukommelse
tasker
##inationer
(200
slagter
parfume
superlig
##yggelig
##sbas
christina
enlige
filosofi
anker
##etooth
militære
brændte
2012,
retro
##familier
##omme
udlån
værelses
klippet
påstand
ike
##skomp
sprang
koncern
drager
skille
##ono
rydde
##regulering
jøder
hardcore
##die
nummeret
dys
77
passagerer
modtageren
rumæn
emballage
døbt
##olk
##avis
##lant
##porn
glatte
tilsendt
##sund
uændr
##eser
##idede
udgav
aabenraa
længste
##lyd
afv
160
røvhul
##smateriale
respektive
kvindelig
##ministeriet
##ificeret
vietnam
julek
##skad
usyn
tisse
maksimale
supple
##ota
inventar
udenlandsk
tilbøj
advent
rolige
sygeplejersker
hæfter
installationer
procedurer
margret
udformning
##ørger
##war
alf
julefro
undskyldning
##væv
højden
madlavning
##wer
lomme
stive
erstattet
forældres
kollektiv
##gro
##slo
vækker
træthed
udtalelser
##risen
##plat
mails
næstformand
##uri
##olet
seminar
plejede
##redet
drev
koden
stoler
appetit
autoriseret
halvår
##37
aircon
bjergene
familiemed
kontekst
celle
##celæn
afstemning
##kli
toler
##økonomi
forårsager
undvære
magnus
##inks
dykker
##amerika
efterlad
##aj
morges
ordbog
##jorden
skiftes
temperaturer
trappe
hjertes
bluetooth
cub
synder
klinikker
vellykket
##skap
indgreb
##ninge
ydmyg
kombinerer
lagerstatus
burger
spids
##fond
mentalt
indvendig
ultimative
##29
justere
tilsluttet
energien
oversvøm
##hej
poolen
tilsat
##ikringen
skak
indtaste
ht
##formål
påkræ
##råds
##.),
##asy
##:.
inf
##chefen
dba
krydser
medtage
igår
pynt
##forbund
##vands
meddelelser
muslimske
undersøges
##menterne
##-9
sexfilm
utroskab
landsbyen
beskæftiget
iron
intellekt
##ienter
selvværd
olien
færdes
cow
facade
komfortable
forestiller
afstanden
konsekvenserne
blæser
##økonomiske
opstillet
vågnede
sommerferie
cook
....
##somkostninger
##eliste
##løsninger
tricks
rekruttering
parametre
dahl
tex
skiller
##syre
støttet
unødvend
##ssund
##gulv
inddragelse
pasta
aldeles
indenrig
fremhæver
##light
garanterer
omdrejning
overvældende
odder
forhandlere
19,
skiftede
##tidig
brancher
division
diskuter
##lest
menes
konkluder
rad
##orgen
mary
##eklin
##lærer
##valgt
##apeu
naturens
kulturer
højttaler
##edage
database
arne
##ariske
afholdelse
føltes
##sborger
bow
presser
grene
amerika
påbegyndt
##prise
overskriften
##mas
sønner
##lejlighed
##søn
##host
##ript
##fordre
norsk
fremmer
dob
140
uri
##aber
bestået
20%
##istyr
##kron
ment
udnytter
lampe
##sbu
perle
##olaj
opgjort
halsk
politiets
##tilitet
##sklub
regnes
2018,
forhandlinger
bønner
efterretning
##sky
ere
visuelle
##lejen
smiler
mobilen
##næ
##grøn
kryp
78
##advokat
##linje
grine
behagelige
printer
mentale
psykologi
smalle
##lamentet
websteder
låst
smags
##meret
fortolkning
##smetoder
tydelige
abstra
slettet
odds
decideret
destination
demokratiske
gentagne
heriblandt
indslag
væggene
dræn
##idens
afgive
forretningsm
audi
jar
pulver
##:5
organiseret
holly
tommy
##?)
lit
faglighed
##rek
flod
##dej
96
nyttige
##ield
excel
ordren
##hvorfor
testen
stej
mexico
##datab
lone
##?!
sænke
udgjorde
##cing
fortryde
skadelige
##tisme
##stemning
beslag
##netværk
##museet
sangen
berg
centret
tilbageven
indbetaling
vindmøller
investorer
produceres
##istik
stier
nødder
kvalifikationer
bart
overvejet
##mælk
ånded
pludseligt
##neret
sorø
##obil
leon
##ansatte
2019
farv
##ulerede
udtalt
##indkomst
fastsatte
begrænsning
bidraget
samfundets
##ui
##vokater
##cerne
håndfuld
##værktøjer
##,,
fond
køer
brut
dokumenteret
##faglig
balancen
undgås
svej
konkurrencer
røget
menneskes
pend
##kul
streg
slagsen
forfærdeligt
grafisk
py
soph
##assens
udtrykket
pok
cross
erhvervet
foreslås
##indes
##lads
62
##lets
rødvin
forgæves
teenage
##æler
savnet
købmand
nice
borgerlige
arealet
##dragt
##farvede
opdræt
##ryd
bræt
tendenser
lilla
##ansvarlig
##nød
##ovne
fantasien
overholdes
ansøgeren
indeklima
##pi
stærkeste
marken
taastrup
##ligste
følsomme
overføre
ideelt
derud
191
nøds
lasse
lister
##vne
##firmaet
flash
76
##eskole
beskeden
kontinuer
sekt
##oe
##ængden
##vaner
eur
tryl
kendes
##vers
suveræn
imødekomme
##indsigt
##grib
lise
sok
bruse
##moderen
##planter
informations
fold
ringen
##teligt
##hjælper
##materialer
regerings
doktor
løkke
forestillingen
finland
prostat
kemikalier
løv
satell
##direktor
snarest
varmer
kysse
beklag
porcelæn
spark
udkommer
##ødende
gold
følt
##amente
##affel
jesu
gitte
##zar
##din
omkostning
informere
##idi
lift
sure
forøg
karam
turnering
lego
symboler
krydderier
##pres
##fen
åbenhed
##amerik
##fortegn
skruet
hersker
opfatter
bacon
##irts
##sebær
##stav
##plus
suppe
##tiller
panik
angivne
##serende
syrien
potentielt
##certi
##klass
industrien
##italer
access
##syk
legeplads
fæst
##uropa
repl
udlig
danser
##sjælland
fjernelse
##any
##ula
tjekket
##hem
afskriv
kontrollen
forband
sjovere
##brid
bæredygtige
##nd
kvalme
motorcykel
##splaner
life
##udlejning
##afrika
fjender
hvorimod
tov
projektleder
##medicin
leasing
##hyl
lg
##kommet
##info
busser
##aton
førsteklasses
##øjen
hvalpe
massageklin
lander
##ock
manuelt
kedelige
kaos
narko
##reglerne
##boende
##eskov
hentes
modtag
hårdere
antages
kartoffel
neutr
knepper
hobro
##how
##eddel
nike
##zonen
##ødne
gennemgående
øm
fornyet
##ikon
drak
##organisationen
tja
##spej
##jagt
##-200
hygiejne
##flyt
pj
fattigdom
bemærkelses
angiveligt
##bt
overvæg
##forand
dvær
spises
sydvest
drømmen
flittigt
##fordeling
##sforsikring
##forbr
##ameter
flygte
vidunderligt
##agde
##sæsonen
fortrydelses
bredbånd
butikkerne
redaktion
sygefravær
rang
dannelse
tilskuds
serverer
emma
retninger
##organ
altan
målinger
##elte
sejren
aks
akk
møg
kle
besæt
patent
gåtur
konfig
indimellem
jal
råbte
skærer
friluft
syre
##skør
hævn
##klip
##house
kulde
##computer
kritiser
allermest
karri
##oger
vinderen
##adens
oprettes
room
##risiko
##familien
##sselskabet
ægløsning
danskernes
nåde
forsynings
miljøb
##ssystemer
accepteret
timen
streaming
##smodt
##afhæng
##bra
betegnes
ket
opfordring
##forsker
##apparat
kanin
krone
##tilfælde
gentag
meninger
trine
vinduerne
helikop
mose
vesten
vording
intu
kogni
teknologien
richard
underskrift
##givne
fornødne
##univers
130
dåb
##stest
bølge
##mund
myndig
##ministeren
målsætninger
##alismen
konen
vennerne
henover
##foreningens
prioritet
bemærke
vordingborg
kommunalbestyr
##ville
forlænge
##fælge
besparelse
##apeuter
dort
##lesen
##minton
berørte
##ua
ble
ulemper
kvælstof
olier
##banken
favoritter
betydet
myt
##brugere
##32
fortjent
knæk
certifik
kollektion
stationen
sydøst
##ansvarlige
blodsukker
##sty
cyber
kanter
slukke
##kilde
havre
kaffen
reglen
hensigten
underst
##hosp
skyldig
##espil
1800-
##bered
synspunkter
##stid
##foranstaltninger
konsulenter
##virker
bindende
##cover
##læse
tilkende
nydt
ingef
arbejdsmilj
booking
manuskri
småb
inger
borgernes
nut
##ynger
stakkels
##markeder
grim
##ægning
rækken
bande
##master
##sons
katten
tyskerne
djur
opfordre
##nesk
gætte
helheds
afsender
chic
feriel
aircondition
##vækkende
##gjorde
bjarne
udførte
nerve
årsregnskabet
besidder
party
she
bevaret
##bekendtgørelse
kalenderen
vågne
fornemme
eksistens
##princi
##rent
##stik
##ssag
##møbler
klaver
skove
##sprinci
progn
game
##abonnement
adm
##østen
guider
uheldig
(1)
reception
##bie
indsættes
trykt
undrer
skiftende
kriminelle
interviews
##mør
##ryds
fugl
endog
##ikation
ophæng
##hug
office
markante
maske
forlaget
besat
##ederne
underskrevet
##likke
alternativer
##vivl
##cont
indskud
teenagere
sproglige
peri
guddom
stel
brude
overnatnings
balkon
krum
anmeldt
manip
dernede
motorvej
beskrivelser
dødsfald
nøglet
velholdt
leget
mineraler
solo
##betjen
anmelder
overflød
sankt
skabelon
got
sax
forp
87
##styrken
gall
eksamin
forbedrer
##48
inklusion
landdistrik
partnerskab
forvirret
midlertidige
kæmpet
svigt
knudsen
handlet
prov
tilpasning
sundhedsp
##undersøgelsen
assistance
##mpel
##vm
##aw
solskin
ondskab
aktiveret
aktiviteterne
erkende
kvindes
gast
,-
##misk
impor
##unkterne
##færen
##ås
##ila
1998
##elles
overgangs
##sbil
##tagelsen
##uddannelses
rørt
##hvordan
uforuds
forlænget
grundejer
suge
udbuddet
slaver
tommel
##maler
oprigtig
uforglem
hentede
washington
overd
''
lovlig
##relaterede
betydelige
river
udmøn
enter
omstændighed
cost
fortællingen
##tien
gælds
derpå
##sejendom
bøg
hævder
fremstille
##indede
##sfrem
ordres
monster
##air
bremse
##veksling
betegnelse
refusion
gyldig
gutter
##ænkning
##alem
meld
doser
sodavand
##kateg
##inem
##borger
talenter
sammenlignes
##skabende
ambition
tam
##vægge
rive
grus
udfordret
##lesk
østlige
resulterer
nit
##rammer
premium
opførsel
##oller
##agtet
heden
##stue
61
tabellen
see
perler
virkninger
jødiske
indstilles
bibelen
forstør
##terings
##aker
##yo
##delte
prioritering
ic
##andid
herreg
elektric
##sbid
cpr
maleri
##indsatsen
##alisering
kollektive
genoptræning
##ause
lokalet
nutidens
blogindlæg
nøjagtigt
hiv
did
fejrer
anførte
sexliv
motorvejen
henvise
krim
##pulver
pladen
auktion
hviler
undervisere
stadigt
kvalitetss
lan
##klagen
forbruget
350
##virke
manif
##ydere
##forretning
##skultur
ledes
ihvert
erne
##uddannelserne
cec
skæve
##tru
##djurs
##ejere
tilkøb
families
helte
##venner
tjenesten
hotellets
##tegnede
hovedparten
cykels
("
##indeks
##hing
prag
##bestilling
protest
nad
ishøj
##akes
##samfund
målene
formået
troet
konkurrencedyg
##beholder
anser
tiltrækker
##dike
##fæng
udgivelse
frisør
##mur
knus
tales
absor
##foruren
bæredygtigt
##metal
##øderne
##oligende
undertryk
gerningsm
##bestemm
2013.
græde
##sey
##stød
udstrå
tredjedel
musikere
posted
##vald
respons
materiel
koncerten
titler
allerbedste
knapper
stockholm
how
##hh
sigtet
ubrug
##adset
##deler
deleg
sparek
##smark
pes
##shoppen
indspil
21,
fuldkommen
##dyg
bygg
##retninger
arbejdere
efteruddannelse
##asten
mrs
skruer
silikone
teknologiske
lynhur
demonstr
sønnen
##forstået
overflader
finalen
##5)
ey
godkende
assistent
##betingelser
##søgende
trold
##faste
rådgive
livmoder
opkøb
##jysk
##ænde
anvisninger
##antal
oplag
##aldrende
##egnede
energis
##78
glans
##gøring
forsen
##64
##rimin
forbeholder
smith
takker
##shj
villige
ansøgere
tavshed
jysk
##ulerende
ekstraordinær
flis
forsendelse
oplad
175
litt
opfattes
charme
syet
2011,
beslutnings
afvise
##orienterede
fætter
faser
portal
mt
potter
##alde
cum
medlemmet
sædvanlig
juice
flyder
sætninger
##ternes
glimt
sovet
viking
workshops
gis
##modellen
vedligehold
##jakke
indrette
tort
mobning
indikerer
brugernavn
##look
ikk
globalt
frue
kloge
##fristen
udveksling
##egr
##smiddel
##bringer
bilens
vasket
##kompeten
##kvarter
##æppe
referencer
forring
udbrud
taletid
turisme
bevidste
ændringen
kunstneriske
##arin
##usse
##konkurren
##km
julegave
full
erstattes
blander
##klædt
##rim
deltagende
bevares
fremhæve
##pligtig
##værelses
insek
iøvrigt
uændret
mæt
eksklusiv
refleksion
indsamlet
ydermere
arbejdst
##rerne
performance
rov
redaktør
betragte
fordob
trykket
udflugt
ubegrænset
romanen
rønne
##nar
##produktionen
biologiske
##pasning
afrikanske
##ato
##miske
##betjent
åbenbar
ts
hjort
versioner
varede
manch
magisk
night
##ikationer
##eridt
##køkken
nedlagt
værdifulde
ruller
tilsku
skim
afgøres
ledte
parcel
eksisteret
regi
indbyggede
##:30
forest
##ænget
##fferne
beskidt
##brem
magi
##aire
andelsbolig
flæ
opgive
##modeller
badminton
energibespar
prioritere
teoretiske
klam
sløj
gardin
##ygte
skubbe
ingefær
linie
##faring
begrundet
##tus
indsætte
kendetegn
vanskelige
opmun
drivhus
##olo
##måling
passiv
lob
udbed
etiske
##-30
cb
drog
hale
arkitek
##lod
3,5
seje
massiv
skind
afvikling
øjeblikke
overtager
##holdenhed
##denes
positioner
##ways
herover
fremm
rigs
johnny
alverdens
indgik
ambitioner
##hvid
sågar
##cas
folder
forbindelsen
ms
fordeles
school
##itteratur
talrige
komfortabel
##edia
ensom
bt
meddele
håbede
formular
kirsebær
arbejdsliv
indkøbs
alexander
##ensigt
bost
caroline
besej
fordyb
festivalen
summer
disciplin
månedlige
statsborger
synspunkt
##skomm
oplevelses
overførsel
##inspekt
egnede
dogging
slidst
putte
##centr
konkurs
overvægt
musikalske
nært
##uddannet
bekendtskab
trådløse
planlægningen
mangfoldighed
kontanter
##slund
##ederen
eksisten
udfordringen
##besvær
antibio
djursland
aktivitets
##kirt
##lemma
rosa
gb
wir
indklagede
forsikrede
afslutningen
##direktiv
whisk
datoen
blære
pix
##titu
##ergi
tul
##natur
truet
##skrævende
##spær
##fagligt
dømme
kneppet
container
tjekk
kod
##ops
kredsløb
navigation
mobiltelefoner
##lep
tripad
opdaterede
holdbar
chr
genrer
podcast
fetish
100.000
akupunkt
placeringen
##omo
overh
efterladt
befolknings
##rensning
##sministeriets
##finde
work
hullet
fejlen
##hunde
magiske
persondata
akkred
færge
skynd
sygehuset
##rækkende
##44
2010,
grundtvig
crem
længerevarende
##frø
iværksættere
registrerings
eksperiment
##sæde
moduler
##ularen
##telefon
jet
indretningen
fos
##løbet
henry
romantiske
patientens
##31
79
relativ
##bevil
layout
sårbare
nærhed
stævner
byerne
uddannelsess
##event
grimme
aftag
like
##estedet
jernban
##trakt
udflugter
##elærer
??
afghan
obligatoriske
mp
##overskri
intelligens
dispensation
news
boksen
udland
ekstraordinære
insister
testamente
tilbudsgiver
betydnings
##horn
##uss
delik
grove
stjæle
##tot
forældrenes
lejre
kurt
passet
kostume
##ei
##bass
##smester
straffe
omgående
indhent
##ampoo
åbn
##raktik
ess
##adsax
otto
ambassad
##indstillinger
sos
##kreds
afskaff
##hjælpe
##sklasse
##ever
##skue
##vari
kev
sony
ophæv
125
annuller
anbragt
synligt
aktivere
ihvertfald
sammenligner
flir
birgitte
kampagnen
genken
##reve
chec
##stjerne
25,
##serede
##fterne
fordelene
tripadvisor
kup
besøget
albummet
##helm
##styper
nysgerrighed
bevist
##etagen
videres
wordpress
89
grundlov
demokratisk
##ebjerg
##stitutter
læben
badekar
gluten
intelligent
mellemtiden
elis
pind
##sbeste
music
youse
udøver
vip
evalu
betegnelsen
##ij
dyrlæge
nybegyn
##spræ
adskilt
udtalte
modtages
##norm
mareridt
##3%
definere
bakken
##indtægter
semester
bygningens
meldte
170
reddede
jordsk
hånds
bjæl
sære
az
knaller
konsult
besværligt
intime
##yndige
##skes
sekretær
bjerget
##havende
afleveres
reddet
stykket
forfrisk
interviewet
ejendommens
##nok
rigt
##ahl
udløber
besætning
##3-
plot
##kontor
ordnet
vog
sygedagpenge
medarbejdernes
glider
foreslog
figuren
likvid
interiør
undervise
//
laura
##inske
rehabilitering
støvsu
stolthed
##effek
fbi
tommer
tænkning
obligatorisk
##gens
mødel
forfra
betalingen
lommer
hovedstads
returnere
##0)
cafeer
blogger
maves
opmærksomheden
udskifte
kommercielle
offentlighed
firm
kombineres
budt
##opp
låner
begejstring
mønst
borgerens
2/3
pasform
##mels
kajak
indgående
beregne
handlingen
justin
frederikssund
##ovs
skræk
##dtes
sitet
##ups
##tets
media
slaget
markere
science
masker
mountain
fejler
trends
motions
##uet
fall
tilsagn
##jon
bryllu
ålborg
knogler
chauffør
gæt
fleksjob
##raf
10-15
tilsættes
cecil
elektricitet
##øjtn
binder
stan
byt
afgivet
indberetning
rap
leveringstid
##cke
lotte
##cle
##ardiner
uoversku
else
forældrem
mira
badet
husstand
formulering
tungen
lyver
##klubber
udnyttet
benyttede
eksistere
kampagner
##årne
vældig
##eds
jess
late
##ating
##formid
##faldende
fortryder
nabol
water
##dette
##ants
##brun
gled
2012.
##færdigt
##star
##skæring
polske
omgange
dagligdag
elegante
##ugler
##igelser
udnyttes
forme
regnskabsår
anbring
påkrævet
##fortegnelse
savn
mærkelig
##hans
kvanti
force
##masse
ophører
skemaet
responden
##anker
ikast
uber
##eløs
onani
sinde
optræde
uhensigt
tælle
forstærker
##filer
struer
tilbød
##aretter
##armer
engagerede
##konstruktion
bekymrer
tilbagek
##lu
adfærds
##king
bestræb
gladsax
##ledelse
absolutte
##forbundet
pressede
specialister
karakteristiske
klienter
##/7
##see
spore
griber
informeret
##/8
##temperatur
kontrolleret
##nifik
dilemma
ansigter
slange
##eselskab
##æmper
skid
hjemmelavede
unds
##format
håndterer
pla
kortvar
##gs
handsker
pulje
##formanden
deri
ikea
afvikles
regnede
kombinationen
indkom
afviser
nyheds
##æster
dybden
##hat
urter
##him
civile
hamborg
efterlod
##strand
utryg
vintage
spins
aktivering
oce
udformet
##knings
efterlade
pointe
vigtigst
formidler
offentliggøres
##aby
fix
novelle
##:-)
ling
montere
##optimer
opholder
problematik
cons
øret
stave
##helt
drømt
arn
psykiatri
bum
ansætte
hert
honor
##bevidste
bemyndig
medvirker
fabrikken
statsminister
henvist
##deres
drukket
kosten
arbejdsdag
##")
ultim
differenti
mødested
charles
husleje
sværd
energiforbrug
kugler
håndtag
kvindens
nordjyske
nedsætte
71
##bang
sog
mestre
nedenunder
udskiftes
samsø
##krop
##belte
operer
papiret
tilbaget
84
22,
funktionelle
hellerup
afsløret
gil
tolv
##bild
ruter
uventet
frekvens
appen
venst
##allen
håndklæder
trådløs
kammerater
##valtning
papirer
dedikeret
tests
blæse
##amentet
budskabet
påbud
klageren
græsset
jud
##drom
##uls
arbejdsløs
jævne
##tro
##appe
søgeord
##abol
mathi
aqu
billedkunst
medført
trængte
udvides
garantere
fysi
##tene
skån
##elev
##10.
ånds
sier
trappen
tastatur
styl
knald
resume
##egne
skæres
soldat
##gav
forsikringer
tinder
vibe
abort
##båd
dry
##spis
forvaltningen
##fasen
tø
##stationen
opdateringer
visning
##edal
bedr
pude
##første
lugte
sejre
yousee
klassiker
besvaret
hag
forlov
harald
opbevare
børnebørn
græskar
##stjenester
pengeinstitut
skadet
##værdighed
forklaringer
skuespillere
vaskemaskine
indvendigt
##entere
massive
ophavsret
1920
garage
dramatisk
ext
oksek
følsom
satan
passerer
scand
schmidt
involverede
supermarked
færd
uundvær
##vært
landmænd
indse
gust
foss
kommentere
enhedslisten
stresset
igangværende
##beklæ
dommeren
##klagenævnet
##producenter
konferencen
berøring
ledighed
##''
designe
stilarter
fatter
manuel
oliver
##iderne
folketingets
##/6
næring
åndelige
jævnt
##ssygdomme
konstitu
##iten
neur
##parret
##rådets
rekre
keramik
##camp
udnævnt
befordr
advokater
mexic
supplere
mærkelige
revideret
råber
ekstre
hospitaler
bn
forsørg
skræl
##itch
antyder
fremstilles
rok
reder
drinks
sæsoner
oplyses
dykke
outfit
##fem
mundtlig
runder
##ositioner
justeres
plakater
first
efterkom
overgangen
øde
befrug
transm
fryse
komfortabelt
##akte
musklerne
##stole
legend
##skibe
opholdet
##nering
sommerhuse
overkom
north
##ifikation
##word
amts
##stændighed
grebet
##1:
##49
margrethe
##emand
salen
meditation
##flader
##kven
##pyn
##rings
signifik
##øvning
planten
##oween
drøfte
##fur
alter
myster
hilse
aer
fangede
prisk
##irksomhed
pålagt
satse
meddeles
undskylde
forpligtelse
københavnske
slæ
##itime
høres
##abilitet
##vamp
citat
udfordrer
gladsaxe
gårde
lejet
korrup
##sejer
ergon
økologi
mikkelsen
jyllands
bruser
druk
udsolgt
bringes
renoveret
introduceret
strømper
##pakken
ånde
1930
##sprisen
casinoer
opkræves
##slys
fab
##måske
##hastighed
præsidenten
næringsstoffer
4:
regul
indust
munk
road
uhyre
##lysende
##asiner
gemmes
barsels
udvider
regnvand
taxa
##desp
nemid
hytte
blandede
deaktiver
gødning
regelmæssig
pege
fagfolk
koncentreret
##...?
stråler
ilden
bemærker
sekretariat
studerendes
grun
hindbær
tidsrum
ryddet
##beskyttelses
sædkvalitet
##riger
forvær
sejlede
##76
konsistens
biom
fisken
indvendige
stribe
nøgletal
klipper
folkeskol
universet
parkeringsplads
##bjer
offens
ballade
lur
gælde
rykket
prioriterer
##sol
##kok
fremstå
landst
eksemplarer
##talende
indrøm
bærbare
rådgivere
elevens
##gørelsens
opgørelsen
who
rejsning
tilbagem
henriksen
købs
##alat
##serer
##ellerup
traditionen
##forst
content
reserveret
skuldre
indtjening
fordelingen
##urgte
taknemmelig
##bevægelse
ledt
puder
##ppel
hormoner
trapper
foreslået
aspekt
blondine
fornyelse
bøsser
##citat
##sformer
##dl
krisen
skulptur
registrerer
##-16
take
##usalem
effektivis
udskrift
##team
##-14
##metider
##lign
lås
kroppe
##anisme
fremtidig
##prop
saft
##bygninger
udbredelse
bygningerne
##musk
##præget
stald
porteføl
forventningerne
tyng
nyttigt
##kurser
tankegang
<3
tomater
##festival
##historiske
brasilien
ari
indiske
gaa
##.-
##edie
##ression
arkiver
medregne
hidtidige
søgeresult
ubehageligt
82
##mmet
dur
opholdt
##isolering
egenskab
##pay
fysioterapeut
akus
##miljøet
basale
belægning
blonde
vigtigheden
påstå
skelne
rustfrit
panel
skrig
3000
hypot
løftet
kompensation
nysgerrige
byl
webstedet
madrid
##ji
røn
certificeret
##urd
##øds
fy
surf
##ygende
glædelig
##resultater
dufte
markedets
bombe
fratræ
planterne
##gud
båret
forkøl
individer
sanne
##formet
smelt
udsendelse
identifikation
##ificering
##ladet
##umenter
akutte
meters
bredden
hemmeligheder
##gennemsnit
##blomst
vejlede
bestik
hip
math
##lagen
carls
lisbeth
##ielle
reservedele
torv
mellemstore
cph
sommerhuset
tilværelsen
uundgå
diagram
californien
stævnet
olymp
##gent
1990
nina
plantet
##forhandling
forhøj
vaskes
psykologisk
seni
kikker
bekendte
inc
gentage
tilsyns
##ags
##søen
overskuelig
1997
##inkt
##hvide
kw
##holdelsen
##gy
dor
vie
renten
##lærte
blikket
slagt
fedtet
##away
elektrik
##gaden
sejlads
##ventil
##arrangementer
beb
smerten
##aldo
ein
håndværks
##gin
bekræftelse
##akers
vandrer
##bakken
##museum
##direktoratet
tilbagebetaling
##grænsen
overset
hart
diskussioner
exper
spændings
key
opføres
##ragte
##mæg
900
##ændte
##døren
##rykning
bogstaveligt
udryd
nas
5%
undertiden
30-
misl
gryden
murer
enkeltes
sommetider
##room
##slår
andelshaver
kunstnerisk
overskydende
øh
kåret
##esterol
sushi
hemmeligt
fut
##ssvar
##læring
ombygning
utilstræk
haw
lokke
opvækst
vegas
##smassage
sagerne
##bilag
beskrivelsen
##styret
hygger
##figur
takst
brevet
##historien
##processer
værkstedet
wien
##ejendom
drikkevand
sle
afgiver
koll
mande
##ressource
##usi
##ward
kår
drejede
arabiske
hjemsted
##respon
arena
##forpligt
teknologisk
##ilitet
##tten
##yldt
,00
opsigelse
##desig
kreativt
##administration
30,
ink
##kesæt
børnetøj
hive
fejlag
##skilte
##nør
##shirts
halloween
moderat
##well
##gamle
inders
##indstilling
skrøb
forklaret
##ova
##noveller
blank
centre
godnat
betragtet
pay
##poser
smitte
forord
øvre
neutral
skandinaviske
terr
saal
##oney
##gaards
kærest
dirigent
stjal
alliance
##onere
lune
contin
kørsels
adel
edder
fremtrædende
tok
vågen
usædvanlig
##idas
##cha
barer
skærme
branden
##ril
ges
hac
dommen
råbe
modtagelsen
suger
cyklus
##ect
##giske
flød
##fortæl
besvarer
udløser
voldtægt
undersøgelses
tin
nørg
##byggede
blæst
forsvars
forsvarligt
auk
ualmin
%,
brutto
forholdsregler
afbrudt
overholdt
##kjær
##tidigt
opgivet
##ænkt
givne
tekstil
guiden
enke
topp
##igeret
##saf
faren
jeppe
fristen
als
onlin
slukket
##zi
##%)
beskidte
inddraget
visdom
reb
##plantning
##sforening
resultere
geografisk
shoppe
arrangerer
##gørelser
arbejdsløshed
buket
medfølgende
opvaskemaskine
bekost
bærende
indsamle
register
sengetøj
fremmødte
slanger
afhjælpe
rummelige
hyld
logisk
leif
klipp
##junkt
akku
ejerskab
introducer
gæng
christiansborg
##seri
mum
konsekvent
##cky
fle
ydelsen
thorvald
betalingskort
##46
langsigtede
##mose
katrine
godtgørelse
##amenter
##stræning
snapchat
hvormed
opgøres
pædagogik
##jens
underlag
forfærdelig
vet
skrivebord
2009,
udbredte
sammensætte
tjent
##athon
stine
nikolaj
galax
##formede
kede
objekter
forbrænding
##berettiget
betændelse
##bøj
gut
kyssede
indvirkning
infektioner
vænne
##dringer
##iserende
oliem
åbningen
##sprocesser
årsagerne
omsætningen
venstrefløj
tub
kjolen
landsbyer
gigan
##pladserne
præcision
uf
donald
konstruk
##eled
æres
##forholdene
tilfredss
førstehjælp
evige
nytårs
aske
##klasser
indsamler
tablets
##ydt
##gulve
178
svan
belgien
ult
insekter
##ssalt
##delings
##elund
formod
valent
##album
finansk
##kalde
swim
##aux
invitation
bronze
uddanne
juleaften
##dtøj
skylden
gin
control
helbr
tilbyg
produktioner
iver
pilgri
skulderen
forklaringen
fordøj
hensyntagen
##itim
main
blogs
sprøde
irriteret
##stilbud
medium
ytring
moment
##overskridende
##uide
prostituerede
##ugten
##eringen
lilleb
nyttig
rettighed
##prøven
omkostnings
ophids
indgåelse
##anny
01.
krom
flotteste
videnskabelig
oberst
##ush
gynæk
udgivelser
aktiviteten
rabatter
agur
##ashion
##frygt
bleg
betalinger
krukker
kroniske
varierende
optimering
asia
linse
##ancere
ignor
uddrag
way
##usivt
lommen
øjeblikkelig
ulla
direktøren
##koder
vægter
bestilles
skuffe
##kontoret
muren
##keren
høns
etape
hurtigste
fornuftige
buffet
sigende
vinkler
##shospitalet
stere
hjemløse
##pigerne
smal
hængt
##øjtnant
barri
fulden
fyldig
understrege
73
vurderinger
godeste
aa
##aldt
tilfredsstille
ensomhed
92
long
##erej
depot
biologisk
lillebror
##vejeb
landevej
orientere
##ænken
vii
hier
truer
spæd
oscar
revolu
argent
fas
##steg
##slåede
##håndtering
velsig
buske
myrdet
udsyn
97
##meget
anat
##okke
##sdyg
skep
francis
##materialet
##neth
fængsels
##ælder
##skasse
##værksted
christen
nævnet
obligationer
hjørner
##sprogrammer
fagforening
kontorer
##%,
kvalit
resulterede
øjeblikkeligt
stødt
lap
fjende
mellemøsten
overbevisning
spektak
ritu
moral
##knappen
overlæge
plug
marx
mosk
solned
variant
dyret
morder
udvendig
afghanistan
undtagelser
bønder
##hts
kemisk
##band
tilvejeb
ei
teorien
ufat
anmode
lektor
chil
goog
bræd
vall
påpeger
gartner
arkitekton
hundredvis
4-5
afleveret
jura
automati
##debat
##dsger
##balance
##emaskine
langsigtet
bbr
##eskri
platforme
##blev
vandtæt
2008,
graver
ingeni
kabler
overskue
ændringerne
slikker
organisk
psykologiske
bing
##fys
##adisk
udøve
generer
##/11
##ursus
stramt
##firmaer
udsendte
ledning
mall
droppe
forsinkelse
##dvs
lykkelige
hyppigt
optræden
##ængder
kwh
24,
medtaget
portugal
##wal
##rollen
skøre
dufter
##rundlag
ørerne
betjene
##akten
overbevisende
rotter
psykoter
ægteskabet
##jf
##rap
##rejsen
tyveri
cere
watch
skævt
foreslåede
kompati
lisa
kind
forenede
##boksen
casper
majest
sprøjter
5000
filipp
reserve
høringssvar
sner
ærlige
gennembrud
bisp
wild
undre
uddannede
##forma
##ates
##menu
faktur
vindmølle
hundene
stripper
##ther
udspil
ash
##agning
paras
vejene
##panel
behold
chefen
aftenens
kasserer
afhentning
sene
omega
##hum
ugentlige
turneringen
##øvende
sensi
bella
##ope
##lingerne
##elight
sanser
##forbud
latex
puljen
das
bloker
landsb
udfyldes
understreg
spray
satellit
solcelle
guder
kontoen
5)
nud
##egnen
tildeles
##forvaltningen
##lejr
##odeller
##fiber
##dets
sebas
##illon
jag
hann
kvittering
psy
know
##kampen
rektor
kulhydrater
09
særdeleshed
##aria
adgangen
##ute
sejt
##aya
højder
##sagen
spart
kendsger
milliard
forhandlingerne
bilerne
fremgangsmåde
bølger
hollywood
##omisk
##mængde
domina
##tav
ansøge
##aftryk
##slutning
jerusalem
lokalområdet
##spul
##sfolk
irritation
##håret
##neren
##røret
benet
territ
fjorden
##graden
håndled
biog
oslo
showet
hæder
æd
kunstig
flå
årsti
banan
libid
magasinet
mekanisk
##erhverv
anmelde
finansiel
tropper
##card
poet
derovre
##ileg
mast
messen
rammes
bekendtgørelsen
opsig
##københavn
involverer
##hjælps
garderobe
##dspor
friheds
##but
halm
børste
ulykkes
ilds
tidsskrift
sr
fam
formet
##/9
##æssig
etnisk
autentisk
caf
bevarer
##verne
##skyldig
disney
##inke
fladt
interessenter
##istand
ejerne
##low
kvm
##uni
indkvar
vejledninger
hæver
nedsættes
soveværelser
##ekort
udledning
limfj
udviser
badeværelser
nål
##metoder
##lie
tilbragte
dennis
varetages
##sned
galaxy
forlænger
fynske
##repræsentant
##central
masc
illustration
kevin
orgasmer
geografiske
travle
##stillinger
screening
##elly
ajour
biografen
dc
##arts
##bølge
lovforslag
##47
##økken
##bergs
##cyklus
##aga
redegøre
coug
komplikationer
##jællands
drøftelse
##ronten
hastigheden
##fler
redigere
kvalificerede
##givnings
##temp
mindret
##befol
porten
##sbidrag
blinde
ray
##kysten
blandes
detaljerne
##:>>
formelle
ultimo
medlemsstaterne
ferier
konfirmation
##front
farvest
slutning
mortensen
tomat
kontrakter
spredte
gene
smagt
bøv
dronningen
##ilder
blåt
##tisere
neger
virksomhedernes
forlyst
museets
rejsebureau
##ugle
##restaur
bunke
visioner
musikalsk
##derslev
palæstinens
konvertering
nb
##okale
sparet
strategien
irland
påstår
styreg
##handlere
loyalitet
##eskyttelses
##ize
##ivende
jacks
##universet
christiansen
forældede
##datoen
løsl
##rapporter
##egruppe
##85
##førings
udbydes
##alje
##ultet
##sfrihed
raske
totale
##'?
##huller
mystiske
:-
##cirk
##steknologi
trøst
##øbende
eksklusivt
##udg
behjælp
fordelen
##otten
udgrav
##regnskab
middelalderen
lor
diagnosen
jimmy
hverdags
##...)
vådt
asfalt
regionens
##egnelse
##sproget
##ali
folkeskole
linger
afbetaling
aktindsigt
##rigtige
rutine
##præm
##edler
legen
##ateriale
oksekød
blandingen
omverdenen
tante
bugt
vampyr
højesteret
kurv
indskræn
truede
sanse
##skan
##bevar
##portalen
pligter
stang
##forbindelser
nev
sjæle
strømp
smo
suppleret
tilstande
arbejdsdage
##agent
kompakt
08
svine
##kosten
##staten
vildeste
kristendommen
anklager
##valgte
opdateres
babys
beklædning
##energi
linjen
kontaktes
##etrin
bach
stegt
holger
ekstreme
lejem
katolske
##bryg
tåler
##last
lederne
midnat
##frugt
fonds
humoris
manglen
specifikationer
ryk
wood
astma
bruun
kursen
##turen
borgmesteren
naturstyrelsen
indføres
privileg
ted
katja
kulturen
##dum
##budget
dtu
palle
etableringen
mandskab
forbrugeren
##alon
cyl
##irke
forenings
##ektar
##uering
svaghed
##sættelsen
verdenen
victoria
forrygende
tony
handicappede
emo
ranger
stamme
selvs
inviterede
misun
tiger
libido
afhængighed
tilrettelagt
##ife
kirkegård
dagbog
snyde
markerer
##ussen
overbevise
23,
speciallæge
##stype
##øntgen
lemvig
whisky
afsluttede
snavs
spreder
##patienter
mah
liga
forhandle
##sere
blæk
rejses
ravn
birk
lokalplanen
##ituationer
sørget
##trækning
reformer
dorthe
##brogade
dannede
myl
frøken
##vejende
kenneth
iran
landskaber
##scen
smykke
udgiften
##ebr
afslutter
##auk
afdelingens
nicolai
##stationer
brid
ubehagelige
grønlandske
united
intensiv
##undervisningen
80'
##.:
fanen
prøves
nos
komplette
##ject
kogt
tack
skoene
opsparing
kof
afdække
miljøer
tvivler
1940
justering
##pigen
##flugt
relevans
opførelse
##grunden
##hængere
webshoppen
deposit
##orf
opkaldt
##bryn
##ology
århundreder
dragør
visuelt
lilles
følelsesmæssige
##istre
##uropæ
ledet
menighed
godmorgen
efterspørgslen
tele
friis
##ruppe
kernen
sammenfat
tilmelder
coun
undersøgte
illustreret
forespørgsel
##benet
fryseren
##ønner
skjern
servering
husene
##historisk
heter
##dkorn
svarene
misforstå
afven
patrul
umulig
tilslutte
karsten
##høje
##vinde
jones
broch
skod
skolet
efterforsk
julefrokost
bladene
##dæmp
pynte
sideløbende
vane
boy
##runde
##kvinder
afklaring
struktureret
skuffer
svinger
ærø
2011.
##tech
##terras
##vores
grillen
solide
##spektiv
##skolerne
investerer
kate
break
pac
gramma
##esc
langvarig
håndk
sneen
erstatter
beskadiget
##ftede
områderne
##orie
flåde
diskuteret
kommunikationen
##ænen
ejede
kastrup
##ments
englæn
værne
dyrket
universiteter
skræddersyet
fonde
ft
##dspiller
distribution
autor
ellen
specialist
sneg
indkaldt
fortab
##udvalgets
##opgaven
byråds
mineral
##inkl
dobbelte
foretrække
forblø
##ningsanlæg
tusinder
berørt
objekt
erkendelse
shorts
udmat
1500
stemnings
overstige
##vidende
zink
omend
deroppe
sats
mathias
##4-
naturgas
##cht
færdsel
rollespil
##ovnen
finish
bemærkning
cigaret
samlingen
##aturer
##blod
bemærkede
velkendt
flertallet
pauser
indf
brik
rygter
50.000
##faget
mach
orlov
##forskel
##sprøve
britisk
handlen
##rykket
tårer
##eksamen
##skommun
##less
regnen
allerød
forbedres
fælde
tomt
##smetode
##perne
kick
europe
opera
tramp
tilbered
##juster
arkitekter
##sving
profet
##elavn
##teknik
##vorter
rende
tommelfinger
dikt
easy
##ffel
##sche
##tekster
eftersyn
bevarings
halvanden
kanel
##iddende
fornær
referer
præstationer
lyve
##havnen
lakrids
##asp
fertilitet
cli
nets
##fællesskab
##overv
erek
spænde
##-17
##uan
agf
forbereder
reager
videnskabeligt
##ugning
placerer
##skassen
appelsin
##alth
jos
herlig
omtal
pølse
hule
atl
mystisk
tværgående
mesterskab
adhd
pausen
##gås
gor
duer
herrens
formater
grafiske
##smøder
tosset
afviklet
planlægges
care
coop
head
porto
##rejsende
##hvem
klogt
##renover
maatte
forsvarer
modstandere
##rutter
egetræ
##66
kløe
biblioteker
flasken
spejlet
alufælge
lejren
##reser
##infektion
sexnoveller
abo
##ændings
##splig
##yldig
muham
##orium
henseende
producenten
ypper
digter
persondat
mir
hænde
sprød
skades
interval
##esø
underliggende
##55
våb
##semin
løbetid
reguleres
##rafik
##mærkede
finansieret
strenge
udfyldt
6-
10-
##ky
forrest
operationer
signe
færgen
prostata
søgen
spilleren
knapt
kortlægning
arbejdsmarkeds
dankort
##elsæt
tortur
tidsplan
indsatsområder
##roman
mandlig
gentager
døm
hef
mindful
##blive
posen
tempel
nato
dialogen
herligt
varmere
folketings
1995
udvidede
cann
ign
##skest
bortskaff
pp
elect
robin
frederiksen
akkurat
##kest
##sbeløb
minimere
##undne
lee
linda
##brusk
##agens
bagepapir
sekretariatet
mb
image
##ays
poser
størrelses
##ascript
##arrangement
benyt
bekymrede
##politiske
fredensborg
alb
style
forreste
##kørende
##største
##drages
afklaret
lus
visuel
vanløse
ledninger
##bekendtgørelsen
##idende
shampoo
pussy
fyldes
gemte
##stjenesten
1996
lønnen
tilstanden
nødvendighed
grise
##sprocent
begrænser
##sprogrammet
##ærg
##olle
indefra
nordea
bestræber
tilskuere
johansen
arbejdsgivere
doc
grej
influen
stilhed
##arkite
samliv
ulovlige
stien
bortfalder
blide
vanvittigt
##urgt
##spsyk
matche
ekspedi
hoveder
udforsk
strukturer
##feldt
2010.
backup
indtagelse
komite
kviklån
htm
##ilding
##retningen
administrerende
what
accel
##show
coaching
undertegnede
mønt
fremsat
røntgen
##ories
kolesterol
samfundsmæssige
##redes
##ruder
fastelavn
##ensyn
hjælpere
miljøstyrelsen
##-11
renset
bbw
##attest
organisations
rystede
wester
natursk
##klædte
nøjagtige
tildeling
##mails
##barber
hejsa
olesen
##koden
antage
tester
komplicerede
##esvig
utilfred
opholde
formåede
ubehagelig
nydes
##lysning
varmepumpe
myg
bondage
overlevelse
##remål
fornemmelsen
##sendte
##filter
spilleautom
##ramte
sigter
etniske
low
##leb
##ican
##aborg
krimi
armbånd
meta
javascript
##row
afled
rodet
logget
kørestol
##sson
70'
bech
saint
saaledes
kommunalt
tvinge
##shistorie
##ert
redning
sandelig
haha
##skerne
måttet
modstå
##ærerne
skræmme
##/12
vælter
sandaler
aflevering
tiltrukket
forståeligt
sørgede
udredning
##42
sydk
kjeld
indtog
revisions
##ynam
cafeen
påvirkes
uddannelsens
upå
deling
problematisk
##voker
##priserne
stukket
##hurt
præpar
frust
regionerne
brande
kalve
bornholms
præferencer
##marken
derind
erklæret
indsendt
opfundet
religiøs
utrolige
scorede
tyngde
##68
##tics
grib
nikkede
cab
beher
rejset
egypten
tilbagevendende
##adfærd
lyserøde
barm
resort
rat
vha
strækningen
skyggen
lejeb
##9,-
oplader
jernbane
ordreside
classic
temperament
pinligt
ikrafttræden
##endet
litra
behøvede
klitoris
##67
basket
##defin
##nette
bolde
5.000
afbud
##tist
rejsel
##grav
biseks
forståelsen
genert
svinek
##indholdet
åndedræt
sebastian
amin
##osteron
##sort
##iteret
frækkeste
udgivelsen
amp
##ideer
arth
fersk
klimaet
menneskene
2007,
øste
##alens
##behør
opstille
pornografisk
##ekse
bmw
knep
##ikeren
##vokset
budskaber
25%
##sæson
##grænser
stau
snydt
##tilsynets
kål
##årn
##moni
##adere
frej
forførende
##ården
skåne
plakat
##jul
##jordenssalt
hast
##festen
##finansiering
##cet
optagelser
gaderne
##lab
romaner
lønmodtager
ln
made
0%
wow
fashion
smutter
grænserne
beregningen
##navnet
##entiale
materielle
anerkender
##kørslen
værdipapirer
##fog
##journal
##estyrelsens
klud
jette
rigdom
biblioteks
reflektere
hollandske
indlysende
bøf
##ressen
delikat
noteret
defineres
flyv
tiderne
##ovl
##smålet
spørgsmålstegn
bælte
lyster
##øber
ask
løj
årsrapport
##spunktet
##bestemmelse
beskæftige
eksponering
slæb
ydeevne
##sdagen
##klædnings
farm
campingpladsen
frigør
fugtig
saad
udsætte
##rip
83
rykkede
sæsonens
begravelse
interaktion
grev
attraktioner
ferieboliger
biogas
kursister
##serier
elim
prostitution
møderne
konflikten
tråde
brændeovn
uj
råds
savne
sprit
stemmeret
lopp
underlig
tjenesteydelser
ulrik
sundhedsvæsenet
##kød
indsigelse
websites
##afgiften
##rie
##yret
##planlægning
##sbetingelser
##stenen
fyldest
bedstefar
dæmon
##jan
direktion
statistisk
realisere
egenkapital
##ely
kunstige
tyv
##ændt
##odent
smæk
##herunder
arve
##cellerne
legende
##politikken
digitalisering
##41
##wan
klassetrin
##skred
##sejere
skibs
gående
luftfart
bedsteforældre
##cafe
forbrugslån
ulovlig
harddisk
##auty
digt
##bø
nedsl
##smodtagere
efterkommere
græd
biskop
fordeler
toiletter
##zoner
pand
afmel
vegetar
##navne
oplagte
##ventionen
gest
autoc
mandler
nægtede
sygehuse
poler
giftes
fjernsynet
indad
streng
lejemål
##tjenester
katastrofe
sæder
##moderne
forresten
kier
swimming
stimulere
indtaget
lektioner
venskaber
varmet
ansigts
##opgørelse
##ørge
##nye
appel
fedeste
medførte
farer
matas
anskaffe
##svil
dub
nerves
vedhæng
nob
agter
engle
atmosfæren
uren
fædre
fortælles
koordinering
indian
gangbang
specialiserede
##gjorte
frygten
diskuterer
stilen
jakkesæt
vs
##ften
##ituationen
##heim
håndteres
sødme
20.000
kontro
gennemsnitligt
granit
##egrupper
sponsorer
##omiske
ægget
##smanden
##77
joseph
fakultet
sovjetun
##elling
##optimering
##magasin
spredning
mercedes
brunt
drøftet
føreren
gulerødder
##ælv
brunch
dråber
relaterede
udskiftet
##andre
tilføjes
##inisteriet
akupunktur
hitler
servit
iværksat
medicinen
##chel
##døre
##arkiv
##yssel
tilstands
havregr
adap
universitets
årsrapporten
##scan
kink
26,
##sfuld
(2)
30%
5:
overholdelse
farmor
##nå
xl
matt
##dahl
mai
troels
tillægges
tod
udsendes
indhentet
livmoderen
instruktører
roul
uendelige
bodil
hydra
##kostningerne
tagget
##iater
hamburg
elevator
indkaldes
opsamling
værksteder
knude
foster
påtager
afprøvet
##anser
angeles
krydset
svimmel
skjoldbrusk
##43
##ryl
ferielej
tiders
##skolens
krystal
urban
##transport
##smod
ejes
målti
nokia
##lange
##æsonen
myter
mursten
##kommissionen
##udbud
nyhedsbreve
##egenskaber
dgi
hudpleje
##12.
##sygdom
smutte
##adiske
##grene
##mangel
##stemperatur
##indende
organisatoriske
##inn
eksotiske
##fronten
slesvig
sværger
##sender
points
syvende
jakker
arch
forbinde
##rod
motel
sandsynligheden
døtre
sneakers
testosteron
advarer
slots
snakken
##andsyn
herpes
##rådgivning
sauce
##redskaber
strækning
uskyldige
##statis
socialrådgiver
ridder
sjælen
antibiotika
hensigtsmæssig
##max
##sfest
formiddagen
raff
striber
formuleret
torvet
undervist
##rolle
desperat
diskrimin
##nest
isol
##uleres
udfyld
efterspørger
##demar
smelte
##klart
skønneste
olivenolie
diskussionen
##ett
##run
vade
investeret
kæmpest
##bem
omb
##folket
fleksibelt
was
teams
knust
##ache
friheden
mobilitet
mundtlige
redaktionen
kaffeb
dbu
page
##komsten
##lutning
gigt
udvælgelse
amok
webshops
dersom
sophie
##okus
erklærede
##iale
eskor
##smuse
##ulykker
sollys
almindelighed
eksperimentere
tape
brandt
forlang
27,
tunnel
implementere
##kyst
##herred
fisket
##institutter
##færdige
luksuri
hof
vejrtrækning
twe
vice
##vert
koncernen
karakteren
##steds
lodt
reparere
##ible
landede
##forny
julemanden
observationer
fremlagt
slad
mønter
meddelte
forpligter
##agtede
##ated
##løses
##mager
datteren
vilkårene
åen
marmor
langeland
vinger
radioen
pålidelig
ubetinget
barbar
domæne
oct
tobak
insekt
popularitet
##ake
##sbud
mandel
##orea
amalie
##beretning
fordomme
##lejligheder
reservation
young
##order
jules
stødte
skandinavien
##bagte
##prins
##sioner
lånt
restrik
prik
sexlyst
udtryks
messe
nordøst
##dress
##hørende
udleveres
##non
##fugl
smøre
styrketræning
##irl
slimh
##producent
##brow
aktiveres
##enheder
ventes
målgrupper
##estart
borte
overgår
milde
ulykken
##mont
rytme
fastholder
ledsaget
amme
låget
asiatisk
##dep
##akademi
maksimum
##økonomisk
søgemaskine
frys
alice
månen
planerne
transfer
projekterne
##just
sno
oliv
støde
##not
##kvinde
anerken
##zan
sd
audio
restau
##mærkning
tilskade
##sfun
stevn
##kk
regional
gyldigt
fastsættelse
##dset
##sløn
##gevin
##væsenet
afskær
##vejledningen
##hansen
nationalpark
##nn
rasende
kommissionens
##udi
##givelser
beliggenheden
bæk
videreudvik
##ental
dommere
fuglene
##'-
åbenlyst
91
##sgave
##waren
esp
##rettes
beat
##kelser
urolig
afføring
##bereg
rotte
stok
##nødder
krydse
tilrettelægges
##here
udbrede
afhandling
##luk
kub
##hviler
indgås
bau
lodret
faaborg
solens
##spladsen
forsamlings
miljømæssige
dad
1970
uregel
##æftig
stro
bib
jørn
banke
sindet
rengøre
##aha
klemme
fantasy
01
repræsentere
##slivet
muliggør
spændinger
logistik
formodent
folkene
harmoni
udgive
vanvittig
dug
forhånds
fremstiller
finale
pointen
standse
##installationer
##neg
påbegyndes
##repræsentanter
stemte
spisesteder
bræk
invas
oveni
vedtagelse
variationer
lamp
##yderne
ballet
dek
kurven
øens
##madras
airbag
gængse
pærer
##ensere
##ærings
begår
legitim
##klinik
strålende
##opol
179
dokumentet
ods
metod
slettes
herude
tillægs
28,
pust
anette
objektiv
##virkninger
brysterne
##ræg
propor
##ydigt
overs
##italen
kongres
indstiller
##uble
##lat
bnp
hassel
tilgode
kompetenc
befandt
forkort
sognepræst
##aug
snes
lynhurtigt
pære
familiel
##":
intense
##aal
kunstneren
lum
tegneserie
##pille
busk
lud
filmens
gaar
##husets
2.000
jordan
##redaktør
tilberedt
##round
nørgaard
premiere
definerer
menneskeheden
prestige
byråd
ridser
biologi
løftede
montage
##forenings
svømning
ordregiver
##enser
bour
fyns
skipper
indbygger
bier
reguleret
##nævnet
navigere
rummelig
ødelagde
respekterer
##skompeten
##forurening
depositum
##kirur
##69
360
polar
ios
##radio
ordner
ultral
jobcenter
##kirtlen
##ømmelse
stabile
##field
blødning
vod
hverdagens
##5%
##food
energir
emission
toft
tjente
##sløsning
##urser
##lille
punktet
uønskede
##inere
##strakt
##bånds
##sliste
##fodbold
regningen
esk
1980
##parker
##profession
lillesøster
100,
lampen
nedriv
kommando
sindssyg
succesfulde
##uh
udførelsen
##samling
mislig
##sprogede
udvælge
hh
deltids
##fradrag
##iterings
fingeren
intensitet
zon
babyer
erhverve
lækreste
annonceret
##dpad
vvm
demonstration
hero
##udsigt
nøgenbilleder
##uste
##agnet
##skonsulent
udsøg
hovedregel
overraskelser
##øgene
##klede
indtræ
minimal
lp
ove
ræk
hævede
konsul
autoritet
adidas
##invester
marine
natura
beskæftigede
##ryt
bevæb
texas
##føringen
##menuen
medic
##emperatur
romerske
medlemsstater
respektere
##broen
##undskab
corn
officiel
flybilletter
leb
##sløsninger
1/3
brødet
færdsels
forenk
angribe
##span
stifter
pisse
##forfatter
omhandlede
indpak
stryge
##skærmen
patrick
bevægelsen
track
immunforsvar
overleg
##vey
eksploder
##bri
kopiere
sydafrika
##sforeningen
indtag
intui
29,
tilfældige
trådløst
skattepligtige
##ancerne
nemmeste
valgmuligheder
autisme
7-
##anas
##kamera
found
40%
marcus
massere
observation
intenst
##ship
vagter
##afdelinger
pje
##ummi
klost
##ipedia
##count
##årene
rode
dæknings
pung
watt
hæfte
ruder
uformel
##pumpe
herpå
amning
kristi
bust
matrikel
hæren
travel
finanstilsynet
konstruktioner
##hall
##onna
konfron
overnatte
søndags
kontrolleres
##bun
bolle
klok
konstrueret
bente
kameraer
stigningen
farvede
##arre
true
spam
umiddelbare
wer
##opro
tykkelse
samspillet
gour
commun
cremet
haves
ordinær
##læst
tilsides
udstillet
amu
sandet
teatret
fælge
gravet
venstres
pandekager
ryttere
holdk
##gårde
flyvende
røret
overraskede
regnvejr
##forsyningen
illustrationer
##nak
dop
punk
vælgere
##rive
##svarende
undlade
##akadem
##elisten
spændingen
blir
pund
føder
kæden
henvendt
beroligende
##agon
kuld
##hjulet
##estre
steve
dybest
letter
##standard
##mølle
såmænd
stimulerer
insulin
jobcentret
##pynt
undtaget
%)
reparationer
##æks
stefan
uddybende
94
##klik
techn
1,2
dyk
##inform
tegnede
amerikaner
##leven
kakao
progress
annoncering
kampene
hvir
kredse
uskyldig
trick
amazon
##regner
omfattede
opkast
brønderslev
optik
åd
skinne
kulturel
umiddelbar
##2:
messing
##ulds
transpar
kapitler
chips
pakkes
cos
ledsager
##ektiv
forskningen
##hard
small
##mmede
enlig
arabisk
##lamentets
##sprøver
##lelse
værter
bestemmes
kass
apparat
energistyr
##ancy
self
præste
student
påhviler
refererer
##bot
##fores
manøv
frygte
kilden
ukraine
##svalg
risikov
##eligheder
##jerner
spiritus
##club
belys
##bestemt
hau
##intet
syntet
##bys
##ibning
##tegning
græder
##fet
##ibe
sydpå
##inspektør
sortere
trek
massagen
##stod
nisse
md
##støv
opfordres
overskuds
fravæl
udpege
fornemmer
psykiatrien
##arealet
handlingsplan
bagfra
vagina
elefant
81
sønderjyske
##sprojektet
betjeningen
aff
##ræng
##rama
joh
applikationer
berus
købere
træls
vedtages
##arbejderne
conne
cecilie
paradise
foretog
carlsberg
##timerne
tredjepart
90'
pall
nedre
extension
##oskop
##edagen
##mestre
##ukser
##båndet
beslæg
yoghurt
forandret
dik
chik
numse
selvstændighed
##inisteren
brystkræft
##behandlingen
##amfund
udbygning
##dannes
forfal
potens
afviste
lm
sjette
kærligt
overraske
smitter
regnskaber
##aljer
massivt
strække
sides
##hjemmet
inddelt
stempel
embedsmænd
##world
kinky
bide
review
reality
indersiden
##auce
afhjælp
ændrings
gød
##sommer
ocean
##etabler
anede
koble
sexolog
hjertest
inflamm
uafhængighed
##borde
aftensmaden
morfar
##klær
##lines
astron
93
udtrykt
fremmøde
fuldmagt
raket
konferencer
musiker
anken
##porno
tilrettelægge
##søgte
forblev
lukning
foreløbige
oversigten
virkningen
tilstrækkelige
indlever
##æmpelse
priskl
##dsigt
amerikanerne
##rix
##uts
opvarmet
afregning
karakteristisk
##ulykke
bedrift
samråd
sagsøger
##cho
ialt
wolf
cancer
iblandt
##jente
##shospital
forurenet
gulvvarme
jok
svane
##katalog
search
israels
halvandet
værktøjet
##pap
cass
neuro
genial
viby
##mine
##words
øerne
campus
##rettigheder
søfart
tilpasser
erkender
julegaver
##ckey
##region
organisere
##0%
##danske
skrib
##nummeret
frygtelig
antenne
tilføjelse
cock
signatur
ale
kirkes
udvendige
faxe
sensor
flytningen
stens
##sling
##grader
psykop
paulus
køretøjet
sammenhold
goddag
prioriteret
##sdage
disposition
forfald
##mik
##icer
##fornem
vanilje
svømmer
hua
cykling
any
selvsagt
ali
tabet
vides
administrator
udfald
forfriskende
midlerne
snæver
##ordinator
prostitueret
##uterede
skriger
kb
brygge
udlejnings
passere
opvokset
væb
##reformen
about
mejeri
retor
landsplan
revisorer
ejak
energy
moses
santa
##lyser
nationer
hofte
fredags
lykken
##forvaltning
rejer
##illelse
!!
snacks
horison
tantram
episode
tvinger
##hedens
afbal
automatiske
juul
##opkald
##position
##bere
##apperne
##edition
mælken
1.1
toy
søstre
rettere
folkeoplys
##sløse
skrot
##spartner
tænkelige
psykiatrisk
beskyttede
æren
udfra
nyhedsbrevet
##længde
campingplads
##senge
hoppede
##gets
massagepiger
timel
forudsig
##ebyg
##ners
##elskab
naboen
udslæt
##leverandør
pumper
uc
arbejderne
syges
indsæt
indsende
højttalere
##/-
humle
dyreste
##forsikringen
##fare
vurderede
alg
stub
rugbrød
##kæde
indisk
##----
##indkøb
løbere
##operation
opsøge
##bibliote
##afgang
voldelige
proteiner
4,5
udarbejdelsen
##anfald
elle
period
skoleår
##omb
5-6
ideal
##læser
amster
tøser
hakket
sløret
savnede
##bunds
##hænger
hvidvin
rensning
overlevede
gåafstand
##modul
vandværk
forstyrrelser
##71
benj
styrkes
brit
direktionen
klump
middagen
varemærke
søs
1994
æstetiske
##emarked
sluppet
besigtig
elisabeth
##svar
muld
fedts
panor
susan
diagnosti
##lavet
massageklinik
##bagt
betegner
##asino
##alistik
køligt
plastic
##bekræft
##sretten
diamant
##ska
lyttede
450
##gender
smittet
signifikant
gustav
##bevægelser
ky
afrejse
##yggelige
##indik
kokke
##list
##støvler
ugentligt
konklusioner
80%
##jes
karin
studieret
##kredsen
fodtøj
##ople
##holdige
anmeldelsen
2008.
cigaretter
html
antager
opladning
ube
pølser
solceller
evalueringen
##").
categ
preben
opsigt
##chi
##kjole
lastbiler
modig
##sbestyrelsen
##ologier
legede
oprettelsen
##cat
##ometri
##uleringen
indeholdende
nost
##videoer
##vinding
liberal
lyserød
guides
vendes
06
krudt
epo
festlige
bygherren
cyklister
##cium
lingeri
hjemmebane
persons
valdemar
##saft
forlange
tern
tvangs
initiativet
##aben
ulempe
trust
forbræn
ankommet
stikket
funktionel
ulige
mangle
morsomt
##dest
##institutionen
ophævelse
regnskabsåret
domænen
godkender
bli
stin
hækle
medlemsstat
##istika
apost
##sil
##held
dorte
dværg
fastslå
skt
##ønnet
værdsætter
##analyser
##butikken
tuc
bæres
traum
gjaldt
foreliggende
sortimentet
##egruppen
firkant
teknikken
vidende
fraværende
stege
andersens
dekoration
2009.
miljøg
##værge
butter
##kesk
##faktor
incit
hertug
annette
knallert
kendetegner
hektar
wat
anerkende
mindretal
riis
agere
cloud
##hygge
pålæg
spændte
##ielt
muskul
brown
belyse
nedsatte
virtuelle
rundvisning
forkyn
vedtog
evak
##yndigheder
allierede
##spo
tine
bordeller
##isont
destinationer
høv
identificeret
ungt
cases
vogne
indvandrer
##strationer
##bias
tyrkiske
##relsen
##ruktur
##ae
##mennesker
2019.
flyde
fødte
melodi
##angst
afhør
udtaget
brugerens
1970'
vibrator
##rø
vulkan
næn
ulv
havør
grundene
fordybelse
tankevækkende
##pix
sidenhen
henri
bebrej
hardware
sædvanligvis
iværksættes
låses
dramatiske
neds
blomsterne
ignorer
svæl
forskrifter
frygtede
pel
repræsentation
parkere
dagpen
lejede
malede
fornøjelsen
hjelm
litterære
kompagn
##fir
matr
##drevet
ånden
blåb
clausen
oprydning
lym
##lampe
lektion
handleplan
templet
kollektioner
pun
booket
##afgifter
blomstrer
tidligst
oliemassage
##bir
ejen
##belastning
stueetagen
##næs
##proced
børnefamilier
spo
rigelig
##def
omhu
##hvilket
##ventede
afspiller
ambulance
fronten
tørrede
krydstog
##???
##ason
moralsk
kundernes
overskueligt
solrød
horisont
tai
udse
revner
formulere
transportere
##hoppen
vandring
40,
ærmer
udlagt
pålægges
##pin
spsk
visum
##hm
##kod
(8
brag
sindssygt
glædeligt
##smuk
##maling
paragra
abe
fore
(6
##egræn
##eltoft
videnskaben
##kerød
øvelsen
virksomheders
##ofa
koblet
##adel
##edren
skyn
munke
primi
beauty
rekvir
##kser
nyg
marin
designere
##gie
##midlet
1993
##begrebet
jungle
garderob
##æsen
aroma
klatre
##72
##udtryk
##ransport
##illo
##øjne
bidt
##ættelser
sagsbehandler
##forbed
skaldyr
dannelsen
##kørs
##peter
##skabel
rygsæk
forøget
snedker
usædvanlige
annoncelight
bluse
lektier
søndagen
##alings
klarhed
diskuteres
gøremål
##krigen
ects
korsør
##flow
pyt
hist
krævet
anfører
),
##valler
kolonne
sværheds
terapeut
manchester
råde
##bian
gruppens
konstateres
##30,
beau
beck
foredrags
meddelelsen
##læng
botan
orker
volvo
freel
konstaterer
zealand
bankkonto
intelligente
##05
##jack
ll
risikof
gastron
kryb
krydderur
march
troværdighed
##anie
##ærkt
hernede
flygtede
beskyttende
1,6
swing
##tagne
værts
kostet
##........
udfylder
ambitiøse
gennemtæn
hændelse
##79
konsekvensen
volds
sættet
##acy
dt
strengt
kvalifikation
##bob
##attra
bænk
cola
##skoven
logik
displayet
albertslund
overvægtige
##aki
greg
password
folkekirken
tørrer
sektorer
chip
krab
meddeler
pos
weeken
debatter
værdifuld
tilslutnings
slukker
fortrinsvis
mut
hair
hylden
philip
dysfunktion
##skunst
begynd
uenighed
##oppen
south
ulve
gavmil
##.2
##ogt
fibre
opsige
efterforskning
##rækken
malene
##udbydere
tårnet
##rejst
endet
variable
partikler
arbejdstiden
dynamiske
vedtægterne
personerne
##edig
udfolde
##usser
shar
stæv
fundamentet
solbriller
##årnet
##estation
forstyrre
##print
husholdnings
##fos
marci
skyldtes
smerterne
chrom
molek
civilis
uforglemmelig
##wei
##kend
##garn
børst
jackpot
##opgørelsen
forlænges
wars
danny
falck
##aco
##blok
##01
##spild
pyntet
puslespil
##opher
veteran
tværfaglige
##via
##cenes
dåse
konklusionen
bestyrelsesmøde
nin
lejere
teltet
rio
##gribende
syddansk
hæle
##galler
kortene
pile
lovende
uendelig
blanket
modtagere
fremsendes
##ilt
visual
##måler
tændte
industrielle
##feld
hælder
##litteratur
oversætter
##hz
æggene
reading
håndklæde
##gymnas
svæk
miles
cougar
afslørede
cell
regulere
perfektion
raste
anfald
troværdig
kio
bram
lynlås
tidende
fotografering
220
smooth
##træner
##anismer
##sbudget
##godtgørelse
##askinen
opererer
amsterdam
##link
1992
foref
##edraget
gensyn
jep
##shjem
dial
##elys
##soci
##stigt
##berry
abonn
mappe
##centrene
minimer
æstetisk
##issær
##special
kaniner
styrken
facon
uheldige
##sygdomme
afgrænset
vl
##estop
##senhed
##ningsvis
surt
kunders
udfærdig
varemærker
hybrid
##marker
helikopter
variabel
korrespon
##ikret
##væggen
kuffert
læserne
underhold
##røje
assens
##ssyn
scorer
holdene
living
distrikt
due
chicago
indviet
dokumenterer
ss
##kontrakt
##rium
##tysk
bevægede
##11.
ydet
color
motiveret
besætningen
heidi
##yring
##skrevne
erklærer
##rave
##apparater
##drager
overskuddet
uu
alfa
skøj
##stabil
##edin
##obi
tørklæde
kedel
fortov
ingeniører
##cro
750
primo
##grupperne
##spriser
påtage
pornografiske
farum
##nik
facader
karamel
##skn
##seksper
##cor
summen
##estra
liver
hade
##andidat
ypperste
fen
fastlægges
langsommere
knok
##beskæftig
wikipedia
##seffek
påtæn
tilhængere
gib
opkræve
udsender
pit
aber
søborg
##grå
udfordringerne
snack
udløse
##oto
##resultat
##pause
stræ
syne
motivere
sommerens
brylluppet
##atien
mirakel
kendskabet
krag
linde
##smedlem
overvåg
##had
benny
klassikere
gaming
læberne
gennemgås
##alider
##down
ingredienserne
##bike
plejeb
gymnasie
fortrolige
likviditet
##bade
redder
##uleringer
bekostning
##gangne
cannab
politim
tilladelsen
kontrollerer
forkælet
steph
vidnes
##sæl
"...
gennemførelsen
tags
##oux
udsnit
##ordre
marina
mindfulness
##oge
impro
brunette
rigshospitalet
rider
##beklædning
neglel
bagager
skinnende
vestsjælland
eksternt
skoleåret
bulgar
præstere
instruktioner
roll
dong
facaden
medregnes
diæt
##igtigt
##samtaler
boot
##øjelser
forbeholdt
##egul
gentlem
romantik
certifikat
##ents
2.1
##ægere
bags
lettet
transaktioner
##ego
##stro
##mind
tiltræng
novo
kurve
tæppet
følelsesmæssigt
##elsker
##!).
syns
opsummer
indrømmer
grundforløb
##300
storslået
torden
##itære
forar
heldigt
##cted
imorgen
selvejende
##browser
fox
##sidste
evaluere
forandre
inddrager
sundhedsfrem
akkum
##liggender
sæden
omgivende
beklagelig
offentliggøre
folde
##kanaler
formularen
landshold
##30.
hue
##atten
1960'
dark
dækkede
##udb
hels
##tilles
renser
subjek
##æmi
##dinger
arten
selvmor
07
mirak
potentiel
implementeret
vang
skjorter
##korn
##onyme
great
gætter
##icks
##mningen
pud
dream
forstærket
##ebry
##usias
obama
mikael
sårbar
rådgivnings
dh
##verse
josef
stræber
ai
afdæk
alfabet
østergaard
legendariske
folkes
tilknyttede
##smøn
##skærms
tværfagligt
ska
##rrrrrrrr
forsøgs
christine
indregnes
report
safari
udelukke
indlæggelse
installationen
##sbel
chan
gaven
brønshøj
gennemskue
cash
frag
##uration
rend
##estole
mægler
##værkerne
diff
værst
afgrænsning
kah
2006,
funktionerne
prix
##sbesøg
marok
stationer
boost
afst
fortjeneste
##rey
##nisk
50,
##anche
##hrine
stemmen
##haus
##vigt
bosat
terapeu
betjente
##saut
##itorer
karakteriseret
kond
trådt
gentle
##danner
pastor
skuffede
##relev
##forhøj
igangsat
tilgodes
ordninger
##tigning
indmel
indtræder
gourmet
sundhedsperson
affyr
rakte
##dsyssel
bangkok
indbyder
##88
##pluk
##db
bremser
please
forbrugs
##mem
##ateau
distrib
barrierer
##beck
hallo
impot
fyrværker
organiske
officer
forsamling
##gær
rune
##vinden
aktiek
##boller
arthur
turneringer
anset
gabri
hvidevarer
ulighed
opgradering
scott
##tillende
entreprenøren
omtales
frustration
kønsorg
synlighed
fejres
konkurrere
nyop
skider
kondomer
opsl
fremlægge
##sningen
router
tilføre
##4%
##åen
landing
##cessor
skatten
usandsyn
skrivende
##stuen
huslejen
begyndende
udvej
##edr
nie
costa
lednings
##ordnet
modet
baller
suppen
##forstyrrelser
funktionelt
blomstr
##okkene
unorm
sokker
##bevilling
##rate
##beløbet
##ningsmuligheder
fuldkorn
sexpartner
bebyggelsen
##balle
##mange
alfred
overvejes
##sbrug
forveks
##atin
aldersgrupper
scoret
20-
ihær
lærred
##smaterialer
takkede
##ety
formelt
integrere
campingvogn
##samme
casual
velsign
##porte
doug
##uum
kirkegården
##iao
soves
##opdater
aftener
hyppige
spilletid
fremkommer
##mentering
omlægning
skjuler
fejret
uenige
parallel
##400
smertes
afvigelser
##chs
##hyg
##skærme
ensbet
fissen
indførelse
indledt
brugernes
dump
##elsest
principperne
indstillingen
##lock
udskrive
##søgt
##vinduer
aflyst
ekspor
lock
klist
berører
svul
fck
##havne
afro
oprettede
formodentlig
laa
visa
elektro
kanalen
nærmede
tril
afkøl
erfaringerne
skynde
overskrifter
kf
retssag
lykkeligt
##onder
uheldet
indkomne
stadighed
##klædet
moren
##fødsels
databe
##kunder
forkælelse
##edele
##nementer
indi
jammer
##dia
##behandlet
robuste
mature
distance
##spænding
bevægelighed
kau
##metode
vedlagt
##talerne
elskerinde
evaluerings
henvisninger
##geligt
opkal
##hegn
dyne
##ibre
##fjord
3/4
##atorium
synkron
##øe
bilka
fjernvar
buddh
styles
headset
ensbetydende
blend
holst
indså
##radition
fjenden
fungeret
##mobil
protot
alternativet
maritime
administrativ
##skøb
spejle
tii
##ception
udlæg
saftig
##oplevelsen
eriksen
hydraul
stæ
##spærre
øresund
##priv
##herre
akademi
lyr
glædet
beskatning
##relateret
tiltalte
##ekon
hmm
skærp
##panelet
håndvask
skraldesp
folkepension
brutt
american
##altså
##sensor
besættelse
faggrupper
serum
andens
lejemålet
vibeke
udelukket
fyldestgørende
lid
indånd
##2%
##hjelm
1200
nanna
energie
grinede
navnene
##arten
landmand
##veret
rabatkode
alsidig
nv
##otor
bøje
afløser
benjamin
boligerne
##arup
##fransk
putter
megaf
nytter
helligdage
jakken
proven
1-3
hedde
major
patenter
##rekl
##sluk
##møller
##sminde
retningslinier
##ature
smurt
##videnskabelige
klyn
løbesko
##forandringer
skyldige
udstiller
forbandede
##eskift
godbid
##hæves
charter
jackson
lokalitet
pasning
##effekt
##gruppens
lørdags
udtrykkeligt
traf
##andeme
##ordenen
uønsket
bilister
##elefon
derigennem
02
quick
defens
islamisk
##bestemmelser
cement
dagslys
magasiner
##ræne
sup
golden
motorer
udvalgets
løsnings
vas
usikre
hæves
##landene
villet
stjernet
##finer
klister
##1%
firmaets
birgit
stenen
bestsel
indsatte
sædvanligt
entusias
opfyldes
35,
uvil
skreg
spiral
walter
allerførste
tåb
##ingelserne
christopher
koner
tilskuer
supplerer
blues
investor
finansiere
##slog
rans
ubes
arrest
åbningstid
ekstraordinært
informa
johanne
##usk
##landing
foranstalt
##asis
velt
bikini
cremen
##apparatet
isted
retvisende
generations
sydfyn
fanø
kvit
væltede
køkkener
##ykkes
konti
##snummer
flybillet
engagere
forbrydelse
natte
##espiller
understøttes
##ropol
tilladelser
sporten
partiets
##øgende
##sforstyr
madvarer
inge
##bussen
flirt
invit
renæss
acceler
##hede
000
hatten
skede
ungarn
støtten
##fotos
sosu
axel
udskrivning
##7%
##udgave
rejsemål
støttede
kommunikerer
##tp
nyhederne
tredjemand
dukket
tykkere
højtaler
our
##rester
hev
##bygges
farfar
fastholdes
arsen
little
eksistenti
##)?
tørretumb
hotels
##afgr
##demål
dagblad
skyt
ryste
fandeme
jakobsen
værdighed
202
nex
torn
##erings
inspekt
forbrydelser
kel
stråle
arbejdstilsynet
svinekød
serviceniveau
##week
flink
syndrom
##færdighed
skuffelse
pony
trium
opklar
##lades
##ito
##teringer
mam
cher
aflast
læringsmål
##umme
##ørrelse
rørende
behandlede
arbejdsgruppe
vævet
##hub
photos
frekven
stearin
frederiksborg
karant
##bæl
##eleje
halskæde
hundens
kondition
##stræ
##stallet
skoles
ophæves
begyndere
husstande
kompleksitet
vri
bomulds
identisk
overvåge
verdensmester
##sand
lord
##register
brikker
##paa
##pus
æstetik
mindet
fastslår
230
nylon
##arl
##asta
kraftigere
estimer
babes
jager
##sbranchen
tilsluttes
4000
udgår
lønmodtagere
sluge
voldgift
demokratiet
##leri
##pend
glædes
støvsuger
##5-
eftertr
salon
##sledelse
sensuel
musen
afsættes
efterlig
##-13
uddannelserne
##udfordr
##beredskab
tilfører
etisk
manual
ebeltoft
##wo
scoo
snyd
feminin
sis
forhindringer
beskrev
##anvisning
mindsker
##gb
##husk
##jere
påsken
festlig
nås
2005,
arbejdsløse
cbd
varmes
årti
fotografier
sexhistorier
##ques
appeller
##umentet
kravle
##kin
gevær
solar
udspringer
lt
oppust
deadline
byudvikling
##aka
##svæk
lejeren
øjenbryn
transporten
##avl
leo
rav
##græs
##otek
face
antioxid
1980'
##nb
##sløg
##breve
rick
isabel
foredraget
##hån
broer
bænke
featur
frelse
01.0
##sekretær
ejendele
idømt
automat
overfaldet
sild
birkerød
##pude
suppleres
vindere
øvelserne
##amerikanske
1700-
shows
##skrivninger
##stone
helse
udvise
pest
trem
##skilder
frar
modellerne
##diagn
foged
mudder
##afler
##straf
beskæftigelsen
##byrd
##bilen
##propper
bobler
skattel
kræftens
tilfældigvis
korrig
robotter
ankomsten
##pc
foot
spærret
hub
iht
traktor
apparater
mars
affaldet
##behandlinger
indikatorer
telefonsex
sorgen
nostalg
##leverandører
##kart
derned
bankens
##aq
165
##installation
##dokument
hay
vinterdæk
pv
ist
tændes
pon
oralsex
##works
menuk
seniorer
##yldige
opstand
rådhuset
##igede
smelter
undlader
##rækkes
##jur
kinder
præmien
skoledag
psykiater
koder
##edskaber
##fy
##hest
##vard
bekvemt
##smulighed
standarden
(199
kirop
##håndværk
bedømme
##ladning
##serfaring
##skru
##mødre
folie
kulør
##svilkår
1,0
marsh
succesfuld
kopper
omtaler
##cti
05
ædel
akademisk
elektriker
bring
ånder
garnet
præger
##interview
inderste
##73
beklageligvis
sundhedsplejer
##lage
forvirring
##olde
##smedlemmer
ophævet
##personale
landes
ignorere
organisationens
##sbog
##shot
østre
##orv
miljøgod
løve
hældes
svigermor
omklædnings
##lyn
gt
##cell
##brevet
værdsat
reservere
datingsider
##tæ
mildt
kendelse
erfarings
thaipiger
proceduren
##aktivt
stjæler
##strategier
polyester
rapportering
kai
##skasser
##kammerater
hospitals
bider
##borgere
lederskab
svind
##sætnings
halvvejs
materialerne
##tema
##overvågning
them
##uroplev
fondens
kulmin
tråden
##udstyret
##600
##kastet
##portal
moskva
underlige
##ælles
tømt
øres
##ydelsen
factor
eftertragtede
##åber
valgfag
scanning
sædet
udslet
køberen
linkedin
##ebu
##yon
##super
##deltag
##publik
nybyggeri
forestillet
##mte
magter
##sang
anja
##bevidsthed
##nt
##afgørende
fysioterapi
svinge
hyggede
målmand
erotic
udpeges
##gear
historierne
filtr
konsultation
ventilations
lejlighederne
virket
anføres
orkester
indkvartering
##eringer
afbryde
udlevering
autoris
forklares
skrider
garden
##6%
##måde
brasili
##ølv
bevirker
6)
##tile
hindre
kloden
##tilbehør
size
bokse
guidet
fiktion
parameter
varetægts
feriebolig
##atning
stuer
lokker
jensens
##sle
maren
##ador
billy
##element
defekt
uddelt
##ifin
profit
tempoet
tungere
##8%
asb
##kobling
skamløse
karakteristika
##skreds
gid
hank
##kræfter
udseendet
##jakker
dyrkning
adgangs
tjekkede
udveksle
politikker
##cts
heat
##sprofil
sultne
##ues
dyrkes
skydes
udnævn
kvindernes
mordet
ringere
##ommen
taxi
##værnet
##kraften
timerne
evolution
##9%
rutiner
domstolene
overvejede
##terapi
troende
##indehaver
##registrering
##uo
lejes
slapper
udstedes
nedsættelse
##pel
biod
rørte
munchen
skuffende
manuskript
##anet
habit
cad
##arken
##given
dynamik
evighed
prikker
##koncert
undtagelses
##ødes
hegnet
##lementet
##klipper
alment
deltag
ordens
driller
##sejendomme
vital
31,
fost
swimmingpool
##ositionen
sou
##villa
onaner
kulturelt
banks
sårede
5-10
##xelles
resterne
extensions
kulden
majestæt
opdaterer
ventetiden
energieffek
##bords
æske
fristende
arbejdsgange
forhåbentligt
##kæder
klang
uforstå
##irkens
gårds
hjerner
retsp
tilmeldte
bryn
##oblig
glor
lake
##regionen
landsret
beretninger
hovedpersonen
##klag
breder
lingam
lean
kierke
demonst
gentlemen
psykologer
psykiatriske
majs
sct
hits
strejf
maduniverset
overtrædelser
liget
bibe
bore
brugbare
##indretning
forsigtighed
forudsættes
træf
styrte
hein
esper
stemt
fangst
køler
##eskolen
stunder
højsædet
scenarie
escortpige
omf
##sprodu
sælgere
##obs
##nerup
sugard
tavshedspligt
købers
render
afsætte
gennemfør
kent
anonyme
jøderne
nordpå
anmoder
herlige
omhyggelig
18-
nyre
gert
resulteret
count
##ssager
leges
##1).
eud
card
##atoriet
astrid
outlook
skimmels
velud
company
videregive
##gaar
##cider
længes
snow
##telige
udlændingen
klages
##profiler
##batter
##køling
uendeligt
konstruktiv
##ils
nan
sprøjt
##lish
forplej
ambassadør
##maj
fødevarem
lofter
liberale
sydsjælland
stifte
nakskov
ressourc
selvbetjening
##køl
##dnings
provsti
telefonisk
børsen
forbunds
præmisser
laboratoriet
##edere
regelmæssige
idyll
margar
episoder
##parlamentets
##matiser
beregnede
cia
##indtag
telen
##mission
diarre
pistolen
##formular
tilskuddet
##spolitikken
realistiske
afløst
stx
cannabis
##bliver
billigst
##dragelsen
games
hyldest
pensionist
##ria
##edan
##raham
##sters
##fire
bader
storebror
forfatterne
sovjetunionen
##alds
ufag
uoverskueligt
dras
hestene
afgrøder
tidskrævende
bue
beor
guden
styrkelse
lokalerne
kask
##råde
health
harmonisk
##derup
kyn
##kabel
massør
blodkar
gudstjeneste
mug
##edlen
boss
jonat
brækket
gallerier
klimaanlæg
##vag
##eknik
sart
##spolitiske
iværksætte
arbejdsgruppen
colle
livsl
sexshop
menukort
##skor
vipper
asp
kysser
markering
stofskifte
##vine
veksel
begrænses
hæm
sys
##udvig
process
alger
ordbl
##tagning
ballon
afdelings
institutionens
##europ
##stang
bruxelles
gennemgik
øko
##tigelse
##belægning
##hardt
##vold
bærbar
##elej
indgives
forekomst
kriger
##hof
parap
genskabe
provoker
vendsyssel
installeres
vælte
##jæle
##kæden
##udsen
##væske
nederdel
afleverer
boligområder
israelske
akademiske
damen
kondens
nordens
forfatterskab
##oy
anvend
flammer
døb
##spændende
søgefeltet
placeringer
##illy
isk
overdækket
##skibet
biografer
##ævre
##opfat
strim
##ingeniør
påvirkninger
skoen
uforudsig
skandinavisk
holdte
studio
datam
##ønnen
##reglen
feminine
udskrevet
##xy
iss
##vagten
sound
lysere
afsendt
##snæs
implant
sletter
##tedyr
katteg
##perioder
bygherre
kritikken
##asi
brusebad
##sw
##fader
sweet
forfærdelige
forvaltnings
kav
glæd
opførelsen
suite
skolegang
ingrediens
##sep
omsætte
now
##ansat
svindel
##inddragelse
##shæ
##iers
marc
køen
spion
hylderne
##hos
##aktorer
buff
kølige
giftige
iben
skikkelse
##praksis
mikrofon
modernis
konstaterede
##skul
##dsler
intentioner
##andele
nykredit
florida
opførte
##flot
sål
zoner
graven
lounge
myndigheds
konkluderer
##ee
##2).
emb
##emæssige
forsvarlig
fandens
##asme
##lokaler
##resultatet
##arme
##tube
##børste
##sborgere
afvisning
udholdenhed
smertestillende
##eline
##fiskeri
indsendes
right
trykte
##mesteren
oversætte
##bøgerne
##handels
gryder
opdragelse
##iki
##trup
aus
skålen
##modtagere
afholdte
australske
ff
##arth
gret
##fyldning
knopper
førnævnte
spisning
kærlige
sæk
rost
puber
lyttet
##komite
påkl
distra
##tjeneste
forløber
udsigter
forstyrrer
hærværk
##74
##feber
quiz
##løsningen
skuldrene
potentialet
##aukra
cheft
kabinet
dannebrog
##skning
##oriteter
##overførsel
##mønster
nedsætter
rynker
iscenes
snig
##ævnets
krige
skubber
sorteret
##øvn
##irken
##tikere
genan
##såb
salater
lækkerier
##nep
vejru
skadedyr
##ændingen
##fas
##alin
naboerne
daginstitution
##ativet
##samtale
shoppen
elegance
##snr
steffen
fænomener
3-5
motorik
portioner
##rog
spisebord
indvandring
underskrive
15%
abc
auton
indser
##vandring
tilført
opdeling
##odser
##karakter
mørkere
next
høret
##enheden
laursen
adoption
##parlamentet
betro
druer
##ficerede
opsigelses
transmission
##splat
paradoks
##æske
##sløst
opkrævet
virkemidler
baserer
1/4
##talen
aksel
cookie
ligning
opkrævning
sanktioner
##ylor
##denne
##derer
gids
gåde
depri
intellektuelle
vov
pirat
titan
##amlingen
botilbud
bedrager
##site
##sådan
##kyndige
##!!!!
tao
torsk
udvist
##steori
samment
lillebælt
tegnefilm
gennemsnits
introducere
##gig
udlod
##koncent
nyfødte
pensioner
sænker
marathon
fjendt
##farlige
ivrig
philips
finanskrisen
continue
efterfølger
nægte
æblet
##estolen
ladyboy
3.000
nordk
sympati
kærligheds
##kæ
helv
tæer
amatører
grønlands
##ksp
dn
##fanget
tømme
producerede
børneværelset
uniform
barnevogn
trendy
tiltrængt
vover
grimt
landsholds
opskrifterne
gur
nag
lime
adsp
vandfald
##øer
sati
funktionsevne
opfør
stevns
##konkurrence
##-25
bankerne
erindring
40-
##essel
moralske
statsaut
##sdato
hotelværelse
kæder
sejlet
kalorie
francisco
kontaktede
apoteker
fia
siam
##egør
hoste
optimeret
aktionærer
fotografere
##elekt
1990'
##partier
aggressiv
demonstrere
2007.
ensid
##frugter
fodboldk
ikoniske
forankret
journalistik
varetægtsfæng
superligaen
##ike
##sident
lucas
gult
##ægge
endel
hævelse
revisionen
##rente
##taske
supermarkeder
ral
ubesk
hensynet
mistænkt
##guld
fascineret
administrere
##rose
##ømmet
rare
meret
vuggestue
uar
##indsamling
varigt
##lært
æde
105
underretning
rate
uventede
tilføjede
name
håndkøb
opfattet
##sher
lagring
##ills
opløst
orienterede
##irs
##hospital
angsten
kraftfuld
##dyb
mariager
##kapacitet
ubeskriv
##oon
##strøms
brav
pulsen
dokumenteres
pick
state
##arbejdes
rettede
umulige
allergisk
christoffer
giftede
smeltet
øvede
elastik
energimærke
##injen
skan
fugtige
interessere
##10,
##certifik
levn
##øgning
##sstyrelsen
1,8
ort
##dages
klubberne
bygningsreg
vera
fortsættelse
fabel
magnes
varmeste
jason
umage
espress
##udn
##dommen
##pop
##ational
fortrolig
dobbeltseng
2.0
##iskab
nedbør
udgøres
nuanceret
varmepumper
##edann
udvendigt
partnerskaber
zoom
skæ
##fabrikken
##hud
toppe
bispebjerg
pålidelige
sammenlagt
gf
##dance
veste
barnebarn
servi
årtus
fisser
##overenskom
udgives
scenarier
##lø
add
##idsen
aven
modulet
yd
##oplæg
##rammen
drømte
besvares
underlivet
utilfredse
##amas
##kis
##kaffe
fjernede
fiskeriet
fastlægger
twist
grød
##minder
trøjer
##sbillede
sukkede
mærkning
tabeller
##-1,
##lah
ads
døende
sic
antaget
karrieren
nedbringe
styringen
##lt
udpræget
fænomenet
amerikanere
##eper
fremvise
solnedgang
##los
mistænkte
##bour
final
skrifter
forhindret
publikation
##fantas
løgne
besvarelse
enkeltpersoner
sper
årstid
opbygningen
##nøgle
pluk
fingeraftryk
##eskum
2%
vic
##illes
trænes
prævention
markedsførings
thailandske
ryster
fortryl
istedgade
påklædning
tiltrækning
12-
##dygtig
oluf
mangfoldig
tob
##stigning
beboelse
laboratorium
karry
beregner
begejstrede
banner
indkaldelse
legeme
afhentes
aspar
dalen
##.......
ryan
##sproced
muhammed
tæve
krydderurter
##serklæring
##metoden
##misbrug
integr
cuba
strøg
kendsgerning
##prøj
lokaliteter
##alter
påsk
rystet
formoder
udkanten
fremdrift
stemmerne
værge
bands
##nic
##erklæring
autentiske
vre
1989
pure
##gænger
begik
bitte
skubbet
centeret
udbyttet
råt
##skrig
gavner
bagagen
luftfug
vilhelm
skræmmer
båndet
##børne
##gaver
tobias
##imi
ægtepar
##accept
humøret
##færdigheder
transaktion
altafgørende
gråt
køben
tatovering
tut
hypn
##edelse
##okalet
reper
brødrene
illustrerer
ludvig
fremhævet
fid
nis
makro
brugbar
fantasif
påstande
mobilepay
##mart
##ardi
niss
justeringer
hæklet
modstandsdyg
fremhæv
stikkont
observeret
sydjylland
(3)
##eth
fb
mindede
portefølje
vidnesbyrd
statistiske
##sklin
##sydelse
massen
væsker
onanere
rumænien
udvidelsen
fortrydelsesret
gennemsigtighed
lunde
dyrlægen
trofaste
visionen
ligeglade
menighedsråd
roulette
##omon
belej
ventiler
udsendelser
##ily
overdragelse
##porten
smilte
impotens
landsretten
entydigt
grupperne
chokoladen
injek
membr
oplysnings
##50,
##kring
flov
fremsk
category
gerninger
konstruktionen
maja
##sbjerg
ligaen
vejdirektoratet
kogte
kirurgi
prisbyg
registreringen
moz
arts
france
stejle
køretur
mekaniske
bah
islands
glidecreme
fortrolighed
##vat
nicht
tilbøjelige
peng
##estrup
passage
mure
mille
indledes
placerede
genanvendelse
60%
zen
muff
##blomster
parlament
hovedsagelig
pm
##bonus
##flasker
##adressen
skelet
efternavn
##sbøl
kundskab
græsp
antrop
abraham
straffet
##base
velgør
udsving
overlade
stjernerne
##atus
ghet
nåle
anvisning
kirkelige
15-
aage
pent
rettidigt
færdighed
##otin
udi
osse
ritz
møllen
forvandlet
ubety
##lejren
skåle
metall
forunder
beboelses
##basen
referen
tilladte
##overfladen
32,
##eskriv
##building
hukommelses
vandretur
uhyggeligt
fiskene
motivet
koordinere
legepladsen
##attle
fosfor
##nielsen
arbejdets
storebælt
##sgo
tsk
genkender
smidig
arrangeres
##ebra
glam
krus
sour
opfordrede
storslåede
æk
effektivisering
fogh
larm
##ainere
##personalet
2,0
præge
datingside
palet
skype
løjtnant
udvælgelsen
expl
##skemaet
bedømmelsen
skotland
hytten
vuc
koret
skilles
ufrivil
##helst
##lyse
nødsaget
russerne
didak
abonnements
##kins
skitse
opbevarer
##forbered
beskrevne
ng
##lederen
##vindende
##ekontrakt
alan
##handlen
julekalender
##hon
##anni
hugo
carib
pinde
queen
udtør
tavlen
spørgeskemaet
slæbe
verdensplan
energimærknings
##92
kriser
ordfor
##æstede
##ebrydende
##procenten
informationen
60'
hjernesk
slam
influenza
permanente
humoristisk
##arning
kroatien
besværlig
sexdating
betragtede
##duft
##teminde
afspær
##desk
##head
hack
moske
regninger
strukturen
##læder
velstand
kølvandet
weekender
##iceret
gevald
grenaa
utilstrækkelig
østr
chaufføren
sundhedsmæssige
33,
barndommen
forbløff
balsam
sap
rachel
##perspektiv
odsherred
##oma
only
asian
returneres
##slede
##befindende
uovertru
##sprincippet
30.000
bevarede
tiltrækkende
koffe
##råb
secur
havnet
##stidende
fjernbetjening
3.1
væsener
solcreme
skulpturer
gls
##felter
tilgive
ugentlig
1945
uoverens
vælgerne
havregryn
##folkene
censor
enkeltstående
##online
gerning
kombinationer
renseanlæg
øvrig
opstillede
holdbare
korrektion
personligheder
board
##inderne
spredes
afventer
lettelse
##ætningerne
##udgifterne
belønning
bench
påmin
anonymt
dyrkede
kurserne
postkort
rabarber
hedensted
banebrydende
skyndte
øreringe
downloades
##odor
1.2
kvote
ara
kgl
##eborg
##mægtig
påvist
##spladser
udd
sofis
ægtefæller
blåbær
tilbragt
slemme
calcium
separate
vinyl
teksterne
tekstiler
pian
##ektoren
afbryder
bukke
datas
##sbo
nuru
klint
##melding
fotograferet
slidte
1%
ledelsens
##ores
tørring
konferen
koncentrationen
##chf
knive
gentages
forgangne
effektiviteten
##ordene
turne
varierede
returnerer
##yndighederne
aktør
outlet
børnehaver
persondatal
ansvarlighed
##bisk
staf
rally
aftryk
forsæt
forelægges
nedbrydning
babe
##rogram
plæne
udslag
##uropæiske
skørt
##bestand
kobling
multifunktion
##støt
##lyste
steril
share
korset
bys
genind
than
advare
frugten
##eselskaber
pegede
beslutningst
indones
##byer
fyldige
optagelses
vad
##cig
julia
plantes
biomasse
##96
ilde
##uck
##stykket
fastholdelse
##visnings
tilhørte
##lor
atp
##ilbud
##noget
##vænget
stemmes
liverpool
##stret
anth
##jensen
indrettes
forankring
##sug
##oid
cod
støttes
##entes
haand
##800
foa
andels
bambus
himmer
bendt
##redskab
##afstemning
bogføring
relationen
integrerede
integrations
eliz
barske
censur
fejrede
armlæn
lindre
agenter
påføres
formandens
50-
løns
tabu
opsætte
buch
##rækningen
##cin
cc
##tift
##identi
fuglen
1900
længsel
##pinde
tove
hjemmeholdet
##finalen
værdifuldt
kontaktannoncer
kvarteret
##betjeningen
præmis
vandaf
dækkende
tilberede
livmoderhal
##ches
cav
frygteligt
##ejet
lkke
##lerose
clean
movies
udkommet
##farligt
paraply
småbørn
##zel
##sigtet
hb
##uheld
##drevne
medlemmernes
huawei
magnesium
korruption
##kombin
tolke
##mulighed
fodboldt
##forpligtelser
reklamations
##ærte
##korder
##terrasse
spontan
facilitet
forbedrede
##kirkens
publis
udskudt
##kærlighed
ubevidst
fløjet
##venlighed
pubertet
mallor
anlægge
##ree
##ansættelse
fremlæggelse
##infl
olde
stammen
hjemland
##løber
##arbejdede
##sprotokol
kontinuerligt
skyer
escorts
williams
esben
tandlæger
værdierne
fjel
law
forseg
herman
ensomme
nøgleord
midaldrende
mes
inkludere
urte
bitco
beretningen
prioriteres
koges
##allergi
essentielt
rekt
after
terra
vikinget
svagheder
silver
##instinkt
##uma
margin
frigivet
lærernes
derop
kniven
03
jp
##floden
skygger
erindringer
anse
frodige
værelsespriser
##ios
##mængden
##tilbuds
##assistenter
styk
sødeste
prøverne
boulev
##liget
guderne
town
##skursus
facili
people
roden
##nogle
##roller
##gødning
opkval
##niveauer
1800
##bredde
simonsen
usk
fremhæves
friday
klokke
folkets
##afspiller
originalt
discipliner
##grønne
fodre
frustrerende
##indet
kognitive
(10
##bruge
opsyn
##ydninger
##direktivet
støvet
suppleanter
dæks
##imeter
fjols
hierark
smadret
tantramassage
arbejdsmiljøet
forvirrende
##åbe
indledte
gyldendal
36,
sanseg
galleriet
kvalificere
##udøver
propag
champions
##kra
##malet
##indtryk
##illen
okse
drøftes
furesø
bindings
##igger
##tedes
utæt
##væksten
undert
mogensen
lethed
utvivl
##økonomien
uffe
view
bridge
puk
varig
selvmords
##foni
##kæmp
##san
##atøren
##sektor
forfæ
mægtig
kronprins
indrettede
blink
vokal
erhvervsmæssig
statsborgerskab
fedme
##beviser
autoriserede
bmi
##overs
1991
basil
byrde
telte
humanis
regeringer
##estand
plukke
nordfyn
retsplej
signalet
##ardin
skaffer
tiltalt
borgerservice
socialpædagog
##elov
tapas
erhvervsf
forfatning
middelhavet
##alarm
sovs
norddjurs
1/
jeff
fremgik
0,1
foundation
jage
woman
flygter
fastlægge
vw
##ppere
hovedgade
##slokaler
verdener
usd
##offent
##fase
tåge
chatte
frodig
frustr
budgetter
velegnede
parlamentet
115
hipp
##behold
##ologen
##ranter
illeg
##tikerne
hudens
aktierne
mangfold
lii
pip
absurd
plaget
browserver
præstø
##grebet
udstillings
##))
##lap
##asso
##uger
10:
kay
flam
kundet
overdraget
##nære
##stillingen
frat
søerne
project
notes
konserver
medbragte
programmering
hæft
##ikerne
føtex
##pind
hiver
##kert
taletidskort
balanc
flager
korriger
alen
walk
pokal
afrund
##arisk
håndbol
stalden
isolation
skattes
bolleven
gyldighed
opstilles
##undby
enge
konstante
forefindes
investeringen
##rt
##strategien
38,
iris
menigheden
crow
afgives
højdepunkt
##dumfrygt
trofast
##bage
glo
forræder
pornostjerner
##styre
eddie
michel
rekreative
visitation
bush
fagene
##hængende
##sbaseret
##rengøring
markerne
michelle
fartpilot
##hætte
klasses
villaen
blomstrende
##ordfører
afsætning
##kroppen
nedgang
kartoflerne
ther
ulykkelig
##edragt
hælde
##bibliotek
##bryll
svæve
absorber
selen
##emærket
drøn
volt
kønssygdomme
##idræt
skridtet
kunstværker
ødelæggelse
deut
##udgaven
målrettede
##wall
sokkel
kvantit
standar
besynder
kristeligt
funktionsned
omme
##skabelse
pics
dates
moster
publiceret
##meg
##belysning
kulturarv
nybegynder
##face
##eløse
##stemp
claire
##ansøgere
smørret
energinet
rummeligt
efterladte
blærebetændelse
##levering
behøves
opfordret
søgninger
##medarbejder
rådgivende
sarte
rejseg
returnering
##sekretariatet
##lot
freds
guver
æggest
portugis
##read
bull
##estrøm
##rivende
friskt
årgange
skabeloner
##fing
ildsjæle
venteliste
##inspir
##neringen
sædafgang
argumentere
blanke
##fedt
hong
bagte
magtfulde
tandlægen
##vildt
forgift
##læne
ærke
forund
##sbestemm
fastholdt
ross
keder
dateret
plantage
##næsten
hjørn
##fans
sie
##gal
vat
dani
borgen
afspejle
improvis
##ugen
##bedst
myte
polic
forbindes
vareb
ankestyrelsen
bunds
alarmen
refunderet
0,8
knogle
features
lip
##erfar
##strømning
ernærings
færdiggjort
away
##och
blinker
##sforløbet
##standarder
klubhuset
##sevnen
tanden
instruktøren
##især
bænken
startes
bonusser
forekomsten
familiemedlem
##mix
##ævnes
##følsomme
##fortælling
##care
##62
dee
##danmarks
##hotellet
dødelig
bryggers
eric
vibration
##wi
##hil
sært
bomber
bosch
blokke
julian
forudsige
kerteminde
##kalder
anmeldte
usynlige
databasen
besvarelser
innovations
fern
indbo
##søkonom
kælling
landene
universal
##fn
##ræs
skaft
hjulene
skønheds
klør
lungerne
indånding
opgradere
turistattra
emilie
forældet
ping
akryl
##halvåret
tendensen
byrum
lageret
##arealerne
illusion
##rundet
##hoveder
clar
##kyndig
##træer
dødt
moon
##akkerne
##skørsel
##svinkel
knytte
udflåd
##ollen
joan
##retlige
arbejdende
ordrebekræft
##onto
0,2
shi
##spændt
naboens
##wald
nattes
edderko
svigter
beboernes
34,
##vejene
tysker
##ydningen
længder
strøget
##ansøgning
##udveksling
vande
##usiaster
indkøbskur
dyreliv
forplejning
klor
nissen
jordskælv
arbejdsglæde
målsætningen
organisatorisk
byggel
dødsbo
indlæring
læne
##blanding
planeten
slægts
brystvorter
6:
##oderne
pjat
litteraturen
menneskeligt
##ious
##unger
skrub
triste
folkelige
##sproblem
afstande
indleder
##stk
##placering
sangene
##vedt
kontrover
accessories
rundet
04
cour
cowboy
napole
islandske
##fortræ
forkant
udvalgs
specialer
bevidstheden
##øk
brat
koh
##fattet
temad
venus
marcipan
overfald
udtrykte
tvillinger
##kampe
##pøl
parallelt
donor
administrations
##akon
brom
##inther
delene
landsholdet
liss
konstruktivt
supermarkedet
##psi
helene
##ågen
jog
##ificerede
oversættelser
alarmer
lovlige
##ventioner
##hes
skys
blogge
hjemmek
modetøj
alverden
betagende
genialt
kommentarerne
##cr
smul
fjerd
tibet
sluger
##adresser
##ianske
kogebog
fremsendt
hastigheds
##kets
taylor
intensivt
historiens
##fotograf
##ois
søns
##kanalen
livlig
sværeste
##bugt
projektering
upåklag
studerede
konkludere
##ged
alph
nuet
sugar
##stederne
kogende
geografi
markerede
ansøgte
matematiske
hovedstadens
boston
mathilde
bedring
genvalg
hing
hydr
##iverne
herind
gebyret
##ssituation
afson
##formidling
##specifikke
analyseret
verdensklasse
##timent
playstation
##skuds
neon
##ovation
skændes
kommerciel
anliggender
##ærere
pave
##ratorer
beretter
foreløbigt
ejerskifte
indførelsen
havets
rekrutter
oz
pumpen
svækket
##stine
klienten
nd
##uppe
edb
##conom
soul
bogholder
##formulering
kriterierne
thr
##plante
accepteres
##rice
latterligt
four
behår
stråling
bearbejde
##oi
##3).
jøde
milep
##sbekendt
##samarbejde
##rskov
rattet
##lak
##vansk
kølig
##elskaber
skiftevis
limfjorden
##bebyg
fryd
##ækning
omdannet
indikation
spektakulære
eux
##akademiet
##uns
##marie
##sfulde
##titude
bloom
tyrkisk
east
suppleant
##ties
##shand
derom
gulds
algorit
værdiskab
udsmykning
##kæl
##stoffet
univer
yoni
fjerkræ
koffein
forlanger
dave
rude
bamse
eksem
nørres
##udviklet
##hullet
##optagelse
skadeligt
thailandsk
essentielle
læringsmiljø
standby
cellerne
##ais
##gratis
ditte
anklagem
indeværende
indgivet
##skæringer
madspild
##forordningen
##melade
spildt
foregået
optrådte
militæret
fand
forbav
nyheden
sektioner
beplantning
boende
corpor
varmek
beklædt
østersøen
akkomp
tilvalg
forekommende
ay
##bler
havner
lysende
naturoplev
læreb
##gom
##acher
tool
bekræftede
##dernes
##ordent
inviteres
afprøvning
reviderede
sydamerika
overtagelse
gord
svig
space
vedligeholdes
90%
intakt
##beton
##ekammer
##studier
overladt
støjende
tilgange
nude
very
##ammens
maxim
utvivlsomt
domme
tårnby
ansattes
##havner
ending
fortvivl
##oh
gråd
##flaske
udluft
sandsynlig
øvet
##eterapi
beskik
konjunkt
terrænet
innovativ
##alia
##door
aars
##guiden
##tilfreds
supervision
dd
##kompon
##slende
riget
15.000
bevilget
græsplæne
autocamper
forhandles
pludselige
udsendelsen
##email
##kolleg
##elding
tucan
selvfor
##følgen
byttet
sunget
comments
fortsættes
smede
##hjælpen
##iseringer
portrætter
såre
logger
indbringes
pensionister
##beregning
postkasse
##vægten
erken
gavne
##ificere
sparke
indberette
rengøringen
flyselskaber
filme
grænsel
##gn
##weg
##årds
harris
skærpet
##61
niche
snyder
hårdeste
skildpad
sundhedsfaglige
##bue
utr
hawai
belyst
planke
##rulle
gummist
langsomme
##seg
tilgå
##sniveauet
bønderne
##rick
eyel
mærsk
konfigur
sanktion
koger
væddemål
ejakulation
progression
restauration
##ief
begrund
nomineret
mud
bages
boble
##skravet
nøglerne
interaktive
,0
oil
anslået
hc
168
##lamper
##rans
forur
spand
pommes
cocktails
eksplosion
##fid
mete
asparges
blodprøver
##knap
##terapeut
tulip
aftager
holdets
sommerfugle
##live
##færden
vene
gyser
bevæget
finansieres
##mers
glød
2004,
merete
minoritet
##!),
fredede
skænder
frustreret
nomin
inderst
underliv
politikens
konventionelle
mtb
##tierne
lamin
lugten
sejlad
kampens
snur
##5,-
finske
afspille
straffelovens
smug
johnson
regionalt
optagelsen
cinem
synke
maleriet
##værelserne
##rack
##unes
25-
yngle
jersey
amanda
kunstigt
fyrværkeri
2.2
antag
stryg
fredet
nam
hjælpsom
manuskrip
slør
medborger
statistikken
##bøll
sikken
eksisterede
stearinlys
overarbejde
lie
huser
opmunt
tilfældighed
afgivne
tættest
ægtem
skip
##skuddet
##aper
vitter
gm
brutal
rullet
honorar
17-
beskedne
afdelingerne
omdømme
slikket
datidens
overblikket
##wis
afmon
##redning
spinat
generende
landevejen
cot
lchf
anpart
adren
optog
aktiverer
forøgelse
mundtligt
henføres
charlotten
nytårsaften
##bach
noah
palæ
##slande
tæerne
serviceydelser
1950'
story
rygestop
gevaldigt
dragt
gennemse
##åle
anbringes
bankede
##smek
setup
toyota
månedligt
##poster
elizabeth
hyppigste
softwaren
journalisten
##mandens
##bruds
fant
ansku
valley
overenskomster
##olerne
ophæve
tilstødende
##skortet
filmene
hotteste
indtægts
material
##ovo
1,3
##fanger
kultu
vallens
underrette
##orlov
omkreds
imponere
arbejdsforhold
damerne
åndelig
##æste
##læses
##chauff
skiltet
krydstogt
##initi
##dommer
krigens
##iri
##osa
adwords
champion
udklædning
emily
vasketøj
regulerer
##deløb
konsoli
siddepladser
diæ
##studie
##assende
##ped
bøder
filtre
misforstået
blokere
edition
fortrudt
overfladisk
##iva
ifm
hyre
snegle
afrikansk
##ofon
##foræl
succ
##acht
##integ
##strik
deal
indkøbt
stephen
medbring
##roll
gifter
munter
taktik
basketball
overrasker
##93
##idel
grey
##slerne
halen
##fænomen
bagerst
brugbart
beholdere
##væn
##ørt
cut
trio
tilliden
egn
##andra
joke
udtræk
sluttet
vedligeholdt
(0
##hulen
kess
motorcykler
naturskønne
##onerer
lokomo
jordemoder
forebyggelses
lokalsamfundet
##landskab
glædede
sexannoncer
##afbr
suz
justeret
provinsen
premierminister
##aro
##bind
##indi
##ints
##servic
servicelovens
nus
##filmen
bobby
vanvid
fødes
instituttet
mw
skolernes
destru
opfatte
desserter
112
helen
domineret
lb
1,4
stores
##dse
##pist
salling
jernbanen
bølgerne
langvarige
bearbejdning
##artikel
##kaldende
##sbeskriv
beføjelser
booker
dynen
stimul
forfølge
omverden
##lay
##mente
knække
##jak
rulleg
comfort
genetisk
planlægnings
ivan
reol
miami
##06.
dejligste
skattefri
##sno
##foss
astr
##forfat
bilder
gælden
radius
trøjen
småting
##iction
##mander
##dateret
opposition
leverancer
kommunistiske
##sanlæg
##hjemmes
anmeldes
begæring
foreligge
ordentlige
##fc
tonen
fritiden
smukkere
saltvand
bestræbelser
koncernens
ungar
utålmod
fredeligt
løntilskud
upload
##achim
disken
truende
udbygge
vedtægts
inspirerer
gog
essay
##virkende
udadtil
forgænger
##årigt
8-
##forordning
cheftræner
##hinden
nutiden
trommes
diagnoser
almindeligvis
prale
ferieg
googles
involvere
klasserne
gmail
ekspedition
tilstræ
betegnet
brætspil
hjælpende
komponent
følelserne
dommerne
bingo
forsikre
folkeskolens
##handsker
kaptajnen
##dragter
afklare
semifin
##saa
rast
hæftet
afhænge
anvendelig
skuespilleren
jake
jokes
dagpleje
efterspurgt
uhyggelig
guddommelige
##sbro
ægyp
sensommer
ændringsforslag
empir
brother
##sub
##uit
##tilli
tilintet
##tilpasning
fcm
jfr
dubai
##elli
##lidt
##svind
##bakter
graden
psyko
dagbladet
afløn
##stænger
eksplic
kategor
ærlighed
ansættelsen
bestillingen
kids
repareret
tilbygning
ludere
ligetil
flyvning
##rock
sammensætningen
##aldet
høste
singap
venedig
fraflytning
##dtag
##bemærk
##ængerne
værsgo
fugtigt
stænger
gale
gate
still
##kompetencer
fora
græspl
dametøj
præsentationen
##tillad
overnatninger
monte
empati
boldklub
wen
malmø
vandreture
42,
optegn
metropol
instrueret
tilstedeværende
ice
##fordi
##bærende
##ssikkerhed
ualmindeligt
arkitektoniske
menighedsrådet
##gigt
feder
knæet
trumps
erfaringen
forstyrret
nytænkning
##drive
wiki
price
udtræ
vakte
fodboldspiller
litau
væsken
energistyrelsen
##pærer
semi
ørkenen
##ures
hook
bunker
##politisk
nedlægge
##sbegræn
chelse
overlevende
betydningsfulde
##angiv
føje
##centralen
##gran
heks
afstå
forsat
hansens
##iversitet
straffen
terminal
lånte
pesti
strømmer
vandforsyning
ytringsfrihed
##erg
fælled
nerver
medaljer
##bølle
neglelak
##dreng
uhyggelige
kompri
opdeles
strikker
##utt
løbeb
somme
jaloux
skræmt
flader
understreges
##ero
defek
##cerende
sydney
alsidige
##ekst
brad
##sammens
godkendelses
ctr
devel
lygte
lauritz
utryghed
sammenholdt
##aftener
webside
netdating
##spå
-,
fædr
certificering
campingpladser
stegte
network
medicinal
påbegynde
##skam
##ælde
forude
forestående
oec
##analysen
##liner
##watch
alban
##spligtige
##telefoner
fotografen
klares
##arrang
##eløsning
##størrelser
leveringen
vejrudsigt
##bakke
##tillede
træneren
zu
##massen
mægtige
argentina
##pdf
vestre
eksotisk
omtanke
indsamlede
sg
##øjes
beskyld
valider
##krog
##eback
skred
##regningen
##smad
dinos
jødisk
udstedelse
sygesikring
ritzau
##leret
divis
væsner
graders
ambitiøs
##øns
##sfrit
xbox
##enmand
debuterede
husstanden
internetbrowser
rusti
##irkning
uaccept
klassens
rejseforsikring
laden
anklaget
mallorca
##gode
##ignaler
givende
forløbne
neutrale
tilsætte
cirkulære
gigantisk
arc
enev
uddyber
frednings
garantien
##brø
##skampe
##teksten
håndbog
##statistik
observere
tysklands
anerkendende
37,
vem
entreen
sprunget
##mønstre
skeptisk
##snet
kirk
##onerede
##eskyttelse
kortvarigt
biseksuelle
hoff
##splant
##gaarden
##hjælpere
##sbygning
come
##bøn
##seud
##oplysningerne
latina
medvirket
##klap
##vilje
æder
partikel
studerer
havudsigt
2006.
kokken
leveringstiden
##pir
dram
stati
genren
viktor
saftige
##linjer
##prægede
vedlægges
opretholdes
afskrivninger
ristet
forbillede
maskinerne
males
tilnær
miljøv
##tiklerne
udpegede
##typen
##fester
tiende
tilløb
hakkede
jordbrug
kontinent
##"!
passiver
indarbejdet
fredelig
forventnings
gnid
##timers
##sættende
fysioterapeuter
tac
hygget
tilegne
cykeltur
lørdagen
medvirken
uan
eddike
migræne
##emarkedet
branding
dedikerede
tidsrummet
##buffet
skylle
##menneske
stenene
udendør
eftertanke
##hjør
spy
overvinde
",
##ækkert
2000-
stein
svovl
messer
ældrer
leveren
tilbringer
hængek
printe
jonathan
skubbede
proportion
hofter
##fed
task
##adeller
samlever
realiteten
gd
enzy
dyrevel
terrasser
##63
##sejr
##konfl
tærte
jagter
##drivelse
emnerne
udpeger
fremlagde
selvfølge
-.
luci
socialistiske
brabrand
brok
magic
ræv
##canner
mascara
##licht
##rustet
##ønsker
finur
opereret
statsborgere
noti
##vindue
marsvin
krydderi
kirurgisk
ekstraudstyr
ups
##stream
impul
##spension
anhænger
scandinav
kollektionen
palæstinensiske
helbrede
kvartals
inspektion
##.>>
adult
place
bryllups
##læns
##ismens
dråbe
rating
vallensbæk
365
gys
heart
præmi
forberedte
##regi
##sbånd
linier
piskes
massevis
optagelserne
3%
koranen
standpunkt
pine
##illerne
flyvet
bekræftes
undersøgelsens
##omm
##overtræ
hastigheder
##skens
åndssv
retsfor
prognose
emmer
bagsværd
##fej
freja
hollæn
sæby
annul
polsk
##partiet
##sdatter
frokosten
csr
##antet
røveri
##fornemmelse
evangeliet
strækninger
pænere
rustet
styrings
vp
energimærkning
arkæologiske
slib
læbes
boligens
##)-
##ea
slips
(7
pyram
uddeles
tackle
joachim
brandvæsen
laboratorie
puster
##handlinger
klippes
forbundne
solidaritet
##bech
websitet
førstegang
##wear
##estad
##kerner
athen
deklar
##tighederne
mandat
karantæne
##html
nielsens
bordplade
færdiggøre
tavle
trænede
kognitiv
##ione
##iders
ansvars
superhost
udarbejdede
##zh
rengøres
##fordelingen
##mæl
##smid
brig
##boligen
hviskede
redigeret
##befolkningen
pcb
phen
pizz
kuper
hensigtsmæssige
afb
##teamet
autov
grind
choker
badetøj
intervaller
undervurder
ifald
##ugaard
kompli
parlam
sænket
dyrenes
virksom
24-
##hygiej
barsk
værdik
jere
##buen
##ssen
##ændinger
glimmer
platformen
forudsætningen
##doc
spilder
##fibre
feks
syddjurs
lancerede
motivationen
rustfri
##bab
##kanal
##aktier
økonomiudvalget
##itage
##ensburg
herhen
presses
doven
spæde
blomstre
telefonnumre
mcdon
##come
##ættelsen
hjælpes
##opskrifter
##ault
adskille
indførte
principielt
beryg
##sledere
##ll
##æser
##eling
##union
##dspunktet
##cil
##målet
adl
lemp
tyde
##lingens
##optagelser
suspen
stedfortræ
##heste
skolebørn
tilbuddene
70%
faneb
knæene
00:0
skræn
skamme
truppen
holdbart
indtages
epile
fødselsdage
impuls
vinderne
vægte
studeret
bureaukra
udelukker
lægemidlet
##otel
##redegør
ydersiden
stemplet
##åå
##måltid
##partem
lurer
medit
tiltænkt
bygningsdele
trille
##kommission
##lasse
drastisk
jeanette
##informationer
gåture
udløst
diskrete
kattegat
parfumer
##ruter
lagen
talen
hårtør
overgået
bibliotekerne
vækket
##ulationen
verdensom
fødselsdagen
disci
brusen
##kvarteret
indtaster
betragtninger
hell
efterlyser
transporteres
bej
reformen
havemøbler
baggrunde
menneskel
ligesindede
auf
short
intention
##cif
domstolen
spå
wird
##fjern
sean
##orkester
istandsættelse
reagerede
kvalitative
nørresundby
##mans
poesi
##sparing
førhen
##forhandler
tilskadekomne
240
##stillæg
reperto
##icher
insisterer
usandsynligt
##cienn
trip
award
værnem
##vu
sagn
birthe
ombuds
200.000
følsomhed
vibrationer
##vild
16-
amy
stone
lærke
##sejlads
##shandling
repræsenterede
##arie
grant
buks
teleg
hastigt
brændsel
##kvaliteten
chauffører
funktionær
forbandet
udsættelse
dale
studien
mj
ferr
fuge
uved
opvask
respondenter
ejerlejlighed
##udvi
##veren
gangs
bordene
fristet
trykkes
lufthavne
forsendelsen
##bjærg
##scene
movie
telia
winther
motorcyk
##,00
nedt
##medalje
forvandle
parforholdet
##insk
##liges
##stemm
andy
flyrejser
overvejelse
##rise
christianshavn
(1.
eli
genvej
##immer
islamiske
sortering
4%
##lavede
afviger
brygget
hvalpene
udskrives
skytte
etablerer
##evirksomhed
##02
##spisning
realdan
termost
julemark
##kre
morderen
suverænt
##oten
##parter
##passer
evidens
lodrette
udvælger
##omkostningerne
##knu
børnel
implic
protected
medbringer
tegneserier
##åse
##lederne
omgiver
dygtigste
religioner
misforståelser
##urerne
kuren
anmodet
atletik
symfoni
opsættes
hjælpemiddel
ankel
fjollet
peru
basen
##sporten
autost
udlejes
##pset
naiv
oprejst
bbc
spyt
gradvis
ledigheds
##æres
vicep
hyster
saadan
##advokaten
uddateret
##cul
polter
##rier
##shjælp
1900-
##inationen
ow
##vr
##regnskabet
kejsersnit
vandværket
lydkvalitet
isbn
##gæster
##sessen
højti
salmer
hehe
stadf
koncepter
efterårets
##forbindelsen
entreprenører
hilser
emotion
behjælpelig
##kler
barriere
lon
pollen
frister
behåret
aftalens
persille
tilstræber
##-1.
støbt
pensel
random
profilen
diy
##øjede
rollem
garantier
##kne
##sman
7,5
##estok
##orges
udbygget
ambassade
fokusområder
tatoveringer
##barberet
##siddende
forneden
##anka
##sour
1987
bronz
liban
sproglig
fejlagtigt
##yet
nm
indebære
forelskede
clint
flinke
##97
##ronen
mann
##vejret
##figurer
valutak
møblerne
oplæring
fotografi
drøftelser
##rian
##skontoret
##strukturen
grammatik
selvsamme
lancerer
forbløffende
ejerlejligheder
##pik
gaz
##olien
usikkert
##entrepren
narkotika
tolerance
bekymrende
seer
toks
udsteder
svimmelhed
storkøbenhavn
##usen
##manns
1985
##selvom
##tein
ømhed
renses
seddel
veroffent
integritet
anmodningen
135
bagen
##smedicin
##specifik
definitioner
225
##irtsh
##strene
kronprin
stressede
medhold
workshoppen
sdr
##fæste
hverv
dansede
offline
##kategorier
bebyggelses
sponsoreret
ji
singapore
procentpoint
blø
##social
##steknik
carbon
##behovet
indvik
masken
revolutioner
##eme
##prak
##ekstra
##gammel
turbo
##kenes
##skabt
ophob
aminos
bloggere
mikrobølge
intervention
##trans
grati
edward
##elskabet
geniale
##itis
vakuum
bortskaffelse
anlægges
indsamles
grundlægger
kvist
##interval
indhentes
##rektør
##aktører
indtastet
afslappede
gennemtænkt
konfiguration
spilleautomater
nim
bløder
eviden
simone
##spiration
drivhuset
veroffentlicht
læsø
block
bumser
dybeste
målte
pante
##konserv
arrangør
bureauer
published
indskol
introducerer
##hp
wol
usynlig
henriette
##urch
sække
lassen
mailen
interes
koordination
##æller
svendsen
##ello
act
15-20
##højskolen
##erets
adobe
tilbagel
ernst
førend
##isternes
##kalender
ødelæggende
frisure
sri
##strøg
##medier
sælgeren
udlevere
jævnaldrende
blyant
##planerne
##sættelser
modtagne
symbolet
##ikum
tilskrives
och
udø
hald
gerningsmanden
offentliggør
røres
tryks
pengep
brækkede
værkerne
1986
udnyt
tilsynsm
understøttelse
piske
##statning
betænkning
offsh
kærestes
intimitet
##kem
##verter
overflod
##craft
ydmy
leonard
stormen
asylansøgere
##basis
##hårede
virgin
begrundelsen
tøv
kerner
beholderen
aktien
fabrikker
huds
skalaen
##anmeldelse
fluer
##netværket
kunstværk
finansierings
##hals
##iana
introduk
##vaske
timevis
##barnet
skate
##føreren
kusser
forsikret
træd
elvis
##slutter
fremtræder
forsinkelser
vase
##chefer
metabol
##øgen
jay
##emidler
pioner
belastende
benyttelse
byggepladsen
solcelleanlæg
kå
serb
persien
plyn
bened
tren
binding
pesticider
##ience
avoc
2003,
andrea
datters
balancer
hjemmesko
gry
##praktik
lavest
tillod
##lokale
udlægges
korrektur
##konsulenter
##itas
##stock
saml
nattel
baglæns
regntøj
kært
volden
##etemperatur
183
hirtsh
fischer
genanven
medtages
trapperne
1988
solop
##stjek
##body
##dant
##eben
pvc
kiel
##reform
##sorter
kompress
gruppearbejde
##tiets
knibe
ribben
skoleleder
underholdt
restriktioner
behør
aflæse
bakket
forstærke
##instrumenter
tits
##agaard
nosser
råstof
handles
telenor
komponist
##beskrivelser
##forretninger
2000,
helge
dyster
friskole
informerer
##priori
soundt
##obligationer
befolkningens
##ssiden
fiskere
lesbian
tatto
misbrugt
fædreland
gymnasiale
##arab
bub
##ekast
varige
komplekst
betjenings
kongressen
##magten
chelsea
sukkeret
bestseller
##egårds
fagets
bagside
tilbagemelding
##riget
gill
sofab
bidrog
latinske
monument
venstrefløjen
frites
##mailadresse
redigering
inspirationen
##kles
##ætten
##spraktik
mikroskop
indstillingerne
rd
måltidet
##meligheder
##2018
hæmmer
dropper
reklamation
højdepunkter
##isy
##num
7)
##platform
skrivebordet
fedtsyrer
mesterskaber
##loft
##bjørn
##retur
bombar
frosne
berørings
referatet
relaterer
grundvandet
htc
venne
stedets
beboeren
vedlagte
overfører
transformer
dus
bordt
gunnar
hårfjer
regelsæt
udformningen
##præmie
spækket
hvidvask
soldaterne
hpv
rager
##nementet
integreres
tidssvarende
##700
##cop
##edy
hævde
##ementet
skødet
##åbnet
flødeskum
skrivning
omgås
tilgivelse
unødvendigt
gan
##skind
roger
##illende
forskels
rettidig
landskabs
københavner
nordjyllands
joy
juel
opfindelse
##fad
subst
fodspor
ansættes
østrogen
##ulv
cn
##puds
rung
##legemer
tarmen
##håb
##hule
equ
##hter
##ficere
mediet
##ficering
##smodeller
radiator
borgerkrig
raw
tosc
##stævne
nutid
garagen
kronborg
tvilling
irske
omsider
tillagt
autorisation
##ulu
æter
sporty
tolkning
kommenter
udspiller
39,
##aktor
kroge
0,3
indbe
forelæs
hjemmeplejen
følelsesmæssig
universiteterne
##cir
blus
##ningsmet
kredsen
##tomer
clara
squash
##regering
##-2018
unødig
onanerer
motoriske
##beslag
##sports
##ratoren
kliche
afspilning
horisonten
##ovide
snaps
##bryllup
påføre
pendler
ammun
dagtilbuds
forfatterens
##yds
0,4
##ims
dg
##vagter
magen
##ostyring
kortlægge
asger
kones
ankomme
forespørgsler
,5
isho
hjertek
gy
duo
enkeltvis
##jun
piv
##hånds
multik
hilsner
energiforbruget
##eger
dul
want
##gængere
##øvelsen
hundes
hullerne
lægehjælp
modstanderen
elbiler
misforståelse
##skatte
pointer
udskyde
##tium
søjler
knækket
markedsf
vedtagne
hirtshals
epide
##punkterne
##ennis
ydelses
søndergaard
##absor
hønse
afrappor
statistikker
publikationer
##lom
ric
##højt
tilstå
vertik
##partnere
aj
tjekkiet
nærområde
svømmehal
konvertere
hovede
##4).
##glad
modige
vanvittige
2500
arsenal
##ibel
gon
ifl
siri
kridt
##ury
##dals
level
flamme
##tagelses
##værdierne
ligem
##øsninger
deltagernes
vulk
babyen
##kog
##rænet
staa
##eleder
lejlighedsvis
##udet
slav
rødme
##stammer
granat
mobilt
(4)
3.2
cremer
fladskærms
overkommelig
frederiksværk
##øften
##dans
saxo
siem
månedlig
##farlig
stiftstidende
##isma
##issa
sark
flora
vasken
stigninger
##50.
##afgrøder
plejehjemmet
some
tjenere
haj
cust
##raktor
##givelsen
##vindings
skibets
swingers
virknings
barned
cs
##teknisk
definitionen
##inket
##vævet
25.000
paragraf
sommerdag
analyserer
opbevarings
tilsætnings
##ieret
holte
infer
kirstine
stikprøve
familierne
##røjer
bemand
##corn
udleve
højtalere
mangelfuld
vestergaard
institutionerne
loc
font
lunt
apples
spares
##udan
gulvaf
skrige
adspurgte
eksemplet
hollandsk
uregelmæssig
eco
forstopp
##forandring
isolerede
skue
museums
øjenkontakt
emin
husket
sekundære
betalingsform
##teri
fyrt
hurra
forene
nervøse
forebygger
kropssprog
core
##eventyr
operativ
indflytning
gengivet
bagpå
genud
igangsætte
afbestilling
fremstillingen
##veri
roen
hjulet
opkræver
præsentationer
128
nils
##linien
##skattel
##ådgiver
livlige
inderligt
objektive
ergonomisk
5,5
2005.
hjemlige
evalueres
kraftvarme
synliggøre
uundgåeligt
dokumentationen
##øbe
bjerre
express
fremlægges
skifteretten
hm
sac
sås
##burger
stream
modstands
inval
løftes
aflægge
solvarme
utradition
fif
beregn
udfaldet
umå
zom
##aksen
atlas
narre
##strømmen
beskyttes
##gennemsnittet
efterårsferien
##oed
##gasser
bruce
pseud
instink
##genstande
bakterie
jammerbugt
forvandling
familiesammen
##;.
niv
nordsøen
støvring
tet
##edning
bålet
##nyheder
junglen
erhvervsk
##bos
labyr
lærem
nur
mørkl
##regeringen
selskaberne
grace
disses
ruders
gabriel
##smaskiner
havørred
##skonstru
styrede
dominerer
##"...
##kryds
##klaring
anatomi
stregen
potentialer
->
lakt
kongelig
månedens
bedrifter
##skala
##modtager
tålmodig
udviklere
kierkegaard
##space
notater
forhuden
aggressive
nedrivning
regionsrådet
##orvet
monopol
fartøjer
kompakte
madpakke
folkesund
##ekspert
##levelse
lagkage
ekstrabladet
disc
rigere
tænket
##værkstedet
oecd
forvar
middelhav
nationalitet
##laus
##love
dab
##vinduet
overordent
molly
kusine
##ådgivning
ressourcerne
##rute
fade
sidesp
unødigt
refleksioner
##vanskeligheder
eh
saks
styrt
eskort
##opfattelse
kulhydrat
bell
metafor
skaffet
rigeste
dirigenten
åby
uvis
krænkelse
##æner
fried
erfaret
kørslen
##estruktur
fejltagelse
tunn
overgå
##ickl
baade
droppet
ligegyldig
forøge
grafen
mælkes
gavmild
tydeligere
datatilsynet
arbejdsgiverne
genere
deltageren
##upp
ørred
forfrem
##ciennitet
hændelsen
##brune
lysk
##grunde
kodeord
##kelighed
##ærlighed
heroppe
restitu
skorsten
grønsager
saudi
natural
barmhjer
overvære
tiltagende
yes
##versioner
tilbagemeld
installations
##6-
uklart
fortræd
frelser
grænseværdier
##sporet
mikrof
morsom
skyerne
hårtørrer
##filt
malware
polterab
forandrer
##okse
ustabil
elastisk
##instituttet
motiverende
##ogi
##lektion
underskrives
morgens
missionen
passeret
anke
malke
cardig
##nin
1.0
##sløbet
procentdel
forsørgelse
anbefalingerne
most
sygdoms
vejrtræk
arresteret
misligholdelse
##følgelig
##følgning
kosmetik
katastrof
opfindsom
##bye
##klo
cater
salme
spill
##real
maf
##genes
kalium
attitude
underlaget
##apro
skom
hæmor
forhen
altaner
brandet
imødegå
afbalanceret
##sfasen
tvist
ivrige
jessica
7:
jalous
##holderen
løsladt
ideologi
velsignelse
##tillet
##ebukser
undrede
women
##varerne
erektil
valentin
opbevaret
udlejeren
forsikringst
##uda
##asien
forbyde
genoprette
boulevard
afstemningen
administreres
6000
gulerod
bagerste
##fix
##øvl
sea
##cking
##oline
shit
nægtet
ovenik
passive
hovedban
lokalsamfund
##intern
hawaii
##alenderen
analytics
##roe
roder
informationerne
##plast
##ændet
ærter
underjord
##lydt
pont
fælder
##estykker
kessler
foranstaltning
##bekendtgørelsens
sha
fyrer
40.000
antikvar
opsøgende
computerspil
sergent
sammenbrud
##ckers
nærme
kalenderår
##ppende
hektisk
indtjen
##instruktør
skyscanner
svigtet
tilhænger
()
acceptabelt
fremvisning
forelagt
strukturelle
strapon
pie
##ringet
index
kompen
sportslige
##pers
døjer
opefter
sjoveste
udstille
gentleman
akkreditering
fagforeninger
udbudt
pornovide
afspænding
børsno
vænnet
fodring
advarsler
løbes
lektie
roklub
værdis
piercing
##senheder
rådhuspladsen
profi
output
indlede
##pisk
forlad
skrues
4.1
##fokus
hotte
holding
stoppes
hvedemel
stønnede
##bygnings
##bebo
##skik
mount
##arkitekt
flokken
svømmet
grøntsag
genoptage
forsvarets
anm
finanslov
wel
##mæn
skinke
healing
valgfri
julepynt
fokuserede
(20
##niske
lavpris
vek
##tegnet
panser
virtual
##tidligere
##oms
panoram
rækkehus
håndtaget
bivirkning
fagområder
##busser
opgang
ansætter
officerer
favrskov
realiseret
overskredet
##seres
pete
##dingen
animation
svæv
overenskomsten
##centrum
nemmest
##læggelsen
vejarbejde
##iate
ogsa
bedømt
clear
##sbestyr
##princippet
##hammer
fruen
kroen
hadede
kablet
udsætter
igangsættes
indsigelser
professionshøj
cart
##fløjen
##arkivet
ænder
##stigninger
passerede
ovenikøbet
demo
hydro
karton
komfur
afspejles
juletræet
##først
forbudte
lønninger
koordinator
udviklingshæ
frans
skabelsen
kunsthåndværk
hhx
arrog
##månederne
aldersgruppe
kokain
engangs
velplej
##ændringen
begrunde
tilføres
##struende
kulinar
spisestue
dagtimerne
hotellerne
udbredelsen
##endo
børnem
blomkål
##mond
pålægge
saun
##kjoler
satans
afregnes
sygt
hekse
##senheden
kursisterne
##coach
##udstillingen
##char
##hang
superliga
arbejdsstyrken
##sym
elit
gips
##hormon
bered
salte
olivia
##dit
##idan
##irur
scanpix
udsende
rentes
sagsnr
michelin
hukommelsen
##kone
##kategori
beruset
olympiske
fungerende
##gre
luke
##teborg
andele
gynger
kyllinger
##kit
##lære
faderens
anledningen
##spleje
madame
##ringning
rt
##born
uklar
##brættet
##spsykiat
tvinges
##reduktion
digts
dyreb
ungdomsb
##rs
##cis
hei
rapporteret
mikroorganis
##stjerner
155
fli
akavet
blender
##apien
beta
kommes
outdoor
veterin
afgiften
afvikle
undertr
byggetil
byrådets
batterierne
sparekassen
leop
linser
ideerne
udstede
dosering
formodes
lodtrækning
##bers
kjøb
kaffek
slægten
dekorative
anno
##spligten
kræfterne
pono
##esiske
milan
elendig
##ted
fiasko
jægere
##tekniske
prædiken
udfoldelse
telefonerne
##ido
pejs
lokalområde
realkreditlån
basic
fremlægger
arbejdstids
lcd
siv
hammel
kraftfulde
anvendelser
##konstruktioner
begivenhederne
ves
kritiseret
stressende
##hørt
opgraderet
fordelagtige
##uz
##olaps
##intens
barbie
frk
funktions
partierne
frivillighed
##glade
walt
træpiller
politikken
kontroversi
##oland
visi
kronen
##alismens
fælless
partners
læsningen
talentfulde
##cens
##rupper
##medarbejdere
##biografi
skæbnen
##fair
##virket
tokyo
konservativ
mountainbike
##ogene
uvæ
address
advaret
afdækning
forkølelse
##ulet
hindring
forskrift
lucy
fjernt
flensburg
emballagen
brocc
lukas
bleven
firkantet
(4.
koch
hårtab
pierre
respon
frafald
60-
nikita
uploade
##94
##izer
##venser
godset
påført
veldig
mailadresse
##ssæt
whe
klassel
velfort
behårede
højbjerg
miljøvenlige
##øjs
ct
brydes
punktum
konkurrent
forstoppelse
##skonto
##bestemte
1,7
skøde
##smuseet
relative
##xit
8%
rki
##arium
pagt
##brande
generere
sindssyge
incitament
folkeskoler
videreudvikle
##foged
european
postnummer
##sbutik
guldborg
##inas
medbragt
justerbar
##pg
45,
mie
##førslen
midterste
besættelsen
##atel
fredelige
##ningsmidler
0,6
##gevinst
salaten
energisk
feriehus
skrivelse
svingende
##iken
motto
stads
western
underholde
##peci
##toft
accent
##sbilleder
udstråler
skimmelsvamp
mons
sekundær
branchens
fokuseres
mekanismer
maraton
indkomstår
##messe
##eksempel
gernings
##sim
##kurv
foresk
rulles
opgøret
##sbane
##stræde
lygter
personens
mastercard
gyde
lejekontrakt
vanskeligere
##dim
##stater
lobby
knækker
unionen
tilbagegang
##kund
ruth
double
racisme
pladserne
kunstmuseum
##oved
het
##virus
atel
tåstrup
retningen
intensiver
##adsk
##minde
gavl
henviste
videreudvikling
##estret
##privat
saldo
overlevet
2-4
##laden
##sfirma
gentagelse
thorvaldsen
kommuneplanen
##furt
1979
##dannelsen
##titel
uagt
slukkes
sportsgrene
internetadgang
bie
intra
underbukser
##akse
blodprop
dækningen
kret
karina
musical
kriminalfors
##pit
##rand
estim
indsn
flittig
##parat
parate
streger
##forskelle
kyllingen
(15
##estri
utæn
arealerne
rc
økos
prono
develop
tyndere
uundværlig
medarbejderens
##estykke
gymnasier
udstråling
##gry
##spray
country
##brik
##egel
##psis
##varmen
varev
fødselsdagsgave
fake
agenda
bugten
vojens
forsamlingshus
spillemaskiner
##åh
saga
melding
slikkede
troværdige
velhavende
lovpligtige
næststørste
##ebel
gaffel
spyd
rober
uvidende
aur
blødere
sædevarme
argumentation
undskyldninger
qual
verb
stinker
ministre
##blandingen
1,1
andrew
ism
ande
nørreg
##estrateg
##blin
##relig
##hugger
medio
kasino
fritaget
powerpoint
fuldstændige
##brøn
spad
177
dmi
kard
ghetto
cylinder
åbenlyse
dybdegående
##algene
##sikkerheden
skiltning
serveren
sommerland
samfundsfag
skattemæssige
50'
ansøgt
familieliv
nobel
gentagelser
##oterapi
instans
pokkers
forskellighed
meyer
##index
##skåret
##psykiat
hytter
hypnose
forbryder
beregningerne
##bombe
høflig
smørre
domæner
retssikkerhed
##ænkende
blæste
spontant
gror
spag
pakkede
benchmark
vaccination
forgår
lystbåde
rudersdal
udvidelser
applikation
gennemgribende
##tide
14-
wonder
altanen
gip
sank
##elater
afvises
##yland
komedie
fravælge
kompensere
##86
arbe
chillo
provok
testes
##samarbejdet
jy
yam
deep
##beskyt
farvande
ombygget
vivi
fossile
thorning
##interesserede
##låg
oplægget
##http
såå
##erhver
fortids
kanterne
opbygger
adskillelse
##boys
forpligtende
byggematerialer
høg
vinduesk
erhvervsmæssige
##ylan
laug
solsk
##rålende
##trængende
annullere
fortidens
##shuse
jerry
katal
kiste
##udgiften
forlystelses
antikke
urimeligt
vår
##ieren
filtrere
sammenstød
##tz
hobb
givent
nedbryde
forskellene
##mærk
htx
takster
advokaten
brugervenlig
pam
hætte
ortop
grillet
trægulve
forholdsvist
##plak
##ining
paven
udsøgt
##lop
##oke
slud
indfødte
##bekæmpelse
godkendelsen
map
##pasta
lotus
knuste
##ygninger
panelet
##hai
sop
sous
buret
psyke
opgiver
søgningen
##sur
##bjæl
##skatten
syltet
medalje
ubalance
individet
andetsteds
citronsaft
spekulerer
##frys
mcc
abstrakt
##boe
##kroge
villaer
konsisten
menupunkt
ufatteligt
søgefunktion
##onn
baseres
parkeret
årsskiftet
cirkler
bordeaux
udbetalingen
utilfredshed
##zni
##falde
amor
hatte
kronik
sandra
indbetalt
tegningen
agt
##onerne
børge
##miljøer
##tilgæng
buttet
fronter
diskrimination
##grej
##eksp
182
jenny
kapel
beskattes
##kys
##budt
muskels
upassende
##sprøj
##runden
spiritu
synonym
##ikkerheden
knapperne
rettelser
##etisk
bosiddende
lanceringen
##enge
##more
##ucces
kongerige
##kravet
anita
kløver
drøfter
fremkom
##indtægt
koloss
svende
huskede
cif
##levet
sænk
##aviser
boder
cooper
prisklasser
begivenheden
boligselskab
##badet
ørsted
rehabiliterings
##essa
mosa
bredbånds
1-0
##rigtig
beholdt
lærlinge
gennemsku
rækkehuse
##abs
##phy
##teur
ruc
orienterer
##uff
irma
nats
kenya
sennep
theres
lyseblå
nikotin
barberet
##bliveenmand
##aust
##egist
agerer
renoveringen
##uv
##itel
fup
##fortol
##stress
##møderne
menuer
mk
##flag
hare
##icitet
støjen
befriende
##tia
trade
fuldendt
##px
apv
ekspans
frigøre
overslag
sårbarhed
sygeplejersken
##opgør
##årets
balder
itunes
##retnings
befordring
##skabs
##tiltag
faglærte
unødvendige
patienternes
##zzi
blodprøve
databaser
udviklende
bry
##green
1968
##drenge
legat
ankenævnet
lokalplanens
lyg
##tivet
##ødent
sols
allerg
kundetil
##strande
lagret
velbefindende
æt
maya
marokko
skovene
uvedkommende
##ildt
##mons
##ørsel
diana
pensum
kapitlet
##esco
vac
hagen
skrid
##udbytte
teknikere
2002,
forson
##skommune
tiltale
##sfunktion
ødelagte
attraktion
spotte
##cons
##skive
##imentet
sveriges
gynækolog
##evnen
brøk
afgår
stirrede
##låst
##køret
##skjern
klein
afdæmp
ingrid
kontinu
##hak
##foli
##yren
edge
hummer
napoleon
artiklerne
fordelings
##ribe
peer
##sensus
kalv
##jendom
hænges
fortviv
omdanne
muslimsk
forelskelse
[...]
